#version: 0.2
e r
e n
i n
o n
a n
e s
d e
a r
t h
a l
o r
a t
c h
i s
ا ل
r e
a s
i t
u n
l a
th e
l e
t e
d i
e l
t o
r o
t i
u r
an d
c o
i l
e d
i on
o s
en t
u s
o f
i c
q u
a m
in g
a d
e t
c on
r i
s t
s e
o l
c i
r a
l i
1 9
t er
s i
d er
t a
h e
2 0
de l
m e
a u
v er
c e
s u
m p
f or
g e
r es
b e
l o
p er
p ar
m a
v e
d es
s o
ا ن
i r
a c
n o
u t
p ro
at ion
un d
n e
qu e
i g
a b
i e
d o
u l
p o
m o
ch e
н а
ف ي
es t
is t
d en
م ن
ي ة
m ent
t en
v i
d u
a g
с т
a p
in e
w as
b er
ا ر
ال م
al l
u m
i o
h i
p e
l es
T he
ا ت
t r
er e
an t
I n
o m
un g
н и
p or
i a
di e
d a
ar e
s on
w i
р а
i m
20 1
ا م
0 0
ي ن
ti on
en te
al e
ه ا
к о
h o
m an
g en
n i
н о
ó n
р о
e x
l os
1 8
s ch
u e
f f
wi th
20 0
r an
ر ا
l y
at e
t ra
co m
в а
u g
p r
an s
c u
р е
w e
ع ل
س ت
h r
at o
c a
و ل
z ion
c k
t s
l as
b y
c es
r u
п о
g i
т о
un a
s er
و ن
al i
er s
n a
ال أ
h a
th at
т а
v o
e in
n el
t or
v a
co mp
г о
р и
ال ت
م ا
p os
л и
p u
l u
i d
at i
h is
v en
c or
t ro
s a
o p
m en
m er
p i
L a
E n
و ر
te d
ا د
m it
g o
r it
к а
) ,
ch en
f e
ro m
m in
a y
b i
ci ón
an o
p res
т е
f in
L e
د ر
z a
k e
m b
v on
) .
p re
p l
S t
m i
ar d
ic a
в о
p ri
th er
zion e
g u
un e
b o
A n
е н
R e
و ا
it y
i ch
c t
p a
f rom
qu i
ي ر
m on
g r
ad o
m ar
A l
as s
or e
з а
a ch
en d
u re
t re
il l
ال ع
к и
л а
ل ا
at a
de m
o u
19 9
d é
g li
w o
on e
s ion
in ter
d is
h er
del la
c ar
co l
it e
al s
ic i
f i
ol o
z e
ا ب
b l
f a
M ar
v is
r é
н е
u p
в и
í a
أ ن
д а
و د
f er
т и
s te
S e
л е
w hi
ب ر
л о
D e
an g
i es
e ar
C h
an te
an n
A r
er a
el l
c tion
عل ى
us e
ع د
a f
é s
u d
and o
c as
و م
a us
1 7
1 0
z u
ب ا
S ch
in s
au f
ك ان
it s
w ere
д о
d ur
p la
de d
at ed
м а
i mp
I l
is h
s en
ر ي
h t
in c
w or
i re
v el
m is
o ur
w ar
ن د
f ü
و ال
c am
it ion
t ri
л ь
1 5
r en
в е
ل ل
w ur
in a
es e
w n
b en
ب ه
R o
l l
on g
or t
ad a
d as
t ur
al le
v ol
b le
д и
i en
h n
م ع
r is
إ ل
м и
whi ch
for m
qu es
с е
w er
w h
i z
ci a
ال ح
p h
E l
al la
e ine
ال ق
ا ی
c an
ar i
ي ا
U n
s ur
t é
f ic
j e
H e
a v
g es
it u
ver s
N e
1 6
at er
ه م
i er
o b
ن ا
1 2
ar y
p ol
ي د
re g
d ans
19 8
l and
a in
o ut
19 4
all y
es s
par ti
ال س
ي ل
c re
b u
و س
r ic
or i
g er
C o
t on
ا ز
g an
d on
B e
al es
d ing
19 7
g ra
m ber
ation s
و ق
c ent
إل ى
P ar
b ut
o t
h as
ا ست
c er
par a
ل ك
m ente
о т
b re
no t
д е
po ur
é e
b a
s p
h ad
t y
ur s
. ​
م ر
en e
in d
o d
I I
f u
ch t
o c
ي م
ال ب
ش ر
f ir
C on
ت ر
س ب
19 6
a ve
ال ج
por t
it o
wur de
al so
n on
it i
ال إ
D ie
is chen
en to
м е
m et
g ro
v ed
el le
a ge
si ch
G e
le g
1 3
1 4
a k
am ente
t es
co mo
t in
00 0
t u
ic e
ا ئ
or s
f o
am e
c ul
ت م
f r
ح د
or d
er o
و ب
li e
co me
e mp
p en
ч е
f il
is e
b as
19 5
م ی
m es
os t
st ru
so ci
v es
j o
an ce
pro du
v or
the ir
a i
s ol
fü r
V er
c ed
in o
п е
te mp
ar t
si g
ch i
c al
o k
м о
م ل
e le
u x
par t
. .
an ti
ч а
н і
J a
و ج
l ar
P ro
و ت
del l
z z
р у
lo w
E r
с и
p as
li ch
ст а
ri e
I t
ul d
F ran
ر ب
c ap
v ent
1 1
19 3
ع ام
le d
ع ة
T h
н я
п ро
é n
f t
un i
m il
it a
fir st
b r
mb re
ب ل
es ta
с ь
y ear
on o
و ي
de i
ال ن
ف ر
H o
s pe
á s
u di
v il
am p
ال د
ation al
au x
m at
u ro
n er
s es
ال ك
it à
si e
m s
le t
b or
m us
d os
ق د
ل م
r y
l an
re e
л я
S o
в і
v al
ug h
wor k
on t
ا ف
as t
s y
be i
in t
m u
ع ن
к у
f ol
ig n
s us
с я
en ti
h ab
ha ve
ц и
to s
ac k
A u
an a
ä n
en ce
s c
о б
w ho
p on
è re
g a
ic al
C ar
c ti
н ы
ح ت
inc lu
ab le
o ver
th is
te l
di re
س ا
ion es
2 5
п а
er n
per son
me di
re d
par te
b es
г а
3 0
ci p
b ur
co s
с ки
in di
b ar
g io
o ol
ig h
bl ic
s et
ل ي
pl us
b is
h en
a ff
ent re
il i
ه ذ
" .
ü ber
of f
ser v
é r
un der
س م
h l
olo g
be en
J o
و ع
s ho
o g
is ti
الت ي
at es
U ni
с а
an i
pla y
na ch
س ي
en s
ro s
ter n
ment s
u ti
M e
б о
s h
O n
S an
at t
t wo
z i
è s
f ue
п ри
ed er
M a
N o
M o
ent s
f am
ave c
ad os
b et
hi p
ti me
ic k
ت ه
ك ن
m as
se con
g el
os e
ст о
ar io
d ist
or y
w ay
in to
и з
ur a
ها ی
د ه
it é
ne w
C om
Q u
A s
ч и
ال ش
us t
an y
d ad
o per
м у
ст и
c ri
ك ل
au ch
ج م
af ter
m un
п ре
خ ل
ال ر
un ter
u c
س ر
ب د
ci al
т ь
ف ا
ً ا
d al
Ne w
ung en
ta in
c ur
L i
ح ي
і в
the y
с о
a ñ
in i
ж е
س ل
el d
ه ر
it er
с ко
O r
se in
v ie
su b
s ti
أ و
su c
ی ن
o ther
su l
ma in
f ig
pres ent
ک ه
ب ي
g et
2 4
l d
an ni
f ac
du e
del le
F or
ق ة
م ت
en n
ال ف
l in
ir d
p p
z o
f en
or ig
or gan
st itu
S u
su o
B o
N el
in f
T e
pr in
is ta
م د
б у
r as
é es
pi ù
qu el
ال خ
ال ذ
е р
tr ans
으 로
an e
is te
zion i
A us
д у
5 0
f on
di ff
re i
a th
en do
s el
ü n
an no
an che
ц і
E s
ces s
ر و
sch af
D er
s in
ا ء
as e
ma g
c tor
p ul
i den
di o
n um
ce p
2 1
is ch
m or
y s
g ran
m ore
b il
ذ لك
l er
G u
gen er
wo uld
P er
л і
dur ch
ب ن
C ol
ri g
vis ion
m ás
st r
т у
ti c
" ,
son o
w ard
201 0
b ro
D i
nel la
li g
ti v
п и
ul t
et te
fil m
a is
ни я
i co
c rit
al t
ب ين
is ter
s he
c ted
al b
it ed
ال ث
k s
ein er
us ed
n or
de t
ad or
h at
w ie
2 3
al mente
Ja hr
i k
ti g
ق ل
ص ل
tr as
د ي
n am
ch ar
re l
에 서
b el
e p
ب ع
ال ط
كان ت
á n
ي ع
it t
m é
v in
pu blic
N or
L es
b an
m ost
W e
201 1
ol d
M on
خ ر
so me
و ان
is che
gr am
son t
l us
د ار
س ی
é té
b li
z ur
ال ي
con tro
2 8
h ist
ung s
su ch
c is
th ro
х о
ال ا
e ff
ant s
con tin
ati ve
am bi
u te
au t
at ta
و ه
l or
B ar
2 6
in n
201 2
at ur
c las
r on
د ا
mis sion
ای ن
D a
f es
200 8
E uro
v ing
en g
ma y
lo c
se g
ни е
G r
b and
m al
し て
ti l
st and
2 2
س ن
i de
201 4
s ing
ig ht
19 0
B er
خ ت
س ة
W il
con si
о р
2 7
م ح
th o
wh en
□ □
ك ت
一 个
as on
at s
T o
t to
з и
政 府
ال ص
سب ة
ب عد
н у
ق ي
ion e
م ان
ا ه
. "
vi a
j a
A b
ant es
さ れ
il le
cam e
I m
г ра
A mer
su a
ر د
el t
200 9
し た
ü r
ъ р
H er
wer den
bu il
i or
A t
z um
ö r
R a
u o
ا ً
hi m
I s
l ater
w s
v ic
l ine
di c
м і
for e
ru p
A m
er on
il y
201 3
co ur
ع ت
中 国
ag ain
D ur
at ing
ر ف
year s
J u
ish ed
f ran
و ز
en er
vel op
ch a
A f
d s
un o
л у
201 5
р і
p ass
lu b
ni cht
imp ort
L u
Uni vers
g ar
h re
p s
v an
tion s
wh ere
t it
C or
on ly
al a
orig in
ш и
L o
n ed
Jo hn
b ra
re le
c y
ü ck
su p
f ul
2 9
k ing
200 7
d ent
б и
M it
w a
th en
we en
م ة
k en
es te
i ón
pre mi
schaf t
U S
ar on
ch o
4 0
M an
ال ل
ش د
ك ر
at ure
con stru
prin cip
إ ن
al is
th ere
ter s
di es
ci r
ي ت
pri mer
en a
l ing
sch ool
as ed
dur ing
о с
ch an
eine m
ion s
T his
c el
ci o
com me
ent r
v ari
d r
S te
y a
» .
18 9
pr é
or k
خ د
g re
k no
آ ن
m os
n et
th an
z en
P ol
） ，
D es
г и
ch er
d ass
б а
a ción
it en
co un
it ies
P o
f ur
ma de
k t
っ た
ا ص
for ma
p un
ح ر
am ento
و أ
200 6
A d
ab out
но го
cu i
ج ل
ion al
201 6
da y
الم ت
ра з
с ка
t al
G er
w ell
on s
ali z
bet ween
ث ر
con s
é g
c le
st en
ж и
ver y
S p
ق ر
le y
ch es
ar a
t an
t ing
W ar
it al
F e
غ ير
m y
t ut
men to
Z e
c at
p es
D o
c la
l ong
w ird
ig en
ö n
el y
ma is
man y
E x
ä r
pro gram
i f
ا ط
ی ک
p et
ing s
j or
c en
P h
is o
con tra
po pul
ent es
َ ّ
6 0
ber t
é ta
أ ي
1 00
m ol
а р
er t
pri ma
on a
di d
ul ti
ein en
m and
st ar
se gu
gu er
ك ي
ال ه
C hr
ب ار
و ی
to ur
st a
ا ج
ل ة
or a
st ud
ri ch
si a
bur g
er en
m m
lu i
tur a
N ach
et er
20 00
c in
s ind
il d
alb um
ä t
d ition
l at
ra g
j u
б ы
min ist
G es
ab il
h an
v ir
す る
b at
هذ ا
J e
اد ة
st udi
res pon
هذ ه
c to
i le
و في
ي ات
f un
с ъ
使 用
ت ع
t ure
pi el
th ree
о н
L os
res s
ت ص
201 7
ال من
pla ce
j our
a ir
re cor
t ar
u to
18 8
Ch ar
co lo
con tr
E in
secon d
p te
di a
b us
а н
wur den
st er
200 5
es ti
S h
te am
be ing
go ver
s or
on n
su per
ك ون
id ad
ra p
se ason
com mun
ambi én
comp le
spe ci
h al
te il
18 7
me mber
d ar
contin u
f ar
is s
S er
ع م
le ad
б е
consi der
W or
ي س
h igh
si de
et z
s k
fü hr
en cia
ت ح
u ch
ب را
美 国
be came
f ut
we ver
S ta
A pr
d alla
ic an
ad as
so u
m ed
p at
li chen
ur es
ل ف
و ف
Y ork
ex p
D as
on i
der n
f our
A ug
d am
k m
u al
dur ante
b ack
خ ص
it z
ان ي
se ine
de ux
д і
ap pe
n ing
п ра
p el
at or
B r
щ е
他 们
ter min
p ut
o der
the m
е т
て い
st ate
pro pri
f re
n ational
开 始
ur y
c r
ст во
R i
h am
ш е
第 一
H ar
k o
G i
S he
gro up
thro ugh
م ث
pol it
c ts
ك ة
h el
ي ش
ب ح
الذ ي
o us
o wn
.. .
inclu ding
c alle
p t
z we
again st
أ ك
per io
d ro
в ы
con om
ب ود
s é
d y
» ,
w ill
on es
de gli
可 以
Un ited
tr y
pos ition
II I
la bor
am es
whi le
c iones
fol low
日 本
k er
ر ض
ca use
ab a
C an
b all
п і
te t
P ri
v as
J an
s al
ar o
د ی
ur ch
л ен
pu b
وس ط
ce i
Re g
3 1
op le
ц е
Au f
do po
z w
ت ش
公 司
ت ن
bo th
ه ي
par e
er te
u el
あ る
a va
c us
ни й
col le
c are
حي ث
e mb
tor e
었 다
r ent
en za
g s
香 港
v it
b al
En g
м ен
ب ة
m ig
in es
الأ م
te le
ar ri
ad t
ار ي
ه د
” 。
” ，
ве р
M ay
or ia
200 4
f und
l is
Co un
w rit
h om
de velop
i an
ه و
il s
ut sch
201 8
Af ter
Sch ool
p ic
li o
18 6
m ill
ß en
P re
g un
nel l
mil it
t t
р я
ri ed
ar ch
op en
عد د
ن ي
ti ca
au l
ال و
k a
di g
s itu
con o
st es
p end
te ll
c lub
be fore
u le
th ese
suc ces
vi de
kno wn
p ra
ti ve
con f
h um
sy ste
L and
ط ة
res t
y o
ri d
ber g
ق بل
li am
in de
G re
w ä
t est
é l
ص ر
ك م
y e
ale ment
S i
S y
n é
í an
vi ene
ent er
p al
calle d
л ю
S ou
h u
ش ت
ن ی
ê me
T ra
ج ن
以 及
ی ر
u er
و ك
عل ي
ven ne
gra ph
H a
с у
V or
h m
0 年
к і
ver si
is on
l le
in ten
ol i
i res
Н а
P r
des ign
к ра
appe ar
l ung
部 分
） 。
ad re
Wor ld
M us
ж а
vol u
G o
ction s
l ic
j un
li che
id ent
n al
lo ck
an z
ни х
ين ة
at ti
se mb
cam p
cent r
in st
M in
al ia
om en
u b
li fe
ta g
num ber
بل غ
N ational
h y
u ve
п у
ist s
ic s
د يد
se ver
B rit
世 界
하 였
大 学
C as
re cei
研 究
R us
f ica
ر ة
pu is
пе ре
сь ко
tho ugh
B ro
s olo
进 行
per o
añ os
organ iz
ي ج
te ch
Co mp
F o
ar ti
at ten
en z
Univers ity
s che
st ato
ver sion
م ار
no w
n es
成 为
z za
F il
re ich
der e
vi er
all er
g le
n uo
ح ة
on d
at en
el f
k ann
200 3
ві д
ا ع
c ción
bl ished
i hr
a zione
les s
ت ق
comp os
fa it
w in
Se pte
没 有
c ro
س ال
fo und
م ق
ar ia
b ru
c ette
n ment
ud ad
Euro pe
l ug
mar k
temp or
M or
M il
P res
v ano
es pe
했 다
B a
ب ت
so bre
a ver
G ro
包 括
200 1
Aug ust
ag es
pe ople
in iz
Amer ican
Septe mber
8 0
W est
з на
م س
ä u
ess ere
la w
se e
ب ی
at to
ا ق
il la
t ambién
ع مل
C ity
de c
it ali
o ch
un til
ap pro
f ra
П о
gr and
rele ased
s hip
au to
Al l
0 s
am b
no mbre
t res
200 2
в у
sho w
i ed
ф и
st re
ug ht
gi or
m ême
am a
9 年
b be
ag o
Jan u
3 5
T or
ط ل
tri bu
щ и
f all
ال غ
bo ok
خل ال
us es
ste ll
Apr il
st at
وق د
lo cal
ان ية
و ية
le x
认 为
i ent
n ur
s ci
с ле
P a
et s
tr ad
か ら
s ame
أ س
ro man
ag ue
r un
الق ر
P or
li a
form ation
自 己
are a
g t
ê tre
و ات
ho use
بع ض
k om
pl an
ac iones
pro fes
n ue
ت ج
حد ة
B u
G ener
G ra
H is
Ze it
si ve
N A
P e
ت ا
其 中
ير ة
H en
e qui
الم ع
ú n
l la
p é
ст ь
Ge or
H ist
j us
ي ز
la ck
ge gen
no ch
ab er
V i
lo t
e ven
o tro
ذ ا
щ а
be g
ze it
en ne
an za
la g
re tur
W i
al c
pu és
g est
qu ali
ي ق
as i
و ح
其 他
4 5
ف ق
第 二
don de
اف ة
h ol
mus ic
ear ly
d re
de ci
د ة
der s
ра н
ges ch
uti li
з о
ك ما
ul ar
au g
vo ir
حت ى
No ve
R os
S al
و ض
pr és
ج ه
人 民
K on
ل ه
S ain
g ent
ac tu
ار ة
s to
è me
ст е
ول ة
на та
añ o
iden ti
et t
e vent
م ش
ک رد
me hr
ser ies
e y
en o
en de
الم د
man n
R ich
ä ch
pos si
b in
c é
li ke
b t
pro te
с по
is se
he ad
buil ding
こ と
no m
vi du
18 5
8 年
N a
des cri
St ates
h men
i al
ل ت
ре з
E st
h in
国 家
la y
le ur
g y
t ent
ن ظ
lor o
ä l
S ie
g ed
vil le
г у
ف س
主 要
ind us
c il
ال ات
но й
Nove mber
ко н
St re
e di
v re
po in
mu ch
7 0
ع شر
ci as
mi ento
ct ure
C ap
ne y
do ve
B ur
In tern
am o
co ver
be gan
sever al
ا س
하 는
at z
ch é
ci udad
ag n
Un ter
وج ود
inf lu
su e
y le
д ен
ti co
R om
n ame
的 一
bi le
t w
M ich
ва н
ма н
ser ie
for t
í n
ma jor
b io
et y
E d
S a
b au
ر ی
The y
tr u
أن ه
T r
c ity
el s
ري ق
gran de
- -
M c
de fin
k es
di ese
з е
sa id
off ici
T er
工 作
sein er
و ص
wor ld
مث ل
و ار
و الم
ل ی
ول ا
к е
k i
ب ش
ar ro
vie w
v amente
ñ a
L ou
ar be
b ed
ter rit
ap p
ان ی
ac tiv
bas e
co uld
6 年
Fran ce
suc cess
W as
n en
t ant
있 다
to ut
Wil liam
e ing
inc re
sig ni
ا و
ع ند
re f
c it
ne i
p ur
s m
ar ly
li mit
soci al
因 此
o la
po int
5 年
M al
am ien
fin al
indi vidu
ال عل
щ о
س ط
台 湾
cti ve
B C
s cor
c los
g ame
m ater
Ho wever
ن سبة
ن ت
由 于
ros s
D ies
at ore
com un
б і
an im
ل ات
al d
os i
uni vers
te ur
M as
р ы
ت حت
7 年
an ge
S co
u f
u ally
la ge
ار ی
3 年
F in
un t
et ro
т ра
ي ف
ca us
e f
e g
u ver
is mo
hat te
x t
ac ional
z ie
al ong
so us
4 年
9 0
M ad
Sou th
pri mo
てい る
A c
F re
f ri
v om
ch ild
do wn
nel le
2 年
T V
b est
y al
نا ء
has ta
p ay
v ar
ques to
gover nment
ان ت
d or
h and
ment re
но в
ep iso
of fic
ter ior
ни те
Mar ch
n ation
ب ط
so wie
fa ce
C am
i do
d ra
qu ent
F a
ver so
for mer
ric t
. ,
M i
j ed
s pa
ac c
minist r
I V
u a
an ci
and er
for d
i que
ar m
ho me
ex per
guer ra
Je an
syste m
5 00
可 能
ol tre
diff er
ag gi
g én
أ م
ال ية
ва т
D u
ac t
fam ily
地 区
in tro
qu ad
vi d
h or
خ ط
zz o
J ap
ز ی
ap r
ke it
Sain t
e k
al low
qu at
por ts
ن ام
و الأ
K ar
z io
lar ge
ال بر
des de
c itt
s ent
w est
م ج
） 、
st ra
gra f
S in
ما ع
3 2
d all
ر ق
他 的
po wer
L as
f ine
os o
qu al
be cause
pro ble
خر ى
res ult
bi en
gr ad
Th ere
zw ischen
я т
教 育
و ش
fe m
ны х
du c
ge b
l en
З а
ه ن
3 8
in te
c ra
因 为
当 时
es p
lie ß
contro l
1 年
ex ten
Fe bru
ال ز
во й
fi eld
ward s
و اد
c tr
ح ق
Nor th
C e
c li
in ed
je ct
ed uc
éta it
в ре
re li
ma i
ان د
ber e
we iter
hab ía
i x
М а
学 校
es to
or der
ن س
war en
B es
C hi
K ing
p ed
گ ی
to wn
oc cu
cu ent
ف ت
发 展
18 4
по д
c ré
하 고
at ro
am er
pro pos
ag en
w on
中 的
to p
don t
gener al
au tor
18 0
cent ury
X V
l it
ul y
را ء
è res
： “
ra c
ge h
하였 다
د اد
le ment
B au
l ang
r il
wi eder
され た
و ط
ti vo
po i
х а
하 여
re c
ist en
H ol
m id
ac ter
bas ed
play ed
w en
同 时
us o
يم كن
origin al
计 划
con tre
ter m
T ri
l ate
or es
fa hr
B y
e ach
p ie
parti cip
sul la
e conom
x im
经 济
ag li
bl ica
o ù
pro mo
or o
ъ л
中 央
con cer
C a
b ri
popul ar
h on
英 国
apr ès
3 4
3 6
к ла
文 化
St adt
Ja hre
si x
Gener al
w ing
ت ل
el lo
W o
p le
。 ”
b les
h ar
で ある
ck s
ri co
го да
ard s
b on
g rup
n as
re al
pro p
tan to
s co
is m
el la
P al
in vol
aut res
ال ة
ge w
comp any
pos i
olog y
sin ce
eff e
s ite
と して
に は
ti r
K e
í as
qu ale
20 19
mo del
ist as
ци я
ق ا
so ur
sup port
c ion
政 治
电 影
M er
k ed
to ok
ти в
م ست
و الت
中 心
ри я
pri v
form ed
с во
ti ene
ار ت
U r
ко м
ein es
recei ved
v est
ش ده
ف ة
as soci
ть ся
R es
des pués
199 9
Col le
su i
de ath
re fer
do min
Janu ary
J uly
si è
ß e
ä ter
и н
di an
sti ll
T i
т я
co st
L on
in ess
am men
to tal
ci ó
S pe
ier t
ت أ
ي و
pro vin
ни к
er st
por ted
De ce
n atur
u pe
ج ر
ح ل
dies er
أك ثر
ф е
ک ن
表 示
le ft
p ue
ц а
Dece mber
p an
К а
li ber
سل ام
M os
l ors
한 다
stud ents
Ges ch
3 3
之 后
الأ ول
fin o
ear ch
re ad
ne ment
с і
s an
ac tion
pro vi
tor ia
zwe i
aro und
د و
al ors
ка то
12 月
lig ht
m ic
o th
社 会
го ди
о на
ي ط
l é
v ice
р ъ
os a
jed och
6 5
K ir
u ta
su m
ut z
In ter
j et
se x
a z
ب ال
و من
al tri
ti e
Brit ish
clas s
buil t
8 月
د ور
pro b
vo c
J une
V ol
д но
د ان
so tto
sing le
برا ی
C i
T ur
ل غ
ve ment
gro und
P aul
ро ку
10 月
ba jo
Dur ing
9 月
ك ب
re present
ic es
suo i
b ia
é po
代 表
en en
re main
aus si
ste in
Par k
о го
ع ب
con c
خد ام
O cto
g as
т ри
ن ج
ag gio
las t
Ar t
stes so
B as
地 方
it es
P u
ف ع
되 었다
이 다
co up
199 0
wh at
7 月
ف ض
lo y
w ater
pu bli
j er
t z
le vel
ap par
zion ale
B el
通 过
at ori
199 7
produ ction
organ is
4 月
ti mes
pol iti
rig ht
member s
indus tri
b it
l ä
u es
أ ول
ي ه
th ose
ول كن
ali dad
cor ding
199 8
Octo ber
B un
s iste
ب ق
ther n
5 月
h os
co le
medi a
B re
C A
в ен
ئ ة
支 持
cas t
premi er
mat ch
а к
系 统
Fil m
am en
اري خ
gu i
nam ed
l ti
n ess
3 7
д ля
ن ة
پ ی
A ir
K o
e uro
am m
li er
ст у
سب ب
Aus tr
I mp
v ant
و كان
us ing
et à
ст ра
may or
amien to
ج ز
所 有
V al
f é
re aliz
si mil
serv ice
ي ين
ال فر
ill er
وق ت
1 月
F er
st ation
cu ando
chan ge
і н
ci dent
ab o
الأ سر
ord in
B l
i hre
í o
大 的
ar s
su ite
ст ва
أي ض
vir on
ف ل
ch ang
ment al
amp ions
at ter
ta ble
ст ро
da i
ich t
ain si
d ol
ت ي
sen ti
bor n
follow ing
3 月
C al
ا ض
گ ر
委 员
s ac
und o
O ne
z us
в ъ
an os
ac qu
ich te
cla im
intro du
S A
ri bu
ны е
care er
N i
c ut
ي ك
con se
se mp
su ff
را ئ
P i
on y
pl ic
h eld
에 는
M ag
c ito
ad es
الم ر
f as
人 的
ar es
eff et
tech n
H igh
أ ص
ط ور
到 了
ar ono
G ar
pos t
h under
خ اص
ي ون
land s
otro s
re ci
sion e
use um
ль но
sol d
ég alement
f lo
w omen
fi ed
C he
ver se
Le ague
gli ch
ی ت
ne ar
D on
al th
199 6
Par is
primer a
W hen
st or
st yle
vi ol
ко в
7 5
k il
et a
ma ke
inter pre
خد م
6 月
ش هر
ی د
ano ther
те л
B or
E mp
J ack
ion i
den ce
temp o
B en
D ist
g ab
z ia
en ces
Lon don
W er
ک ار
al y
com mer
cas e
vol ta
mill ion
citt à
B an
F ra
f s
l s
v é
w ir
已 经
es se
cu al
ق ام
It alia
上 的
وا ق
í s
ع ض
提 供
الع الم
isch er
k ön
l leg
V ic
un que
hab it
3 9
ñ o
م ه
ら れ
作 为
W h
g ru
т і
で は
in ves
ad dition
n is
la ción
di ó
co urs
Char les
signi fic
r us
в я
ك وم
ч но
k on
г і
要 求
in iti
an to
au th
no min
G ran
c ris
p it
th ing
Lou is
F ol
事 件
ti er
pro ces
ho w
ро з
成 立
per met
do t
ali zz
ре д
ze ich
f an
ti es
ri o
hr end
vel y
пре д
d it
at tra
го ду
b st
这 些
we ise
De utsch
ha us
ك ز
ی ه
qu ando
con du
mo ved
ex ist
col or
mis mo
пре з
الأم ري
11 月
г е
ب ات
n u
qu ar
con stitu
را د
bi et
J os
R ed
i ma
ч ен
م ص
に よ
国 民
影 响
es a
son g
Ri ver
iniz i
一 些
pr is
ur i
fo is
Jahr hunder
k onn
ö ff
man i
cre t
San ta
3 00
S on
n s
st ag
пе р
profes sion
ان ه
ст і
F am
a it
m ie
n ia
con ta
ric e
vide o
ж ен
ф і
ش ود
do cu
f ici
199 5
сь ки
ér ica
succes si
sm all
P at
Z u
p ir
con t
der ni
sch ied
we it
So ci
方 面
de ut
it ar
with in
tro is
B i
B et
D is
b lo
ig i
Da vid
M en
fol g
ско го
ц ь
199 4
secon do
القر ن
si an
a h
战 争
of ten
El le
C u
к ъ
重 要
fu eron
g os
r at
ß er
ch te
le ar
الم ست
ici ón
ب ية
ص ف
ط ف
ظ م
ي تم
共 和
de cis
el o
pe ut
ون سبة
ور ة
Ho use
fur ono
F C
j ust
ш а
ر ان
bi er
St udi
F l
ف ن
sp äter
cono ci
Jap an
M y
b rit
g ing
pres iden
vis ta
ques ta
Fran k
P ort
am ong
ci vil
اب ة
cas a
) ،
c ada
h of
m ate
ا ش
Se con
inclu ded
Ger man
そ の
ro ad
for man
ct u
الع ام
fi ve
fr on
F ir
ا من
un ded
constru ction
R u
g res
on ce
di ci
con serv
om as
mol to
ا ح
っ て
ne u
وج د
F u
M u
د ول
.​ ​
ско й
w el
و كانت
不 同
es i
am in
نا ك
ave va
م ال
رب ية
h ing
と な
qu er
ve z
اد ي
н ски
ئ ي
د ون
an ces
res pe
وه و
w an
w ed
б ли
al lo
di ce
St ate
J ose
Ü ber
法 国
er ano
An ton
198 0
194 5
trad ition
differ ent
de fen
ba hn
hal ten
y ing
ث ير
inclu de
C I
N av
p il
ا ث
ب ها
ن ش
总 统
ar se
al ter
ati va
Jahr en
T a
d in
g ol
历 史
am i
سن ة
si mp
me mb
cor e
col on
بش كل
S en
i ff
s il
으 며
ate g
pos e
الع مل
olo gi
S to
un k
im ento
uti lis
的 人
co g
os to
して い
ز ب
to ire
no ve
199 1
197 0
ث م
ال آ
ta ke
4 4
ق ط
ke hr
cour t
popul ation
U m
ü d
к ре
den te
Febru ary
P as
ro und
D ar
こ の
الم ح
v ita
م ي
re du
se it
tra in
Geor ge
D en
e very
ö l
出 现
国 际
for ce
ان ون
fon d
volu tion
Intern ational
B ra
B ay
s ed
К о
д ру
م ؤ
ente d
H am
S S
let z
zur ück
B al
C ro
S k
c ine
z ug
at ura
19 20
est á
يل ة
emb ar
R A
i da
ist es
all en
را ض
ador es
in stru
pe u
cor a
wo od
خت لف
сле д
re qui
tr at
An gel
Ro bert
anno un
S il
S tra
Per son
Coun ty
ر وس
at ely
199 2
Dur ante
W elt
c l
ی ل
な ど
问 题
bel ie
C our
ـ ـ
获 得
la vor
di ed
el les
ro le
ter e
ie urs
qui en
mon th
P eter
se le
bo ur
يم ة
cul ar
premi ère
H all
h ard
p ap
w es
reg ion
جم يع
K re
é le
es pa
re gi
ad ministr
he im
Le ben
ف وق
و عة
con tribu
ser ved
Amer ica
B us
H au
b ol
i hn
s os
к то
ro om
ce le
ва ли
ob je
sig ned
Fran cis
fam il
cep t
B os
同 年
al li
ال شر
to do
rie b
inn ing
Colle ge
c ing
l ish
ro te
عد اد
hum an
4 8
u i
ch os
vi ent
sig n
□□ □□
L in
ن ية
con ten
dem ás
17 9
O per
j os
会 议
音 乐
it et
الم س
comp et
C lub
en viron
de utsch
com mon
ann ées
w ent
ج ت
ك س
时 期
正 式
ati vo
recor d
K ön
گ اه
ور د
oper a
O ber
g ri
É t
ú lti
غ م
or io
ate ur
عد ة
parti r
sol l
tele vision
M un
d ía
ge me
ва не
p ú
但 是
ent al
com men
Su per
gre at
etz t
prés ent
g ia
ro t
for me
pro f
import ant
الل ه
D r
K om
о д
了 一
el li
parti e
عام اً
dire ctor
O ff
k am
这 个
ال است
في ها
ue go
pu blished
الس ل
Stre et
M is
z ar
é ri
а л
技 术
ut es
ue la
cor por
cap it
B io
C ali
G io
b ach
us ti
fa ther
Ph ili
c ru
н ня
》 ，
it és
bes ch
c s
т ро
公 里
成 功
di vision
ren ch
sig lo
esta blished
mun ici
segu ito
ف إن
ن فس
su g
est udi
ex pres
Un ion
oc cas
Ju an
bus iness
jun to
siè cle
ampions hip
A lex
o v
د م
ع بد
上 海
世 纪
of fer
Ar be
че ски
cos ì
quel la
lus s
Bun des
i ge
ت ت
خ ود
as í
no me
car ri
fic ation
ны й
hist ory
k le
m ati
is en
ed ad
qu indi
ut en
ag ed
pla ced
ста в
C la
f el
y er
ج د
ش ار
期 间
st ata
ig er
child ren
é qui
و ى
av ant
perio do
develop ment
5 5
س ه
er os
ne xt
mar zo
cer tain
Wi th
F r
组 织
te x
di al
mo do
ag er
fran ç
H ill
d rei
ک ت
建 立
et ta
con ven
be come
gro upe
fri end
grad u
d ri
m ir
ث ة
ش ي
he it
fr ont
way s
Y ou
z one
is ed
Mar tin
ré g
ell en
gén ér
e c
g ono
m ing
н ь
管 理
gen d
Be i
work s
ario us
4 7
S ci
W a
v ig
res earch
199 3
mu y
As soci
المد ينة
Kön ig
M at
в ър
ز ي
发 现
4 9
B S
O S
s ans
ح ول
ك ية
ی ا
“ .
er sten
Th omas
ци и
char acter
F i
ê te
لا ح
versi dad
Jos é
P ier
c ell
h anno
p adre
ج ام
ه ٔ
di ale
pr end
之 一
ed it
po ten
mo dern
ро д
quel lo
f eder
p in
y ou
ت لك
se i
15 0
تر ة
lan gu
2 月
ت ها
مت وسط
loc ated
S ur
ال نا
as es
con ver
hist or
F A
re t
ho wever
za ción
part ment
Te il
F rench
с пе
学 院
at ic
bo ard
col labor
cas o
in ci
el i
res ta
inter national
reg ist
ot to
temp s
6 4
D ans
J ames
w rote
ü s
س ات
de dic
sie me
sein en
rel ations
N ord
T ran
W ol
p ho
gr ün
continu ed
S ti
X I
a ire
g in
и м
in en
in té
th ird
ac ti
ab an
hi er
ben e
الد ول
cur rent
j ug
re ach
Th ese
in stitu
se par
ac er
) ;
am ment
del lo
su d
fe ature
Ar gent
cam pa
Can ada
Hen ry
S piel
f os
n ung
r or
о ло
ک ر
ter ra
许 多
ari os
H an
b om
в то
de but
po co
ran ge
tra v
pos to
委员 会
I r
O k
ط قة
را ف
عل م
sion s
fa vor
J uni
ф ор
ر س
ch ts
la do
ta ge
Is land
coun try
сько го
C at
d an
t as
في ة
gi ven
те р
emp le
M ac
y n
و ث
需 要
si do
та к
cent ro
hal f
pub blic
T re
g lo
g ames
s ar
ز ار
en se
ch ed
dist ribu
clas si
pun to
قر ار
rid ge
espe ci
A li
C D
e je
las s
tor i
En de
Eng lish
educ ation
r ing
ч то
ج ة
er i
ti po
per s
with out
ck e
ما ء
17 8
Euro pa
F eder
ئ يس
ع ي
第 三
di vers
vi ous
perio d
open ed
E le
n ord
ص ور
ظ هر
全 国
al gun
comp ar
ding s
بد أ
z ona
é t
к ри
с лу
т ы
ч ни
ab les
gen e
sh ort
poin ts
i va
民 主
航 空
es ter
le urs
co stru
то в
الت ر
قد م
الخ ام
Gu er
Pres ident
Ba hn
4 2
v arious
是 一
ch ies
tra va
p pe
se colo
ни и
ام ل
imp ro
guer re
n ar
أ د
最 后
по л
Al s
b res
革 命
Mar k
set t
announ ced
D ire
s cu
完 成
as se
da ys
ex amp
Europe an
e vi
f is
h ö
时 间
ti emp
ra dio
cir ca
س ية
と い
et wa
no u
cul ture
att le
ava it
yo ung
auth or
K ais
c ant
后 来
qu est
اد ه
fin ale
أن ها
Ro ck
196 0
semb le
н д
ج ان
学 生
it ät
ne g
ni co
H or
و التي
ag osto
hi b
Mar ia
Ro yal
sou th
Eng land
nove mbre
S am
v os
ي ُ
es c
at temp
ال ض
ot ball
الذ ين
ي وم
中 國
游 戏
设 计
is sen
ко то
fin an
cul tur
spe cial
Do po
führ t
i hm
m ulti
ت د
ل ق
do u
الم ص
end ant
dire ct
ці ї
R en
h old
м я
с ла
ذ كر
seine m
kom men
ش ی
co p
را ق
semp re
C O
ب الإ
م جم
ri a
se y
ta x
me et
pos iti
plus ieurs
nor th
пі д
H u
d ate
ab and
ul l
hab en
المت حدة
S ar
T ex
T our
h au
ن م
主 义
ver e
tr ès
4 00
k tion
е й
mo di
к ів
то м
ле к
secon da
Is ra
Ju li
nou vel
O s
b ran
n os
p hi
ي كون
부 터
de te
re a
In stitu
bo dy
الع ائ
siste ma
G rup
r in
ha ving
esti val
A g
T im
a el
أ خرى
ع ا
ar do
per forman
ex tra
can did
cep tion
الث امن
abil ity
des arro
на ча
com bat
tain ed
бы л
m ö
z ed
で あ
ва в
ست ان
pol í
198 9
indi c
Gr und
caus a
х и
な い
en cuent
no uve
tut ti
Cali for
F estival
ك ا
olog ie
Gr and
alc uni
z er
ا ول
ل دي
to dos
ri er
des tin
pri mar
Pro du
B ru
Q ue
T it
m ut
p ite
ъ т
ر ات
ق ی
is si
H and
a voir
“ ,
we ek
tor y
parti col
ot ten
serv ices
C amp
O b
h ts
w ick
ح ية
ه ناك
生 活
is ce
194 4
star ted
pue de
M useum
p ala
リ ー
ing en
sch ließ
то ва
gli a
ty pe
zz i
Di vision
entr al
V ir
ع ات
提 出
fe w
Sco tt
D om
l í
le i
pres so
P A
d ann
ص ول
ك ات
中 华
就 是
di ri
polit ical
mig r
jus qu
docu ment
( "
a ci
c m
n un
p ital
é tu
位 于
宣 布
am t
um s
los s
198 7
Ge me
195 0
d ata
m á
s at
ق ص
simil ar
g ir
□ ■
决 定
ro ck
mo mento
por ta
gr und
M A
e ben
f ree
ش خص
و ة
is su
to m
ро в
ass ist
لك ل
الب ي
g é
с ло
ل ها
然 而
ri es
lo g
gen ce
ition s
ска та
4 6
S im
m ort
u ff
ل د
tra ck
An ti
ди н
person al
وه ي
bier no
C ur
ع ية
为 了
de termin
ter i
do m
194 0
jour s
Hist ory
W hi
е к
年 的
age ment
sc ri
itt le
inves tig
é x
с но
ي ب
con ne
con dition
ac a
Le g
St ar
Ro ma
set te
Gre en
0年 代
grup po
A ct
j an
舰 队
pp ed
hel p
كوم ة
konn te
T om
f te
è ne
П рез
行 政
and a
ge ben
pra cti
F ried
n y
th é
au tre
الع مر
Ro ad
وج ه
lla m
b ili
c ita
e cu
د ست
غ ل
ن ه
te ach
st art
ers te
bi do
ach t
fur ther
, ​
E ast
V ene
h alb
j i
m ur
الإ سلام
وب لغ
hist ori
Associ ation
c all
п ла
أ سر
م يل
پ س
st att
za hl
mon t
vis ión
mis e
bre ak
fac il
C op
c um
i led
m io
w all
虽 然
in formation
an cora
es so
ri f
si ble
com ing
وق ع
atta ck
presiden te
K a
i la
也 是
选 举
qu elle
но м
الج ن
I S
f al
re ported
ic io
den ti
sen za
198 8
import ante
nuo vo
K in
受 到
存 在
대 한
ent on
ge ther
اب ل
ph y
success ful
M ai
》 、
com mand
197 9
sy n
Rich ard
t ale
б ра
أ ما
س كان
联 合
있 는
in ner
es sa
la zione
si dent
car atter
است خدام
F ern
f us
h ne
أ حد
م سا
produ ced
sc rit
ö s
р т
di en
do es
ко й
ca dem
fin det
fa ire
pend ent
Pr in
кра ї
d us
s quad
ж да
ri us
K rie
T y
n ight
س يا
و إ
ch urch
te e
man o
go od
So me
str ong
C er
u v
in er
and ere
cor so
الع ديد
B ern
w it
行 动
el im
por te
عن وان
V on
c ab
ح ين
at ors
is to
st ory
ul tur
ار ج
gi à
na h
work ing
مد ينة
x i
城 市
运 动
qu ed
et to
pro get
ات ه
pu ò
Al b
الح رب
مح مد
. )
G a
S ha
v ali
С о
з ва
л ся
이 라
di men
et ti
pro per
ne o
Re gi
193 9
gener ale
m ad
任 何
最 终
最 高
自 由
re ti
ers hip
الأ ر
fi re
leg al
хо ди
seg n
lug ar
descri bed
Mich ael
Califor nia
ф а
gen ann
عند ما
cra ft
Jose ph
Whi le
r am
有 一
es per
ra il
li ve
des sen
cover ed
C ong
c ere
w he
he ute
und a
bl ish
aus ge
2008 年
Ber lin
retur ned
G over
r end
ف قد
北 京
非 常
ma king
ne ver
ha cia
194 1
num ero
rele ase
milit ary
Dies e
f and
s it
ж у
у ча
ي ست
た め
之 间
发 生
控 制
机 车
mo cr
pre vious
fall s
b ir
i as
и ли
آ خر
ش ا
عل يم
gi bt
ier te
ائ ل
dos e
tag on
Rom an
tiemp o
F ür
L ab
되 어
ро м
vis it
centr al
7 6
F ar
出 版
al tro
te urs
را ب
طف ال
R ol
d alle
l än
s port
т ре
ent en
mo vi
io us
198 5
tu vo
appear ed
K ore
P et
S el
S ol
g gi
о к
工 程
铁 路
de fe
re tro
st ri
ta ins
est ra
ste ad
ges tell
ric k
197 1
work ed
tel le
fran ces
consider ed
годи на
V alle
c elle
ج مع
م ما
en f
es er
ent lich
من ها
pr en
198 6
ful l
rag gi
i di
k rie
n ature
з у
ط ر
作 品
方 式
是 在
hi ms
we i
Te ch
m el
p tion
е м
ut to
на д
est ro
را ه
197 2
197 3
ihr er
gru po
hims elf
D or
S hi
en ze
per man
Ch ina
wer k
ای ی
Comp any
Was ser
الثامن ة
4 3
9 9
f ä
m ato
ar si
and eren
ri que
vi o
bi ó
kön nen
Anton io
5 3
m t
p lo
ю т
in k
te c
be kann
на й
sa ge
2012 年
Chr isti
embar go
4 1
k ur
г ла
е го
ث مان
for te
per ò
pro cess
tra g
الج ز
ме р
pen s
sho uld
اط ق
equi po
6 6
H ö
建 筑
mo der
not amment
sp ir
bere its
とい う
B lack
T A
T ro
f ab
ц ен
ش ع
主 席
ch ap
qu ant
ck ey
na hm
دار د
bli co
tut ta
commun ity
arch ite
S tr
h é
ent a
con os
ie f
mit tel
fi co
ann ée
let ter
Es pa
Min ister
P ala
P lay
f atto
Т о
أ ح
ا عت
س ع
ن ها
و ير
政 策
ra ce
وال ي
194 3
esta ba
mus t
poin ted
quent ly
b s
g l
i ème
よ う
al tre
re y
ne cess
ни ка
comp let
fe atur
studi o
Coun cil
علي ه
A k
Z us
c ch
も の
vi dad
dec lar
offic e
Gio v
M ex
M ann
ن ما
活 动
海 军
ни м
go uver
2014 年
R é
d le
に な
情 况
to gether
ri mon
su re
tra ba
ell er
ga z
Ac cording
C ette
a pare
h ig
l ist
r al
أ ب
进 入
ad ap
ten er
Se g
D S
S om
i ze
s hi
加 入
参 加
de g
la m
де р
princip al
exper ien
stag ione
ó r
т во
立 法
on to
ال ان
ac cor
pi ed
dis co
person a
geh ör
Kir che
examp le
B ut
a de
ú s
ع ادة
所 以
at te
ac tions
mon diale
fic io
propri o
reli gi
5 1
J er
e i
ri le
ac comp
com bin
196 9
cap ital
sho ws
comple te
tech ni
nue vo
8 8
B is
D an
M id
W inter
ك ري
根 据
ic ally
19 19
الم ؤ
gli o
C y
U na
В и
П а
о гра
ar tic
il os
am s
vi da
ber o
Re cor
198 1
jo ined
193 0
Jack son
国民 党
接 受
re mp
st än
ne ed
Re al
Chr ist
fut ure
B ri
P l
С е
ح و
ض من
举 行
에 게
an al
la u
di um
di fer
19 17
La w
bei den
رو ف
自己 的
الخام سة
G al
ز ة
这 一
de puis
re alizz
ad op
no ti
we g
vis i
Ch ic
wor d
episo de
F rom
N acional
P enn
n ero
ال في
un de
di vent
am érica
po u
mi th
mar ried
ны м
isti c
possi ble
A M
D al
L an
M ur
f ang
Р а
إ س
ت كون
ط ريق
的 大
ام ا
ين ية
min ister
لا ب
الب حر
حد ث
ele ctr
mos tr
نی ز
х у
إ لا
关 系
وا ج
ris to
Par ty
مر ة
oth ers
zus ammen
s po
В о
г ру
ш о
ق ية
ur al
ul es
الت ج
bro ad
اله ند
пра в
gle ich
Gesch ichte
5 6
L at
P an
и ме
أ ث
ch ten
ci ò
cre ated
It ali
اف ت
bes on
Uni versidad
mor te
一 直
se a
An dre
ese mp
197 5
196 5
196 7
V an
غ ي
me jor
so m
na zionale
reg ular
recor ded
Cour t
aband on
5 8
E ine
أ ف
” （
制 作
is ation
be im
ser vi
те ль
pl ant
Al le
vil up
og ni
sel bst
2010 年
wä hrend
5 7
L ig
P la
v ac
в ся
al k
be au
po b
hi elt
ll er
sy l
retur n
campa ign
e z
s of
v ra
ث لا
خ لا
د را
ض افة
》 （
res ul
und en
ро ці
gu ar
bo x
Re public
inter est
fir m
196 8
fr at
fr ica
stru cture
medi o
pet to
Dist rict
hing ton
B ill
k re
罗 斯
青 年
con fer
ac ross
ap pen
In dia
wi de
dé velop
الح ر
ای ران
posi zione
P ho
g ang
企 业
军 队
参 与
ta ken
par ty
les ia
wo hl
Ch urch
pend ant
mark et
Was hington
العائ لات
enton ces
P lan
s piel
w at
ا خت
en th
al though
me ister
are as
c ad
r ad
s pr
з да
ц я
ن ين
im mer
pol ic
parti ci
197 4
dist rict
َّ ة
عم ال
duc ation
ilos op
C up
a unque
n it
t í
ü t
ق ال
ラ ン
ー ル
工 业
co li
qu anto
لا ً
tit le
Pier re
B and
B lock
H y
H aus
d ort
de b
do v
mo ins
los t
sa w
198 4
cap ac
fig ures
rel ati
Mit gli
tut to
Francis co
, "
M är
S us
W es
r ä
ç o
es sen
is me
se hr
po der
dé but
tri es
develop ed
territ orio
F ort
H el
b ell
c ô
f le
r ist
М и
ي خ
主 義
并 且
or g
to ber
ti que
ic as
ter re
per mit
194 2
olog ical
Fam il
B est
L or
M ill
P lat
ي ح
い て
新 闻
独 立
au er
cu la
во д
اب ق
speci es
P our
f oc
m ale
m als
Т а
另 外
自 然
de cor
ve ce
mo ve
est ado
ag ne
ار ات
pr ä
An d
198 2
دان ش
الأمري كي
u me
ه ل
ه ور
re cog
ing les
li ed
tro p
ke y
ori ent
197 6
set z
الر غم
Hen ri
diese m
Ok tober
7 8
A le
G old
T ambién
U K
d at
h ann
ñ os
ح اد
ز ر
一 般
山 东
ck en
وا حد
mon do
inter ven
sol u
mé di
2011 年
chies a
C re
E li
M et
T u
e as
s vilup
و الع
来 的
er an
sch en
dis e
ier ung
Com mission
ide a
てい た
pay s
Kais er
E ste
a ce
s ell
v ale
و ما
ک ند
۱ ۹
ne ut
ne hmen
عل وم
men ti
bo t
Al though
n ie
刘 备
at re
ко ман
fam ig
school s
rap present
Mus ic
Austr alia
》、 《
1 日
6 9
C E
C ent
S pa
V illa
f eld
ま た
德 国
al tern
la v
si gui
po le
com mission
ques ti
Ra il
follow ed
к лю
х і
ئ ية
ب م
ب سبب
ح س
پ ر
人 口
合 作
19 14
mo ther
ven ue
Re ich
Fran ces
atta c
term ine
B A
U ne
ت ز
ط ي
al g
co stitu
ing er
so it
we b
Mar y
lie gt
emp loy
design ed
D el
D ani
d ung
j ou
ل ند
ن وع
적 으로
ed en
ten e
om et
men o
inter no
cam bi
ph ys
fig ur
respon s
Argent ina
nouve au
E arly
O ther
W ir
m ul
y l
Д о
ч у
ر ج
ق در
完 全
我 们
en os
ho ut
ве т
الد ولة
stud y
Rus sian
D A
D V
c lo
i chen
k te
ف ه
— —
内 容
in vece
se cu
ig t
وا ست
iz z
ai res
amp ion
Au ch
C es
í sti
є ться
的 是
en core
ar te
qu o
su pp
por to
go bierno
Ar my
ien do
fo unded
lie u
Fran cia
sel f
idad es
grand es
provi ded
K ur
l ica
l iter
ت ی
军 事
la gen
ap plic
om men
wi fe
ра й
ка р
mi x
يد ة
196 4
vil lage
хо д
utili zz
aug h
Hau pt
Chic ago
b ill
c ó
ض د
in sieme
ci do
ne gli
но ви
cor respon
gr ö
197 7
mag gio
F I
G il
G li
W in
ت ُ
ج ا
in form
es tos
as ter
ti va
con na
vo y
trans fer
пи са
occu p
feature d
C ana
u z
ک ش
之 前
交 通
ar chi
it ung
ro i
est re
man de
то го
وم ع
رب ع
ту р
Gre at
Fra u
elim in
B ere
m adre
ó lo
此 外
造 成
er ung
ne go
на я
om an
com b
ke ine
gli e
Ch ampionship
mater i
A ut
C ir
L ad
в се
ж но
ذ ات
지 만
no vel
ag a
ور ي
pa ís
cri min
الخ اص
Apr ès
Wh ite
してい る
D ay
V o
a per
o tras
w and
م ون
ال وقت
con su
ra di
li es
for ces
ان يا
cu er
fig ure
lin es
5 2
5 9
A ward
C entral
k an
в ла
同 性
这 种
un st
st adt
com mit
با شد
tiv ità
ван ня
Fa hr
G od
L ie
a way
i che
j ar
j ud
г ен
و با
タ ー
er ed
in corpor
st u
ff e
pr ison
op pos
196 2
US A
remain ed
z og
گ رف
不 是
只 有
电 视
si endo
tr on
ug hout
ser o
pre ced
194 6
cur ity
бу в
tempor ada
graf ia
franç ais
resta ur
د ين
د خل
ك ار
服 务
in os
is l
te des
be h
ac tive
ap pointed
son s
pr ès
pres s
orig ine
ет ся
Pre mi
esp è
1 000
A cadem
f ast
إ ذا
er k
am enti
su it
ho p
id os
ren ce
pol ice
197 8
195 6
mag gi
graph ie
K ap
c tos
c ateg
я н
ё н
ب أن
例 如
con qu
ra ch
ac ces
ill us
бу ло
lead ing
ولا يات
N on
O p
P ap
P op
ض ر
م در
甚 至
in ici
th od
to us
se ction
ab ile
man a
St and
ло в
cam po
tes ti
lich er
writ ten
Sy ste
quat re
واق ع
J es
c les
ع رض
称 为
적 인
el los
mo un
ha y
ле д
iz ed
té r
194 8
enn es
bil ity
ор га
ю ть
ذ ي
م ختلف
保 护
而 且
co la
us ually
pro ject
في ه
tion al
ко и
но ва
те ри
fin ished
pre par
bes te
Ra dio
cel ui
dam it
دول ار
C os
S ir
b os
n ac
v et
w alt
ä tig
е в
ح ا
印 度
帝 国
除 了
ar gu
st ated
com enz
Ar ch
don c
cent re
196 6
fr ü
produ zione
diff ic
succes so
Mär z
C S
C el
H i
ف ار
ن ق
大 量
ar ing
at tribu
to u
et c
per ché
ber to
ex c
comp añ
gr ado
ле ние
Sch we
され る
نظ ام
7 7
H il
L A
M S
n ée
p sy
z as
ô le
е то
得 到
斯 特
on ia
it or
ent ras
con te
con tempor
lo ok
ac tor
ach ie
ré s
الب ل
quat tro
read y
Jahrhunder t
Giov anni
syl van
E ar
J usti
g ig
g ave
ب الم
م وس
۱ ۳
增 加
希 望
系 列
通 常
se ven
ra y
19 18
che z
ug no
go al
до в
temp er
فا ع
-- --
XI X
P os
a po
h res
n acional
t ard
с об
ф у
ط بي
武 器
， “
or te
or ie
se en
res ist
من ذ
ра б
ки й
ста н
pub blica
lle v
äch st
8 00
k el
ح جم
ض ع
ظ ر
ка н
ele ction
person as
" )
M ont
S ud
ذ ه
se de
ma ins
pr ise
ser a
vo le
go t
bi bli
mi entras
cour se
offici al
M r
O ut
V ere
V ers
f la
f est
n at
u vre
س ان
و يل
わ れ
他 在
er sch
an cia
is a
for ts
den om
wi ch
ко ло
ser ve
dis cus
194 7
الس يا
schaf ts
ban k
mol ti
commun ic
Fir st
month s
équi pe
performan ce
9 8
M ün
R el
h än
s are
ّ ة
继 续
di vi
ad ded
ст вен
hl en
Ber g
politi que
d augh
k ra
k auf
m undo
t ung
ف ی
美 元
重 新
st one
pro ven
za zione
5 4
開 始
es o
de ten
el en
qu in
st ates
der i
ma ine
no te
pro je
те м
ll en
stud ent
ماع ية
natur al
6 7
R am
W al
k y
s cul
t ation
ت عداد
民 国
in j
19 21
mo d
fer ro
wor den
av re
C enter
M el
X X
е ра
ز ية
غ ة
ق ب
两 个
利 用
导 致
拥 有
di do
se p
ente mente
را ً
cor re
pres ident
wh ite
Pro vin
rig hts
Gro ß
langu age
S R
采 用
pri mi
ré alis
fu er
Car lo
Dur ch
2015 年
ulti mo
сько ї
Imp er
M ed
T ras
u ter
ق ت
担 任
es en
al most
ين ا
عل ام
mon de
ier en
Ge b
aff e
eng ine
Sp an
Chr is
speci fic
jus ti
فق ط
Dani el
E sta
M ol
g ere
y en
я в
ス ト
生 产
in vest
on ic
des t
des tro
ст ве
ни ми
رب عة
سم ة
Jo hann
ath ol
e ast
أ خ
أ ع
ك ور
不 能
pro tagon
196 3
play er
dist ing
الث اني
2013 年
I g
f l
m ass
t ta
ب اب
ش ري
こ れ
另 一
对 于
指 出
版 本
하 게
al to
qu asi
st oria
ab ly
com m
las sen
gi ugno
De partment
الس كان
195 8
Nel la
وض ع
mater ial
Isra el
H um
Y o
c ato
f it
j ó
k in
l lo
r ate
é rie
en contr
st age
ra ther
au di
den s
In dian
gen ommen
ex pe
fin den
Car ol
25 0
mig li
رائ يل
zeich net
6 8
D re
E P
Z we
h it
б ри
分 别
er ing
un ächst
ma gaz
ار ية
та н
ли н
اب ن
198 3
chi am
па р
fig ht
دا خل
ster reich
inte gr
7 2
e mer
f lu
j es
С а
ب ما
前 往
波 兰
19 00
ре н
по лу
nel lo
form s
де й
195 5
ні й
sc ene
hist oria
Her r
الو ط
äl t
sette mbre
A p
B ig
F und
e ded
r ug
t schaft
ز ا
is sue
tra di
bi an
up on
Au to
num er
ult ure
writ ing
rimon io
T ele
b lock
m ä
z on
д на
ق ائ
in oltre
al o
as ing
ti an
se mi
ma ch
no v
sa ison
اد ی
ка к
ct ing
fil ms
mil es
esta ble
Com mun
tar de
lead er
cele br
sylvan ia
C C
D R
ب الت
ت ست
ن قل
中 共
科 学
超 过
ci er
16 0
195 3
prin ci
mag gior
ъл га
لدي ها
T ar
r ê
с ре
ک ی
不 过
目 前
直 接
联 盟
된 다
al te
me an
ac cess
pro vide
ex ecu
ма т
يا ً
193 8
enti re
origin ally
2005 年
lug lio
Vi et
Espa ña
h acer
ت اريخ
大 会
小 时
li bro
19 23
ex pl
pi an
gu a
ري قة
inc lus
سا ء
play ers
ik an
2007 年
group s
ava ila
Secon d
particol are
1 20
C ha
F lor
G ol
r ado
s qu
ت خ
ت وان
ط ول
le gen
ta zione
ap pel
الم ث
ائ ر
195 4
vil la
hab er
gestell t
ei ther
Penn sylvania
A ra
B ol
S ant
b ig
b lack
б ро
ه ود
ِ ّ
民 族
艺 术
까 지
되 었
면 서
in al
ver b
ver schied
mo is
ff en
ate urs
com es
الأ ش
ree k
fam ili
2009 年
nuo va
n ú
职 业
per cent
po ca
ag ua
In di
mb ol
mi le
не й
да р
است ف
195 9
gio v
folg te
DV D
6 00
D am
H ay
g ue
أ ور
ا هر
ز مان
形 成
首 次
un nel
and s
res o
ag u
dé c
low ing
رب ي
cons ist
الأول ى
algun os
Recor ds
k u
n uc
Р о
д ы
开 发
ir s
но ї
ex tre
ru olo
لا ء
Ro me
