#version: 0.2
e r
e n
i n
o n
a n
e s
d e
a r
t h
a l
o r
a t
c h
i s
ا ل
r e
a s
i t
u n
l a
th e
l e
t e
d i
e l
t o
r o
t i
u r
an d
c o
i l
e d
i on
o s
en t
u s
o f
i c
q u
a m
in g
a d
e t
c on
r i
s t
s e
o l
c i
r a
l i
1 9
t er
s i
d er
t a
h e
2 0
de l
m e
a u
v er
c e
s u
m p
f or
g e
r es
b e
l o
p er
p ar
m a
v e
d es
s o
ا ن
i r
a c
n o
u t
p ro
at ion
un d
n e
qu e
i g
a b
i e
d o
u l
p o
m o
ch e
н а
ف ي
es t
is t
d en
م ن
ي ة
m ent
t en
v i
d u
a g
с т
a p
in e
w as
b er
ا ر
ال م
al l
u m
i o
h i
p e
l es
T he
ا ت
t r
er e
an t
I n
o m
un g
н и
p or
i a
di e
d a
ar e
s on
w i
р а
i m
20 1
ا م
0 0
ي ن
ti on
en te
al e
ه ا
к о
h o
m an
g en
n i
н о
ó n
р о
e x
l os
1 8
s ch
u e
f f
wi th
20 0
r an
ر ا
l y
at e
t ra
co m
в а
u g
p r
an s
c u
р е
w e
ع ل
س ت
h r
at o
c a
و ل
z ion
c k
t s
l as
b y
c es
r u
п о
g i
т о
un a
s er
و ن
al i
er s
n a
ال أ
h a
th at
т а
v o
e in
n el
t or
v a
co mp
г о
р и
ال ت
م ا
p os
л и
p u
l u
i d
at i
h is
v en
c or
t ro
s a
o p
m en
m er
p i
L a
E n
و ر
te d
ا د
m it
g o
r it
к а
) ,
ch en
f e
ro m
m in
a y
b i
ci ón
an o
p res
т е
f in
L e
د ر
z a
k e
m b
v on
) .
p re
p l
S t
m i
ar d
ic a
в о
p ri
th er
zion e
g u
un e
b o
A n
е н
R e
و ا
it y
i ch
c t
p a
f rom
qu i
ي ر
m on
g r
ad o
m ar
A l
as s
or e
з а
a ch
en d
u re
t re
il l
ال ع
к и
л а
ل ا
at a
de m
o u
19 9
d é
g li
w o
on e
s ion
in ter
d is
h er
del la
c ar
co l
it e
al s
ic i
f i
ol o
z e
ا ب
b l
f a
M ar
v is
r é
н е
u p
в и
í a
أ ن
д а
و د
f er
т и
s te
S e
л е
w hi
ب ر
л о
D e
an g
i es
e ar
C h
an te
an n
A r
er a
el l
c tion
عل ى
us e
ع د
a f
é s
u d
and o
c as
و م
a us
1 7
1 0
z u
ب ا
S ch
in s
au f
ك ان
it s
w ere
д о
d ur
p la
de d
at ed
м а
i mp
I l
is h
s en
ر ي
h t
in c
w or
i re
v el
m is
o ur
w ar
ن د
f ü
و ال
c am
it ion
t ri
л ь
1 5
r en
в е
ل ل
w ur
in a
es e
w n
b en
ب ه
R o
l l
on g
or t
ad a
d as
t ur
al le
v ol
b le
д и
i en
h n
م ع
r is
إ ل
м и
whi ch
for m
qu es
с е
w er
w h
i z
ci a
ال ح
p h
E l
al la
e ine
ال ق
ا ی
c an
ar i
ي ا
U n
s ur
t é
f ic
j e
H e
a v
g es
it u
ver s
N e
1 6
at er
ه م
i er
o b
ن ا
1 2
ar y
p ol
ي د
re g
d ans
19 8
l and
a in
o ut
19 4
all y
es s
par ti
ال س
ي ل
c re
b u
و س
r ic
or i
g er
C o
t on
ا ز
g an
d on
B e
al es
d ing
19 7
g ra
m ber
ation s
و ق
c ent
إل ى
P ar
b ut
o t
h as
ا ست
c er
par a
ل ك
m ente
о т
b re
no t
д е
po ur
é e
b a
s p
h ad
t y
ur s
. ​
م ر
en e
in d
o d
I I
f u
ch t
o c
ي م
ال ب
ش ر
f ir
C on
ت ر
س ب
19 6
a ve
ال ج
por t
it o
wur de
al so
n on
it i
ال إ
D ie
is chen
en to
м е
m et
g ro
v ed
el le
a ge
si ch
G e
le g
1 3
1 4
a k
am ente
t es
co mo
t in
00 0
t u
ic e
ا ئ
or s
f o
am e
c ul
ت م
f r
ح د
or d
er o
و ب
li e
co me
e mp
p en
ч е
f il
is e
b as
19 5
م ی
m es
os t
st ru
so ci
v es
j o
an ce
pro du
v or
the ir
a i
s ol
fü r
V er
c ed
in o
п е
te mp
ar t
si g
ch i
c al
o k
м о
م ل
e le
u x
par t
. .
an ti
ч а
н і
J a
و ج
l ar
P ro
و ت
del l
z z
р у
lo w
E r
с и
p as
li ch
ст а
ri e
I t
ul d
F ran
ر ب
c ap
v ent
1 1
19 3
ع ام
le d
ع ة
T h
н я
п ро
é n
f t
un i
m il
it a
fir st
b r
mb re
ب ل
es ta
с ь
y ear
on o
و ي
de i
ال ن
ف ر
H o
s pe
á s
u di
v il
am p
ال د
ation al
au x
m at
u ro
n er
s es
ال ك
it à
si e
m s
le t
b or
m us
d os
ق د
ل م
r y
l an
re e
л я
S o
в і
v al
ug h
wor k
on t
ا ف
as t
s y
be i
in t
m u
ع ن
к у
f ol
ig n
s us
с я
en ti
h ab
ha ve
ц и
to s
ac k
A u
an a
ä n
en ce
s c
о б
w ho
p on
è re
g a
ic al
C ar
c ti
н ы
ح ت
inc lu
ab le
o ver
th is
te l
di re
س ا
ion es
2 5
п а
er n
per son
me di
re d
par te
b es
г а
3 0
ci p
b ur
co s
с ки
in di
b ar
g io
o ol
ig h
bl ic
s et
ل ي
pl us
b is
h en
a ff
ent re
il i
ه ذ
" .
ü ber
of f
ser v
é r
un der
س م
h l
olo g
be en
J o
و ع
s ho
o g
is ti
الت ي
at es
U ni
с а
an i
pla y
na ch
س ي
en s
ro s
ter n
ment s
u ti
M e
б о
s h
O n
S an
at t
t wo
z i
è s
f ue
п ри
ed er
M a
N o
M o
ent s
f am
ave c
ad os
b et
hi p
ti me
ic k
ت ه
ك ن
m as
se con
g el
os e
ст о
ar io
d ist
or y
w ay
in to
и з
ur a
ها ی
د ه
it é
ne w
C om
Q u
A s
ч и
ال ش
us t
an y
d ad
o per
м у
ст и
c ri
ك ل
au ch
ج م
af ter
m un
п ре
خ ل
ال ر
un ter
u c
س ر
ب د
ci al
т ь
ف ا
ً ا
d al
Ne w
ung en
ta in
c ur
L i
ح ي
і в
the y
с о
a ñ
in i
ж е
س ل
el d
ه ر
it er
с ко
O r
se in
v ie
su b
s ti
أ و
su c
ی ن
o ther
su l
ma in
f ig
pres ent
ک ه
ب ي
g et
2 4
l d
an ni
f ac
du e
del le
F or
ق ة
م ت
en n
ال ف
l in
ir d
p p
z o
f en
or ig
or gan
st itu
S u
su o
B o
N el
in f
T e
pr in
is ta
م د
б у
r as
é es
pi ù
qu el
ال خ
ال ذ
е р
tr ans
으 로
an e
is te
zion i
A us
д у
5 0
f on
di ff
re i
a th
en do
s el
ü n
an no
an che
ц і
E s
ces s
ر و
sch af
D er
s in
ا ء
as e
ma g
c tor
p ul
i den
di o
n um
ce p
2 1
is ch
m or
y s
g ran
m ore
b il
ذ لك
l er
G u
gen er
wo uld
P er
л і
dur ch
ب ن
C ol
ri g
vis ion
m ás
st r
т у
ti c
" ,
son o
w ard
201 0
b ro
D i
nel la
li g
ti v
п и
ul t
et te
fil m
a is
ни я
i co
c rit
al t
ب ين
is ter
s he
c ted
al b
it ed
ال ث
k s
ein er
us ed
n or
de t
ad or
h at
w ie
2 3
al mente
Ja hr
i k
ti g
ق ل
ص ل
tr as
د ي
n am
ch ar
re l
에 서
b el
e p
ب ع
ال ط
كان ت
á n
ي ع
it t
m é
v in
pu blic
N or
L es
b an
m ost
W e
201 1
ol d
M on
خ ر
so me
و ان
is che
gr am
son t
l us
د ار
س ی
é té
b li
z ur
ال ي
con tro
2 8
h ist
ung s
su ch
c is
th ro
х о
ال ا
e ff
ant s
con tin
ati ve
am bi
u te
au t
at ta
و ه
l or
B ar
2 6
in n
201 2
at ur
c las
r on
د ا
mis sion
ای ن
D a
f es
200 8
E uro
v ing
en g
ma y
lo c
se g
ни е
G r
b and
m al
し て
ti l
st and
2 2
س ن
i de
201 4
s ing
ig ht
19 0
B er
خ ت
س ة
W il
con si
о р
2 7
م ح
th o
wh en
□ □
ك ت
一 个
as on
at s
T o
t to
з и
政 府
ال ص
سب ة
ب عد
н у
ق ي
ion e
م ان
ا ه
. "
vi a
j a
A b
ant es
さ れ
il le
cam e
I m
г ра
A mer
su a
ر د
el t
200 9
し た
ü r
ъ р
H er
wer den
bu il
i or
A t
z um
ö r
R a
u o
ا ً
hi m
I s
l ater
w s
v ic
l ine
di c
м і
for e
ru p
A m
er on
il y
201 3
co ur
ع ت
中 国
ag ain
D ur
at ing
ر ف
year s
J u
ish ed
f ran
و ز
en er
vel op
ch a
A f
d s
un o
л у
201 5
р і
p ass
lu b
ni cht
imp ort
L u
Uni vers
g ar
h re
p s
v an
tion s
wh ere
t it
C or
on ly
al a
orig in
ш и
L o
n ed
Jo hn
b ra
re le
c y
ü ck
su p
f ul
2 9
k ing
200 7
d ent
б и
M it
w a
th en
we en
م ة
k en
es te
i ón
pre mi
schaf t
U S
ar on
ch o
4 0
M an
ال ل
ش د
ك ر
at ure
con stru
prin cip
إ ن
al is
th ere
ter s
di es
ci r
ي ت
pri mer
en a
l ing
sch ool
as ed
dur ing
о с
ch an
eine m
ion s
T his
c el
ci o
com me
ent r
v ari
d r
S te
y a
» .
18 9
pr é
or k
خ د
g re
k no
آ ن
m os
n et
th an
z en
P ol
） ，
D es
г и
ch er
d ass
б а
a ción
it en
co un
it ies
P o
f ur
ma de
k t
っ た
ا ص
for ma
p un
ح ر
am ento
و أ
200 6
A d
ab out
но го
cu i
ج ل
ion al
201 6
da y
الم ت
ра з
с ка
t al
G er
w ell
on s
ali z
bet ween
ث ر
con s
é g
c le
st en
ж и
ver y
S p
ق ر
le y
ch es
ar a
t an
t ing
W ar
it al
F e
غ ير
m y
t ut
men to
Z e
c at
p es
D o
c la
l ong
w ird
ig en
ö n
el y
ma is
man y
E x
ä r
pro gram
i f
ا ط
ی ک
p et
ing s
j or
c en
P h
is o
con tra
po pul
ent es
َ ّ
6 0
ber t
é ta
أ ي
1 00
m ol
а р
er t
pri ma
on a
di d
ul ti
ein en
m and
st ar
se gu
gu er
ك ي
ال ه
C hr
ب ار
و ی
to ur
st a
ا ج
ل ة
or a
st ud
ri ch
si a
bur g
er en
m m
lu i
tur a
N ach
et er
20 00
c in
s ind
il d
alb um
ä t
d ition
l at
ra g
j u
б ы
min ist
G es
ab il
h an
v ir
す る
b at
هذ ا
J e
اد ة
st udi
res pon
هذ ه
c to
i le
و في
ي ات
f un
с ъ
使 用
ت ع
t ure
pi el
th ree
о н
L os
res s
ت ص
201 7
ال من
pla ce
j our
a ir
re cor
t ar
u to
18 8
Ch ar
co lo
con tr
E in
secon d
p te
di a
b us
а н
wur den
st er
200 5
es ti
S h
te am
be ing
go ver
s or
on n
su per
ك ون
id ad
ra p
se ason
com mun
ambi én
comp le
spe ci
h al
te il
18 7
me mber
d ar
contin u
f ar
is s
S er
ع م
le ad
б е
consi der
W or
ي س
h igh
si de
et z
s k
fü hr
en cia
ت ح
u ch
ب را
美 国
be came
f ut
we ver
S ta
A pr
d alla
ic an
ad as
so u
m ed
p at
li chen
ur es
ل ف
و ف
Y ork
ex p
D as
on i
der n
f our
A ug
d am
k m
u al
dur ante
b ack
خ ص
it z
ان ي
se ine
de ux
д і
ap pe
n ing
п ра
p el
at or
B r
щ е
他 们
ter min
p ut
o der
the m
е т
て い
st ate
pro pri
f re
n ational
开 始
ur y
c r
ст во
R i
h am
ш е
第 一
H ar
k o
G i
S he
gro up
thro ugh
م ث
pol it
c ts
ك ة
h el
ي ش
ب ح
الذ ي
o us
o wn
.. .
inclu ding
c alle
p t
z we
again st
أ ك
per io
d ro
в ы
con om
ب ود
s é
d y
» ,
w ill
on es
de gli
可 以
Un ited
tr y
pos ition
II I
la bor
am es
whi le
c iones
fol low
日 本
k er
ر ض
ca use
ab a
C an
b all
п і
te t
P ri
v as
J an
s al
ar o
د ی
ur ch
л ен
pu b
وس ط
ce i
Re g
3 1
op le
ц е
Au f
do po
z w
ت ش
公 司
ت ن
bo th
ه ي
par e
er te
u el
あ る
a va
c us
ни й
col le
c are
حي ث
e mb
tor e
었 다
r ent
en za
g s
香 港
v it
b al
En g
м ен
ب ة
m ig
in es
الأ م
te le
ar ri
ad t
ار ي
ه د
” 。
” ，
ве р
M ay
or ia
200 4
f und
l is
Co un
w rit
h om
de velop
i an
ه و
il s
ut sch
201 8
Af ter
Sch ool
p ic
li o
18 6
m ill
ß en
P re
g un
nel l
mil it
t t
р я
ri ed
ar ch
op en
عد د
ن ي
ti ca
au l
ال و
k a
di g
s itu
con o
st es
p end
te ll
c lub
be fore
u le
th ese
suc ces
vi de
kno wn
p ra
ti ve
con f
h um
sy ste
L and
ط ة
res t
y o
ri d
ber g
ق بل
li am
in de
G re
w ä
t est
é l
ص ر
ك م
y e
ale ment
S i
S y
n é
í an
vi ene
ent er
p al
calle d
л ю
S ou
h u
ش ت
ن ی
ê me
T ra
ج ن
以 及
ی ر
u er
و ك
عل ي
ven ne
gra ph
H a
с у
V or
h m
0 年
к і
ver si
is on
l le
in ten
ol i
i res
Н а
P r
des ign
к ра
appe ar
l ung
部 分
） 。
ad re
Wor ld
M us
ж а
vol u
G o
ction s
l ic
j un
li che
id ent
n al
lo ck
an z
ни х
ين ة
at ti
se mb
cam p
cent r
in st
M in
al ia
om en
u b
li fe
ta g
num ber
بل غ
N ational
h y
u ve
п у
ist s
ic s
د يد
se ver
B rit
世 界
하 였
大 学
C as
re cei
研 究
R us
f ica
ر ة
pu is
пе ре
сь ко
tho ugh
B ro
s olo
进 行
per o
añ os
organ iz
ي ج
te ch
Co mp
F o
ar ti
at ten
en z
Univers ity
s che
st ato
ver sion
م ار
no w
n es
成 为
z za
F il
re ich
der e
vi er
all er
g le
n uo
ح ة
on d
at en
el f
k ann
200 3
ві д
ا ع
c ción
bl ished
i hr
a zione
les s
ت ق
comp os
fa it
w in
Se pte
没 有
c ro
س ال
fo und
م ق
ar ia
b ru
c ette
n ment
ud ad
Euro pe
l ug
mar k
temp or
M or
M il
P res
v ano
es pe
했 다
B a
ب ت
so bre
a ver
G ro
包 括
200 1
Aug ust
ag es
pe ople
in iz
Amer ican
Septe mber
8 0
W est
з на
م س
ä u
ess ere
la w
se e
ب ی
at to
ا ق
il la
t ambién
ع مل
C ity
de c
it ali
o ch
un til
ap pro
f ra
П о
gr and
rele ased
s hip
au to
Al l
0 s
am b
no mbre
t res
200 2
в у
sho w
i ed
ф и
st re
ug ht
gi or
m ême
am a
9 年
b be
ag o
Jan u
3 5
T or
ط ل
tri bu
щ и
f all
ال غ
bo ok
خل ال
us es
ste ll
Apr il
st at
وق د
lo cal
ان ية
و ية
le x
认 为
i ent
n ur
s ci
с ле
P a
et s
tr ad
か ら
s ame
أ س
ro man
ag ue
r un
الق ر
P or
li a
form ation
自 己
are a
g t
ê tre
و ات
ho use
بع ض
k om
pl an
ac iones
pro fes
n ue
ت ج
حد ة
B u
G ener
G ra
H is
Ze it
si ve
N A
P e
ت ا
其 中
ير ة
H en
e qui
الم ع
ú n
l la
p é
ст ь
Ge or
H ist
j us
ي ز
la ck
ge gen
no ch
ab er
V i
lo t
e ven
o tro
ذ ا
щ а
be g
ze it
en ne
an za
la g
re tur
W i
al c
pu és
g est
qu ali
ي ق
as i
و ح
其 他
4 5
ف ق
第 二
don de
اف ة
h ol
mus ic
ear ly
d re
de ci
د ة
der s
ра н
ges ch
uti li
з о
ك ما
ul ar
au g
vo ir
حت ى
No ve
R os
S al
و ض
pr és
ج ه
人 民
K on
ل ه
S ain
g ent
ac tu
ار ة
s to
è me
ст е
ول ة
на та
añ o
iden ti
et t
e vent
م ش
ک رد
me hr
ser ies
e y
en o
en de
الم د
man n
R ich
ä ch
pos si
b in
c é
li ke
b t
pro te
с по
is se
he ad
buil ding
こ と
no m
vi du
18 5
8 年
N a
des cri
St ates
h men
i al
ل ت
ре з
E st
h in
国 家
la y
le ur
g y
t ent
ن ظ
lor o
ä l
S ie
g ed
vil le
г у
ف س
主 要
ind us
c il
ال ات
но й
Nove mber
ко н
St re
e di
v re
po in
mu ch
7 0
ع شر
ci as
mi ento
ct ure
C ap
ne y
do ve
B ur
In tern
am o
co ver
be gan
sever al
ا س
하 는
at z
ch é
ci udad
ag n
Un ter
وج ود
inf lu
su e
y le
д ен
ti co
R om
n ame
的 一
bi le
t w
M ich
ва н
ма н
ser ie
for t
í n
ma jor
b io
et y
E d
S a
b au
ر ی
The y
tr u
أن ه
T r
c ity
el s
ري ق
gran de
- -
M c
de fin
k es
di ese
з е
sa id
off ici
T er
工 作
sein er
و ص
wor ld
مث ل
و ار
و الم
ل ی
ول ا
к е
k i
ب ش
ar ro
vie w
v amente
ñ a
L ou
ar be
b ed
ter rit
ap p
ان ی
ac tiv
bas e
co uld
6 年
Fran ce
suc cess
W as
n en
t ant
있 다
to ut
Wil liam
e ing
inc re
sig ni
ا و
ع ند
re f
c it
ne i
p ur
s m
ar ly
li mit
soci al
因 此
o la
po int
5 年
M al
am ien
fin al
indi vidu
ال عل
щ о
س ط
台 湾
cti ve
B C
s cor
c los
g ame
m ater
Ho wever
ن سبة
ن ت
由 于
ros s
D ies
at ore
com un
б і
an im
ل ات
al d
os i
uni vers
te ur
M as
р ы
ت حت
7 年
an ge
S co
u f
u ally
la ge
ار ی
3 年
F in
un t
et ro
т ра
ي ف
ca us
e f
e g
u ver
is mo
hat te
x t
ac ional
z ie
al ong
so us
4 年
9 0
M ad
Sou th
pri mo
てい る
A c
F re
f ri
v om
ch ild
do wn
nel le
2 年
T V
b est
y al
نا ء
has ta
p ay
v ar
ques to
gover nment
ان ت
d or
h and
ment re
но в
ep iso
of fic
ter ior
ни те
Mar ch
n ation
ب ط
so wie
fa ce
C am
i do
d ra
qu ent
F a
ver so
for mer
ric t
. ,
M i
j ed
s pa
ac c
minist r
I V
u a
an ci
and er
for d
i que
ar m
ho me
ex per
guer ra
Je an
syste m
5 00
可 能
ol tre
diff er
ag gi
g én
أ م
ال ية
ва т
D u
ac t
fam ily
地 区
in tro
qu ad
vi d
h or
خ ط
zz o
J ap
ز ی
ap r
ke it
Sain t
e k
al low
qu at
por ts
ن ام
و الأ
K ar
z io
lar ge
ال بر
des de
c itt
s ent
w est
م ج
） 、
st ra
gra f
S in
ما ع
3 2
d all
ر ق
他 的
po wer
L as
f ine
os o
qu al
be cause
pro ble
خر ى
res ult
bi en
gr ad
Th ere
zw ischen
я т
教 育
و ش
fe m
ны х
du c
ge b
l en
З а
ه ن
3 8
in te
c ra
因 为
当 时
es p
lie ß
contro l
1 年
ex ten
Fe bru
ال ز
во й
fi eld
ward s
و اد
c tr
ح ق
Nor th
C e
c li
in ed
je ct
ed uc
éta it
в ре
re li
ma i
ان د
ber e
we iter
hab ía
i x
М а
学 校
es to
or der
ن س
war en
B es
C hi
K ing
p ed
گ ی
to wn
oc cu
cu ent
ف ت
发 展
18 4
по д
c ré
하 고
at ro
am er
pro pos
ag en
w on
中 的
to p
don t
gener al
au tor
18 0
cent ury
X V
l it
ul y
را ء
è res
： “
ra c
ge h
하였 다
د اد
le ment
B au
l ang
r il
wi eder
され た
و ط
ti vo
po i
х а
하 여
re c
ist en
H ol
m id
ac ter
bas ed
play ed
w en
同 时
us o
يم كن
origin al
计 划
con tre
ter m
T ri
l ate
or es
fa hr
B y
e ach
p ie
parti cip
sul la
e conom
x im
经 济
ag li
bl ica
o ù
pro mo
or o
ъ л
中 央
con cer
C a
b ri
popul ar
h on
英 国
apr ès
3 4
3 6
к ла
文 化
St adt
Ja hre
si x
Gener al
w ing
ت ل
el lo
W o
p le
。 ”
b les
h ar
で ある
ck s
ri co
го да
ard s
b on
g rup
n as
re al
pro p
tan to
s co
is m
el la
P al
in vol
aut res
ال ة
ge w
comp any
pos i
olog y
sin ce
eff e
s ite
と して
に は
ti r
K e
í as
qu ale
20 19
mo del
ist as
ци я
ق ا
so ur
sup port
c ion
政 治
电 影
M er
k ed
to ok
ти в
م ست
و الت
中 心
ри я
pri v
form ed
с во
ti ene
ار ت
U r
ко м
ein es
recei ved
v est
ش ده
ف ة
as soci
ть ся
R es
des pués
199 9
Col le
su i
de ath
re fer
do min
Janu ary
J uly
si è
ß e
ä ter
и н
di an
sti ll
T i
т я
co st
L on
in ess
am men
to tal
ci ó
S pe
ier t
ت أ
ي و
pro vin
ни к
er st
por ted
De ce
n atur
u pe
ج ر
ح ل
dies er
أك ثر
ф е
ک ن
表 示
le ft
p ue
ц а
Dece mber
p an
К а
li ber
سل ام
M os
l ors
한 다
stud ents
Ges ch
3 3
之 后
الأ ول
fin o
ear ch
re ad
ne ment
с і
s an
ac tion
pro vi
tor ia
zwe i
aro und
د و
al ors
ка то
12 月
lig ht
m ic
o th
社 会
го ди
о на
ي ط
l é
v ice
р ъ
os a
jed och
6 5
K ir
u ta
su m
ut z
In ter
j et
se x
a z
ب ال
و من
al tri
ti e
Brit ish
clas s
buil t
8 月
د ور
pro b
vo c
J une
V ol
д но
د ان
so tto
sing le
برا ی
C i
T ur
ل غ
ve ment
gro und
P aul
ро ку
10 月
ba jo
Dur ing
9 月
ك ب
re present
ic es
suo i
b ia
é po
代 表
en en
re main
aus si
ste in
Par k
о го
ع ب
con c
خد ام
O cto
g as
т ри
ن ج
ag gio
las t
Ar t
stes so
B as
地 方
it es
P u
ف ع
되 었다
이 다
co up
199 0
wh at
7 月
ف ض
lo y
w ater
pu bli
j er
t z
le vel
ap par
zion ale
B el
通 过
at ori
199 7
produ ction
organ is
4 月
ti mes
pol iti
rig ht
member s
indus tri
b it
l ä
u es
أ ول
ي ه
th ose
ول كن
ali dad
cor ding
199 8
Octo ber
B un
s iste
ب ق
ther n
5 月
h os
co le
medi a
B re
C A
в ен
ئ ة
支 持
cas t
premi er
mat ch
а к
系 统
Fil m
am en
اري خ
gu i
nam ed
l ti
n ess
3 7
д ля
ن ة
پ ی
A ir
K o
e uro
am m
li er
ст у
سب ب
Aus tr
I mp
v ant
و كان
us ing
et à
ст ра
may or
amien to
ج ز
所 有
V al
f é
re aliz
si mil
serv ice
ي ين
ال فر
ill er
وق ت
1 月
F er
st ation
cu ando
chan ge
і н
ci dent
ab o
الأ سر
ord in
B l
i hre
í o
大 的
ar s
su ite
ст ва
أي ض
vir on
ف ل
ch ang
ment al
amp ions
at ter
ta ble
ст ро
da i
ich t
ain si
d ol
ت ي
sen ti
bor n
follow ing
3 月
C al
ا ض
گ ر
委 员
s ac
und o
O ne
z us
в ъ
an os
ac qu
ich te
cla im
intro du
S A
ri bu
ны е
care er
N i
c ut
ي ك
con se
se mp
su ff
را ئ
P i
on y
pl ic
h eld
에 는
M ag
c ito
ad es
الم ر
f as
人 的
ar es
eff et
tech n
H igh
أ ص
ط ور
到 了
ar ono
G ar
pos t
h under
خ اص
ي ون
land s
otro s
re ci
sion e
use um
ль но
sol d
ég alement
f lo
w omen
fi ed
C he
ver se
Le ague
gli ch
ی ت
ne ar
D on
al th
199 6
Par is
primer a
W hen
st or
st yle
vi ol
ко в
7 5
k il
et a
ma ke
inter pre
خد م
6 月
ش هر
ی د
ano ther
те л
B or
E mp
J ack
ion i
den ce
temp o
B en
D ist
g ab
z ia
en ces
Lon don
W er
ک ار
al y
com mer
cas e
vol ta
mill ion
citt à
B an
F ra
f s
l s
v é
w ir
已 经
es se
cu al
ق ام
It alia
上 的
وا ق
í s
ع ض
提 供
الع الم
isch er
k ön
l leg
V ic
un que
hab it
3 9
ñ o
م ه
ら れ
作 为
W h
g ru
т і
で は
in ves
ad dition
n is
la ción
di ó
co urs
Char les
signi fic
r us
в я
ك وم
ч но
k on
г і
要 求
in iti
an to
au th
no min
G ran
c ris
p it
th ing
Lou is
F ol
事 件
ti er
pro ces
ho w
ро з
成 立
per met
do t
ali zz
ре д
ze ich
f an
ti es
ri o
hr end
vel y
пре д
d it
at tra
го ду
b st
这 些
we ise
De utsch
ha us
ك ز
ی ه
qu ando
con du
mo ved
ex ist
col or
mis mo
пре з
الأم ري
11 月
г е
ب ات
n u
qu ar
con stitu
را د
bi et
J os
R ed
i ma
ч ен
م ص
に よ
国 民
影 响
es a
son g
Ri ver
iniz i
一 些
pr is
ur i
fo is
Jahr hunder
k onn
ö ff
man i
cre t
San ta
3 00
S on
n s
st ag
пе р
profes sion
ان ه
ст і
F am
a it
m ie
n ia
con ta
ric e
vide o
ж ен
ф і
ش ود
do cu
f ici
199 5
сь ки
ér ica
succes si
sm all
P at
Z u
p ir
con t
der ni
sch ied
we it
So ci
方 面
de ut
it ar
with in
tro is
B i
B et
D is
b lo
ig i
Da vid
M en
fol g
ско го
ц ь
199 4
secon do
القر ن
si an
a h
战 争
of ten
El le
C u
к ъ
重 要
fu eron
g os
r at
ß er
ch te
le ar
الم ست
ici ón
ب ية
ص ف
ط ف
ظ م
ي تم
共 和
de cis
el o
pe ut
ون سبة
ور ة
Ho use
fur ono
F C
j ust
ш а
ر ان
bi er
St udi
F l
ف ن
sp äter
cono ci
Jap an
M y
b rit
g ing
pres iden
vis ta
ques ta
Fran k
P ort
am ong
ci vil
اب ة
cas a
) ،
c ada
h of
m ate
ا ش
Se con
inclu ded
Ger man
そ の
ro ad
for man
ct u
الع ام
fi ve
fr on
F ir
ا من
un ded
constru ction
R u
g res
on ce
di ci
con serv
om as
mol to
ا ح
っ て
ne u
وج د
F u
M u
د ول
.​ ​
ско й
w el
و كانت
不 同
es i
am in
نا ك
ave va
م ال
رب ية
h ing
と な
qu er
ve z
اد ي
н ски
ئ ي
د ون
an ces
res pe
وه و
w an
w ed
б ли
al lo
di ce
St ate
J ose
Ü ber
法 国
er ano
An ton
198 0
194 5
trad ition
differ ent
de fen
ba hn
hal ten
y ing
ث ير
inclu de
C I
N av
p il
ا ث
ب ها
ن ش
总 统
ar se
al ter
ati va
Jahr en
T a
d in
g ol
历 史
am i
سن ة
si mp
me mb
cor e
col on
بش كل
S en
i ff
s il
으 며
ate g
pos e
الع مل
olo gi
S to
un k
im ento
uti lis
的 人
co g
os to
して い
ز ب
to ire
no ve
199 1
197 0
ث م
ال آ
ta ke
4 4
ق ط
ke hr
cour t
popul ation
U m
ü d
к ре
den te
Febru ary
P as
ro und
D ar
こ の
الم ح
v ita
م ي
re du
se it
tra in
Geor ge
D en
e very
ö l
出 现
国 际
for ce
ان ون
fon d
volu tion
Intern ational
B ra
B ay
s ed
К о
д ру
م ؤ
ente d
H am
S S
let z
zur ück
B al
C ro
S k
c ine
z ug
at ura
19 20
est á
يل ة
emb ar
R A
i da
ist es
all en
را ض
ador es
in stru
pe u
cor a
wo od
خت لف
сле д
re qui
tr at
An gel
Ro bert
anno un
S il
S tra
Per son
Coun ty
ر وس
at ely
199 2
Dur ante
W elt
c l
ی ل
な ど
问 题
bel ie
C our
ـ ـ
获 得
la vor
di ed
el les
ro le
ter e
ie urs
qui en
mon th
P eter
se le
bo ur
يم ة
cul ar
premi ère
H all
h ard
p ap
w es
reg ion
جم يع
K re
é le
es pa
re gi
ad ministr
he im
Le ben
ف وق
و عة
con tribu
ser ved
Amer ica
B us
H au
b ol
i hn
s os
к то
ro om
ce le
ва ли
ob je
sig ned
Fran cis
fam il
cep t
B os
同 年
al li
ال شر
to do
rie b
inn ing
Colle ge
c ing
l ish
ro te
عد اد
hum an
4 8
u i
ch os
vi ent
sig n
□□ □□
L in
ن ية
con ten
dem ás
17 9
O per
j os
会 议
音 乐
it et
الم س
comp et
C lub
en viron
de utsch
com mon
ann ées
w ent
ج ت
ك س
时 期
正 式
ati vo
recor d
K ön
گ اه
ور د
oper a
O ber
g ri
É t
ú lti
غ م
or io
ate ur
عد ة
parti r
sol l
tele vision
M un
d ía
ge me
ва не
p ú
但 是
ent al
com men
Su per
gre at
etz t
prés ent
g ia
ro t
for me
pro f
import ant
الل ه
D r
K om
о д
了 一
el li
parti e
عام اً
dire ctor
O ff
k am
这 个
ال است
في ها
ue go
pu blished
الس ل
Stre et
M is
z ar
é ri
а л
技 术
ut es
ue la
cor por
cap it
B io
C ali
G io
b ach
us ti
fa ther
Ph ili
c ru
н ня
》 ，
it és
bes ch
c s
т ро
公 里
成 功
di vision
ren ch
sig lo
esta blished
mun ici
segu ito
ف إن
ن فس
su g
est udi
ex pres
Un ion
oc cas
Ju an
bus iness
jun to
siè cle
ampions hip
A lex
o v
د م
ع بد
上 海
世 纪
of fer
Ar be
че ски
cos ì
quel la
lus s
Bun des
i ge
ت ت
خ ود
as í
no me
car ri
fic ation
ны й
hist ory
k le
m ati
is en
ed ad
qu indi
ut en
ag ed
pla ced
ста в
C la
f el
y er
ج د
ش ار
期 间
st ata
ig er
child ren
é qui
و ى
av ant
perio do
develop ment
5 5
س ه
er os
ne xt
mar zo
cer tain
Wi th
F r
组 织
te x
di al
mo do
ag er
fran ç
H ill
d rei
ک ت
建 立
et ta
con ven
be come
gro upe
fri end
grad u
d ri
m ir
ث ة
ش ي
he it
fr ont
way s
Y ou
z one
is ed
Mar tin
ré g
ell en
gén ér
e c
g ono
m ing
н ь
管 理
gen d
Be i
work s
ario us
4 7
S ci
W a
v ig
res earch
199 3
mu y
As soci
المد ينة
Kön ig
M at
в ър
ز ي
发 现
4 9
B S
O S
s ans
ح ول
ك ية
ی ا
“ .
er sten
Th omas
ци и
char acter
F i
ê te
لا ح
versi dad
Jos é
P ier
c ell
h anno
p adre
ج ام
ه ٔ
di ale
pr end
之 一
ed it
po ten
mo dern
ро д
quel lo
f eder
p in
y ou
ت لك
se i
15 0
تر ة
lan gu
2 月
ت ها
مت وسط
loc ated
S ur
ال نا
as es
con ver
hist or
F A
re t
ho wever
za ción
part ment
Te il
F rench
с пе
学 院
at ic
bo ard
col labor
cas o
in ci
el i
res ta
inter national
reg ist
ot to
temp s
6 4
D ans
J ames
w rote
ü s
س ات
de dic
sie me
sein en
rel ations
N ord
T ran
W ol
p ho
gr ün
continu ed
S ti
X I
a ire
g in
и м
in en
in té
th ird
ac ti
ab an
hi er
ben e
الد ول
cur rent
j ug
re ach
Th ese
in stitu
se par
ac er
) ;
am ment
del lo
su d
fe ature
Ar gent
cam pa
Can ada
Hen ry
S piel
f os
n ung
r or
о ло
ک ر
ter ra
许 多
ari os
H an
b om
в то
de but
po co
ran ge
tra v
pos to
委员 会
I r
O k
ط قة
را ف
عل م
sion s
fa vor
J uni
ф ор
ر س
ch ts
la do
ta ge
Is land
coun try
сько го
C at
d an
t as
في ة
gi ven
те р
emp le
M ac
y n
و ث
需 要
si do
та к
cent ro
hal f
pub blic
T re
g lo
g ames
s ar
ز ار
en se
ch ed
dist ribu
clas si
pun to
قر ار
rid ge
espe ci
A li
C D
e je
las s
tor i
En de
Eng lish
educ ation
r ing
ч то
ج ة
er i
ti po
per s
with out
ck e
ما ء
17 8
Euro pa
F eder
ئ يس
ع ي
第 三
di vers
vi ous
perio d
open ed
E le
n ord
ص ور
ظ هر
全 国
al gun
comp ar
ding s
بد أ
z ona
é t
к ри
с лу
т ы
ч ни
ab les
gen e
sh ort
poin ts
i va
民 主
航 空
es ter
le urs
co stru
то в
الت ر
قد م
الخ ام
Gu er
Pres ident
Ba hn
4 2
v arious
是 一
ch ies
tra va
p pe
se colo
ни и
ام ل
imp ro
guer re
n ar
أ د
最 后
по л
Al s
b res
革 命
Mar k
set t
announ ced
D ire
s cu
完 成
as se
da ys
ex amp
Europe an
e vi
f is
h ö
时 间
ti emp
ra dio
cir ca
س ية
と い
et wa
no u
cul ture
att le
ava it
yo ung
auth or
K ais
c ant
后 来
qu est
اد ه
fin ale
أن ها
Ro ck
196 0
semb le
н д
ج ان
学 生
it ät
ne g
ni co
H or
و التي
ag osto
hi b
Mar ia
Ro yal
sou th
Eng land
nove mbre
S am
v os
ي ُ
es c
at temp
ال ض
ot ball
الذ ين
ي وم
中 國
游 戏
设 计
is sen
ко то
fin an
cul tur
spe cial
Do po
führ t
i hm
m ulti
ت د
ل ق
do u
الم ص
end ant
dire ct
ці ї
R en
h old
м я
с ла
ذ كر
seine m
kom men
ش ی
co p
را ق
semp re
C O
ب الإ
م جم
ri a
se y
ta x
me et
pos iti
plus ieurs
nor th
пі д
H u
d ate
ab and
ul l
hab en
المت حدة
S ar
T ex
T our
h au
ن م
主 义
ver e
tr ès
4 00
k tion
е й
mo di
к ів
то м
ле к
secon da
Is ra
Ju li
nou vel
O s
b ran
n os
p hi
ي كون
부 터
de te
re a
In stitu
bo dy
الع ائ
siste ma
G rup
r in
ha ving
esti val
A g
T im
a el
أ خرى
ع ا
ar do
per forman
ex tra
can did
cep tion
الث امن
abil ity
des arro
на ча
com bat
tain ed
бы л
m ö
z ed
で あ
ва в
ست ان
pol í
198 9
indi c
Gr und
caus a
х и
な い
en cuent
no uve
tut ti
Cali for
F estival
ك ا
olog ie
Gr and
alc uni
z er
ا ول
ل دي
to dos
ri er
des tin
pri mar
Pro du
B ru
Q ue
T it
m ut
p ite
ъ т
ر ات
ق ی
is si
H and
a voir
“ ,
we ek
tor y
parti col
ot ten
serv ices
C amp
O b
h ts
w ick
ح ية
ه ناك
生 活
is ce
194 4
star ted
pue de
M useum
p ala
リ ー
ing en
sch ließ
то ва
gli a
ty pe
zz i
Di vision
entr al
V ir
ع ات
提 出
fe w
Sco tt
D om
l í
le i
pres so
P A
d ann
ص ول
ك ات
中 华
就 是
di ri
polit ical
mig r
jus qu
docu ment
( "
a ci
c m
n un
p ital
é tu
位 于
宣 布
am t
um s
los s
198 7
Ge me
195 0
d ata
m á
s at
ق ص
simil ar
g ir
□ ■
决 定
ro ck
mo mento
por ta
gr und
M A
e ben
f ree
ش خص
و ة
is su
to m
ро в
ass ist
لك ل
الب ي
g é
с ло
ل ها
然 而
ri es
lo g
gen ce
ition s
ска та
4 6
S im
m ort
u ff
ل د
tra ck
An ti
ди н
person al
وه ي
bier no
C ur
ع ية
为 了
de termin
ter i
do m
194 0
jour s
Hist ory
W hi
е к
年 的
age ment
sc ri
itt le
inves tig
é x
с но
ي ب
con ne
con dition
ac a
Le g
St ar
Ro ma
set te
Gre en
0年 代
grup po
A ct
j an
舰 队
pp ed
hel p
كوم ة
konn te
T om
f te
è ne
П рез
行 政
and a
ge ben
pra cti
F ried
n y
th é
au tre
الع مر
Ro ad
وج ه
lla m
b ili
c ita
e cu
د ست
غ ل
ن ه
te ach
st art
ers te
bi do
ach t
fur ther
, ​
E ast
V ene
h alb
j i
m ur
الإ سلام
وب لغ
hist ori
Associ ation
c all
п ла
أ سر
م يل
پ س
st att
za hl
mon t
vis ión
mis e
bre ak
fac il
C op
c um
i led
m io
w all
虽 然
in formation
an cora
es so
ri f
si ble
com ing
وق ع
atta ck
presiden te
K a
i la
也 是
选 举
qu elle
но м
الج ن
I S
f al
re ported
ic io
den ti
sen za
198 8
import ante
nuo vo
K in
受 到
存 在
대 한
ent on
ge ther
اب ل
ph y
success ful
M ai
》 、
com mand
197 9
sy n
Rich ard
t ale
б ра
أ ما
س كان
联 合
있 는
in ner
es sa
la zione
si dent
car atter
است خدام
F ern
f us
h ne
أ حد
م سا
produ ced
sc rit
ö s
р т
di en
do es
ко й
ca dem
fin det
fa ire
pend ent
Pr in
кра ї
d us
s quad
ж да
ri us
K rie
T y
n ight
س يا
و إ
ch urch
te e
man o
go od
So me
str ong
C er
u v
in er
and ere
cor so
الع ديد
B ern
w it
行 动
el im
por te
عن وان
V on
c ab
ح ين
at ors
is to
st ory
ul tur
ار ج
gi à
na h
work ing
مد ينة
x i
城 市
运 动
qu ed
et to
pro get
ات ه
pu ò
Al b
الح رب
مح مد
. )
G a
S ha
v ali
С о
з ва
л ся
이 라
di men
et ti
pro per
ne o
Re gi
193 9
gener ale
m ad
任 何
最 终
最 高
自 由
re ti
ers hip
الأ ر
fi re
leg al
хо ди
seg n
lug ar
descri bed
Mich ael
Califor nia
ф а
gen ann
عند ما
cra ft
Jose ph
Whi le
r am
有 一
es per
ra il
li ve
des sen
cover ed
C ong
c ere
w he
he ute
und a
bl ish
aus ge
2008 年
Ber lin
retur ned
G over
r end
ف قد
北 京
非 常
ma king
ne ver
ha cia
194 1
num ero
rele ase
milit ary
Dies e
f and
s it
ж у
у ча
ي ست
た め
之 间
发 生
控 制
机 车
mo cr
pre vious
fall s
b ir
i as
и ли
آ خر
ش ا
عل يم
gi bt
ier te
ائ ل
dos e
tag on
Rom an
tiemp o
F ür
L ab
되 어
ро м
vis it
centr al
7 6
F ar
出 版
al tro
te urs
را ب
طف ال
R ol
d alle
l än
s port
т ре
ent en
mo vi
io us
198 5
tu vo
appear ed
K ore
P et
S el
S ol
g gi
о к
工 程
铁 路
de fe
re tro
st ri
ta ins
est ra
ste ad
ges tell
ric k
197 1
work ed
tel le
fran ces
consider ed
годи на
V alle
c elle
ج مع
م ما
en f
es er
ent lich
من ها
pr en
198 6
ful l
rag gi
i di
k rie
n ature
з у
ط ر
作 品
方 式
是 在
hi ms
we i
Te ch
m el
p tion
е м
ut to
на д
est ro
را ه
197 2
197 3
ihr er
gru po
hims elf
D or
S hi
en ze
per man
Ch ina
wer k
ای ی
Comp any
Was ser
الثامن ة
4 3
9 9
f ä
m ato
ar si
and eren
ri que
vi o
bi ó
kön nen
Anton io
5 3
m t
p lo
ю т
in k
te c
be kann
на й
sa ge
2012 年
Chr isti
embar go
4 1
k ur
г ла
е го
ث مان
for te
per ò
pro cess
tra g
الج ز
ме р
pen s
sho uld
اط ق
equi po
6 6
H ö
建 筑
mo der
not amment
sp ir
bere its
とい う
B lack
T A
T ro
f ab
ц ен
ش ع
主 席
ch ap
qu ant
ck ey
na hm
دار د
bli co
tut ta
commun ity
arch ite
S tr
h é
ent a
con os
ie f
mit tel
fi co
ann ée
let ter
Es pa
Min ister
P ala
P lay
f atto
Т о
أ ح
ا عت
س ع
ن ها
و ير
政 策
ra ce
وال ي
194 3
esta ba
mus t
poin ted
quent ly
b s
g l
i ème
よ う
al tre
re y
ne cess
ни ка
comp let
fe atur
studi o
Coun cil
علي ه
A k
Z us
c ch
も の
vi dad
dec lar
offic e
Gio v
M ex
M ann
ن ما
活 动
海 军
ни м
go uver
2014 年
R é
d le
に な
情 况
to gether
ri mon
su re
tra ba
ell er
ga z
Ac cording
C ette
a pare
h ig
l ist
r al
أ ب
进 入
ad ap
ten er
Se g
D S
S om
i ze
s hi
加 入
参 加
de g
la m
де р
princip al
exper ien
stag ione
ó r
т во
立 法
on to
ال ان
ac cor
pi ed
dis co
person a
geh ör
Kir che
examp le
B ut
a de
ú s
ع ادة
所 以
at te
ac tions
mon diale
fic io
propri o
reli gi
5 1
J er
e i
ri le
ac comp
com bin
196 9
cap ital
sho ws
comple te
tech ni
nue vo
8 8
B is
D an
M id
W inter
ك ري
根 据
ic ally
19 19
الم ؤ
gli o
C y
U na
В и
П а
о гра
ar tic
il os
am s
vi da
ber o
Re cor
198 1
jo ined
193 0
Jack son
国民 党
接 受
re mp
st än
ne ed
Re al
Chr ist
fut ure
B ri
P l
С е
ح و
ض من
举 行
에 게
an al
la u
di um
di fer
19 17
La w
bei den
رو ف
自己 的
الخام سة
G al
ز ة
这 一
de puis
re alizz
ad op
no ti
we g
vis i
Ch ic
wor d
episo de
F rom
N acional
P enn
n ero
ال في
un de
di vent
am érica
po u
mi th
mar ried
ны м
isti c
possi ble
A M
D al
L an
M ur
f ang
Р а
إ س
ت كون
ط ريق
的 大
ام ا
ين ية
min ister
لا ب
الب حر
حد ث
ele ctr
mos tr
نی ز
х у
إ لا
关 系
وا ج
ris to
Par ty
مر ة
oth ers
zus ammen
s po
В о
г ру
ш о
ق ية
ur al
ul es
الت ج
bro ad
اله ند
пра в
gle ich
Gesch ichte
5 6
L at
P an
и ме
أ ث
ch ten
ci ò
cre ated
It ali
اف ت
bes on
Uni versidad
mor te
一 直
se a
An dre
ese mp
197 5
196 5
196 7
V an
غ ي
me jor
so m
na zionale
reg ular
recor ded
Cour t
aband on
5 8
E ine
أ ف
” （
制 作
is ation
be im
ser vi
те ль
pl ant
Al le
vil up
og ni
sel bst
2010 年
wä hrend
5 7
L ig
P la
v ac
в ся
al k
be au
po b
hi elt
ll er
sy l
retur n
campa ign
e z
s of
v ra
ث لا
خ لا
د را
ض افة
》 （
res ul
und en
ро ці
gu ar
bo x
Re public
inter est
fir m
196 8
fr at
fr ica
stru cture
medi o
pet to
Dist rict
hing ton
B ill
k re
罗 斯
青 年
con fer
ac ross
ap pen
In dia
wi de
dé velop
الح ر
ای ران
posi zione
P ho
g ang
企 业
军 队
参 与
ta ken
par ty
les ia
wo hl
Ch urch
pend ant
mark et
Was hington
العائ لات
enton ces
P lan
s piel
w at
ا خت
en th
al though
me ister
are as
c ad
r ad
s pr
з да
ц я
ن ين
im mer
pol ic
parti ci
197 4
dist rict
َّ ة
عم ال
duc ation
ilos op
C up
a unque
n it
t í
ü t
ق ال
ラ ン
ー ル
工 业
co li
qu anto
لا ً
tit le
Pier re
B and
B lock
H y
H aus
d ort
de b
do v
mo ins
los t
sa w
198 4
cap ac
fig ures
rel ati
Mit gli
tut to
Francis co
, "
M är
S us
W es
r ä
ç o
es sen
is me
se hr
po der
dé but
tri es
develop ed
territ orio
F ort
H el
b ell
c ô
f le
r ist
М и
ي خ
主 義
并 且
or g
to ber
ti que
ic as
ter re
per mit
194 2
olog ical
Fam il
B est
L or
M ill
P lat
ي ح
い て
新 闻
独 立
au er
cu la
во д
اب ق
speci es
P our
f oc
m ale
m als
Т а
另 外
自 然
de cor
ve ce
mo ve
est ado
ag ne
ار ات
pr ä
An d
198 2
دان ش
الأمري كي
u me
ه ل
ه ور
re cog
ing les
li ed
tro p
ke y
ori ent
197 6
set z
الر غم
Hen ri
diese m
Ok tober
7 8
A le
G old
T ambién
U K
d at
h ann
ñ os
ح اد
ز ر
一 般
山 东
ck en
وا حد
mon do
inter ven
sol u
mé di
2011 年
chies a
C re
E li
M et
T u
e as
s vilup
و الع
来 的
er an
sch en
dis e
ier ung
Com mission
ide a
てい た
pay s
Kais er
E ste
a ce
s ell
v ale
و ما
ک ند
۱ ۹
ne ut
ne hmen
عل وم
men ti
bo t
Al though
n ie
刘 备
at re
ко ман
fam ig
school s
rap present
Mus ic
Austr alia
》、 《
1 日
6 9
C E
C ent
S pa
V illa
f eld
ま た
德 国
al tern
la v
si gui
po le
com mission
ques ti
Ra il
follow ed
к лю
х і
ئ ية
ب م
ب سبب
ح س
پ ر
人 口
合 作
19 14
mo ther
ven ue
Re ich
Fran ces
atta c
term ine
B A
U ne
ت ز
ط ي
al g
co stitu
ing er
so it
we b
Mar y
lie gt
emp loy
design ed
D el
D ani
d ung
j ou
ل ند
ن وع
적 으로
ed en
ten e
om et
men o
inter no
cam bi
ph ys
fig ur
respon s
Argent ina
nouve au
E arly
O ther
W ir
m ul
y l
Д о
ч у
ر ج
ق در
完 全
我 们
en os
ho ut
ве т
الد ولة
stud y
Rus sian
D A
D V
c lo
i chen
k te
ف ه
— —
内 容
in vece
se cu
ig t
وا ست
iz z
ai res
amp ion
Au ch
C es
í sti
є ться
的 是
en core
ar te
qu o
su pp
por to
go bierno
Ar my
ien do
fo unded
lie u
Fran cia
sel f
idad es
grand es
provi ded
K ur
l ica
l iter
ت ی
军 事
la gen
ap plic
om men
wi fe
ра й
ка р
mi x
يد ة
196 4
vil lage
хо д
utili zz
aug h
Hau pt
Chic ago
b ill
c ó
ض د
in sieme
ci do
ne gli
но ви
cor respon
gr ö
197 7
mag gio
F I
G il
G li
W in
ت ُ
ج ا
in form
es tos
as ter
ti va
con na
vo y
trans fer
пи са
occu p
feature d
C ana
u z
ک ش
之 前
交 通
ar chi
it ung
ro i
est re
man de
то го
وم ع
رب ع
ту р
Gre at
Fra u
elim in
B ere
m adre
ó lo
此 外
造 成
er ung
ne go
на я
om an
com b
ke ine
gli e
Ch ampionship
mater i
A ut
C ir
L ad
в се
ж но
ذ ات
지 만
no vel
ag a
ور ي
pa ís
cri min
الخ اص
Apr ès
Wh ite
してい る
D ay
V o
a per
o tras
w and
م ون
ال وقت
con su
ra di
li es
for ces
ان يا
cu er
fig ure
lin es
5 2
5 9
A ward
C entral
k an
в ла
同 性
这 种
un st
st adt
com mit
با شد
tiv ità
ван ня
Fa hr
G od
L ie
a way
i che
j ar
j ud
г ен
و با
タ ー
er ed
in corpor
st u
ff e
pr ison
op pos
196 2
US A
remain ed
z og
گ رف
不 是
只 有
电 视
si endo
tr on
ug hout
ser o
pre ced
194 6
cur ity
бу в
tempor ada
graf ia
franç ais
resta ur
د ين
د خل
ك ار
服 务
in os
is l
te des
be h
ac tive
ap pointed
son s
pr ès
pres s
orig ine
ет ся
Pre mi
esp è
1 000
A cadem
f ast
إ ذا
er k
am enti
su it
ho p
id os
ren ce
pol ice
197 8
195 6
mag gi
graph ie
K ap
c tos
c ateg
я н
ё н
ب أن
例 如
con qu
ra ch
ac ces
ill us
бу ло
lead ing
ولا يات
N on
O p
P ap
P op
ض ر
م در
甚 至
in ici
th od
to us
se ction
ab ile
man a
St and
ло в
cam po
tes ti
lich er
writ ten
Sy ste
quat re
واق ع
J es
c les
ع رض
称 为
적 인
el los
mo un
ha y
ле д
iz ed
té r
194 8
enn es
bil ity
ор га
ю ть
ذ ي
م ختلف
保 护
而 且
co la
us ually
pro ject
في ه
tion al
ко и
но ва
те ри
fin ished
pre par
bes te
Ra dio
cel ui
dam it
دول ار
C os
S ir
b os
n ac
v et
w alt
ä tig
е в
ح ا
印 度
帝 国
除 了
ar gu
st ated
com enz
Ar ch
don c
cent re
196 6
fr ü
produ zione
diff ic
succes so
Mär z
C S
C el
H i
ف ار
ن ق
大 量
ar ing
at tribu
to u
et c
per ché
ber to
ex c
comp añ
gr ado
ле ние
Sch we
され る
نظ ام
7 7
H il
L A
M S
n ée
p sy
z as
ô le
е то
得 到
斯 特
on ia
it or
ent ras
con te
con tempor
lo ok
ac tor
ach ie
ré s
الب ل
quat tro
read y
Jahrhunder t
Giov anni
syl van
E ar
J usti
g ig
g ave
ب الم
م وس
۱ ۳
增 加
希 望
系 列
通 常
se ven
ra y
19 18
che z
ug no
go al
до в
temp er
فا ع
-- --
XI X
P os
a po
h res
n acional
t ard
с об
ф у
ط بي
武 器
， “
or te
or ie
se en
res ist
من ذ
ра б
ки й
ста н
pub blica
lle v
äch st
8 00
k el
ح جم
ض ع
ظ ر
ка н
ele ction
person as
" )
M ont
S ud
ذ ه
se de
ma ins
pr ise
ser a
vo le
go t
bi bli
mi entras
cour se
offici al
M r
O ut
V ere
V ers
f la
f est
n at
u vre
س ان
و يل
わ れ
他 在
er sch
an cia
is a
for ts
den om
wi ch
ко ло
ser ve
dis cus
194 7
الس يا
schaf ts
ban k
mol ti
commun ic
Fir st
month s
équi pe
performan ce
9 8
M ün
R el
h än
s are
ّ ة
继 续
di vi
ad ded
ст вен
hl en
Ber g
politi que
d augh
k ra
k auf
m undo
t ung
ف ی
美 元
重 新
st one
pro ven
za zione
5 4
開 始
es o
de ten
el en
qu in
st ates
der i
ma ine
no te
pro je
те м
ll en
stud ent
ماع ية
natur al
6 7
R am
W al
k y
s cul
t ation
ت عداد
民 国
in j
19 21
mo d
fer ro
wor den
av re
C enter
M el
X X
е ра
ز ية
غ ة
ق ب
两 个
利 用
导 致
拥 有
di do
se p
ente mente
را ً
cor re
pres ident
wh ite
Pro vin
rig hts
Gro ß
langu age
S R
采 用
pri mi
ré alis
fu er
Car lo
Dur ch
2015 年
ulti mo
сько ї
Imp er
M ed
T ras
u ter
ق ت
担 任
es en
al most
ين ا
عل ام
mon de
ier en
Ge b
aff e
eng ine
Sp an
Chr is
speci fic
jus ti
فق ط
Dani el
E sta
M ol
g ere
y en
я в
ス ト
生 产
in vest
on ic
des t
des tro
ст ве
ни ми
رب عة
سم ة
Jo hann
ath ol
e ast
أ خ
أ ع
ك ور
不 能
pro tagon
196 3
play er
dist ing
الث اني
2013 年
I g
f l
m ass
t ta
ب اب
ش ري
こ れ
另 一
对 于
指 出
版 本
하 게
al to
qu asi
st oria
ab ly
com m
las sen
gi ugno
De partment
الس كان
195 8
Nel la
وض ع
mater ial
Isra el
H um
Y o
c ato
f it
j ó
k in
l lo
r ate
é rie
en contr
st age
ra ther
au di
den s
In dian
gen ommen
ex pe
fin den
Car ol
25 0
mig li
رائ يل
zeich net
6 8
D re
E P
Z we
h it
б ри
分 别
er ing
un ächst
ma gaz
ار ية
та н
ли н
اب ن
198 3
chi am
па р
fig ht
دا خل
ster reich
inte gr
7 2
e mer
f lu
j es
С а
ب ما
前 往
波 兰
19 00
ре н
по лу
nel lo
form s
де й
195 5
ні й
sc ene
hist oria
Her r
الو ط
äl t
sette mbre
A p
B ig
F und
e ded
r ug
t schaft
ز ا
is sue
tra di
bi an
up on
Au to
num er
ult ure
writ ing
rimon io
T ele
b lock
m ä
z on
д на
ق ائ
in oltre
al o
as ing
ti an
se mi
ma ch
no v
sa ison
اد ی
ка к
ct ing
fil ms
mil es
esta ble
Com mun
tar de
lead er
cele br
sylvan ia
C C
D R
ب الت
ت ست
ن قل
中 共
科 学
超 过
ci er
16 0
195 3
prin ci
mag gior
ъл га
لدي ها
T ar
r ê
с ре
ک ی
不 过
目 前
直 接
联 盟
된 다
al te
me an
ac cess
pro vide
ex ecu
ма т
يا ً
193 8
enti re
origin ally
2005 年
lug lio
Vi et
Espa ña
h acer
ت اريخ
大 会
小 时
li bro
19 23
ex pl
pi an
gu a
ري قة
inc lus
سا ء
play ers
ik an
2007 年
group s
ava ila
Secon d
particol are
1 20
C ha
F lor
G ol
r ado
s qu
ت خ
ت وان
ط ول
le gen
ta zione
ap pel
الم ث
ائ ر
195 4
vil la
hab er
gestell t
ei ther
Penn sylvania
A ra
B ol
S ant
b ig
b lack
б ро
ه ود
ِ ّ
民 族
艺 术
까 지
되 었
면 서
in al
ver b
ver schied
mo is
ff en
ate urs
com es
الأ ش
ree k
fam ili
2009 年
nuo va
n ú
职 业
per cent
po ca
ag ua
In di
mb ol
mi le
не й
да р
است ف
195 9
gio v
folg te
DV D
6 00
D am
H ay
g ue
أ ور
ا هر
ز مان
形 成
首 次
un nel
and s
res o
ag u
dé c
low ing
رب ي
cons ist
الأول ى
algun os
Recor ds
k u
n uc
Р о
д ы
开 发
ir s
но ї
ex tre
ru olo
لا ء
Ro me
sub se
stell ung
eing e
abo ve
deutsch en
pho to
uff ici
famig lia
E ducation
G en
N ue
è rent
م تر
调 查
at ory
go ing
ze ug
parti cular
ric on
comple ted
graph y
aver age
alc une
terior mente
amer ic
hon or
C lar
O ri
o le
з і
能 力
re présent
ac cep
los sen
imp er
play ing
Li fe
tit re
ihr en
nation ale
signific ant
S un
g h
y ed
ال با
un it
un ge
la un
hr en
comp an
pi ano
pres ented
sion i
br ary
фи я
sci enti
event ually
Mitgli ed
û t
С та
أ ة
م لك
و ذ
再 次
이 후
ar gent
th re
ti ge
ti cas
il li
st ati
me as
est as
ст ре
tr am
الأ س
وا ئ
cas i
fo od
jo in
dist in
Mit tel
یک ی
deci ded
invol ved
كب ير
9 5
B ad
D oc
e ver
ح ال
ن ط
名 为
猪 笼
하 기
re cent
der en
des ta
pro test
vi ó
end ing
Par a
193 3
princip ale
جل س
iniz io
provin cia
Deutsch land
Christi an
猪笼 草
Б и
К у
经 过
in stead
ci miento
19 22
ان ات
wo hn
oc cur
mus ical
2016 年
бе з
Janu ar
Soci ety
S um
ü tz
أ ر
取 得
新 的
tr an
mi co
الق د
sp é
195 7
igh ts
diff ér
دار ة
دی گر
a co
v ato
é crit
ا ية
م ية
م را
土 地
组 成
苏 联
de va
or den
of t
no ta
ati ves
те ле
To wn
пра ви
itali ano
épo que
espa ñ
eje mp
B il
H af
基 本
欧 洲
to o
ne ces
com and
الأ خ
ка та
fin d
än der
dire ction
Mad rid
spa ce
S pr
g al
ö st
я к
ا ة
و ست
ッ ト
de bido
ar ies
th ers
li ving
den en
man u
comp ort
во ди
وا ع
Se it
parti cu
hl t
inf atti
tit olo
priv ate
9 6
E S
f ly
й ски
أ صل
ي ص
相 关
结 束
en ero
con st
pro pi
do w
ст ви
pe que
ми ра
Un der
sur vi
leg t
共和 国
nah me
M iller
O N
P en
V it
Г е
ا سم
ز ند
结 构
能 够
19 25
del t
ly mp
ck er
bl an
imp os
vol te
ais on
tras fer
الط بي
され ている
At l
Lo ve
kno w
contra ct
fahr en
أيض ا
b un
f ts
â te
р ів
ن سمة
法 院
生 物
de vient
at tività
di ct
ri ft
19 28
ver t
lo wer
ber ger
با ط
Sin ce
train ing
condition s
availa ble
8 5
A S
F el
V I
e th
l on
p f
p urch
ش كل
ن ز
一 起
马 来
in as
in vas
me thod
son gs
اد ر
ass en
bro ught
قي ق
ju in
clos e
feder al
grö ß
F ue
m ica
Б о
в ши
д ва
س از
ل ب
م ز
ن ف
چ ن
媒 体
高 等
is er
il lo
ve au
pro ye
ون ي
his toire
ven gono
En tre
So cial
Car los
Mil it
scor ed
Sto ck
% ，
K or
e ti
k ir
с к
گ ذ
无 法
ch ter
re ve
he av
per i
то й
الب ح
pel í
sé rie
jun io
equi p
dou ble
N ot
S ul
n ant
p ag
з ы
ح والي
و ذلك
演 出
约 翰
都 是
de al
of ici
ab ri
gen s
Ar ts
ques tion
Co mo
شر ين
fo otball
So vi
Te am
Mon te
liam ent
ديد ة
utili z
sour ces
Geme inde
jan vier
L y
c teur
f ug
м ы
克 斯
委 員
er hielt
in fer
in aug
re la
qu é
res a
so und
ро б
tre at
не го
ris on
Ho ch
C ra
P ed
P ost
a fin
b bero
ص د
特 别
部 队
ti cos
hi zo
im medi
tro va
tur es
196 1
new s
fig lio
rei chen
에서 는
colle ge
syste ms
علي ها
Rus sia
Tit el
O lymp
W ä
r er
В е
、 「
》 。
如 果
de ck
di versi
to da
il let
ent wick
son dern
ра бо
na vi
cas es
cre en
ori al
emp lo
195 2
br as
об ла
thro ughout
edi ficio
B ud
P ic
S anti
S mith
j as
o te
市 场
故 事
ion ales
su ll
ug u
الأ خرى
ائ ية
ele cted
mu jer
trans port
char ge
inst all
influ ence
dice mbre
I ran
V ice
á l
é conom
î t
А н
в ри
ك ث
结 果
is piel
re cht
le ague
con di
ge bra
ne ur
ber n
gen den
tor no
comp on
194 9
Par t
Or gan
Wil hel
fem ale
вре ме
mie mb
7 9
A no
J our
V ie
b ad
b ly
z unächst
ч о
ض ا
ه ما
گ رد
位 置
in v
le ast
ut ter
tra vel
cu p
comp ren
لا ف
ob ra
squad ra
6 2
6 3
S üd
Z i
s la
u la
ع مر
行 为
in du
de mon
and ro
li b
19 15
per formed
vi le
ва л
gu itar
ве ли
ph en
حد ود
си те
sel on
دا شت
Est ados
Institu te
Tim es
gouver nement
D ol
Y ear
a o
b ay
n d
v uel
с п
ш ко
ت س
غ ر
ッ ク
教 授
at os
el n
to ute
co al
ad van
res to
men tion
mer o
ور ی
ور ية
St ud
pri me
وا س
ill on
اب ه
ré e
Con se
soci été
br on
For m
may o
كت ب
chan nel
jour nal
лен ня
William s
Wo od
Grup pe
S tro
T op
k ill
س كر
ط ار
م ُ
全 部
方 法
达 到
le av
19 12
mo ment
الت الي
wor th
وب عد
isti ca
quel ques
stand ing
vari os
studi es
pé rio
L ar
L ong
N ar
d ut
j ä
ج ي
ض م
ظ مة
ل إ
و تم
负 责
들 이
di ente
19 24
no mb
ين ي
rit or
pri or
وا ء
alle m
schaf ten
espe cial
cuent a
مجم وعة
A frica
H on
i ques
o w
с ля
家 庭
性 的
is es
un es
res er
ac y
ab it
cu lo
we gen
ein z
mon d
ure d
use o
vol l
تر ك
sol id
пе ра
bur y
فا عل
Su b
خاص ة
scu ola
кото ры
S as
T od
l uego
s ino
á r
è te
当 地
de f
us ta
ge o
be th
ac ci
elle ment
193 7
Angel es
Ét ats
R ück
a demás
c ciones
p se
デ ィ
他 們
ال ولايات
ri cht
st abil
19 16
19 11
per form
في ن
من طقة
Le e
pa int
الع ربية
Mar ía
до м
ina ción
الح كومة
produ ce
br ing
clas se
stand ard
coun tries
econom ic
6 1
7 4
v are
б ер
в ро
ب إ
ش اه
专 辑
发 行
成 员
改 革
斯 基
ent ra
19 29
ver o
par ts
ap e
را ج
pi de
La ke
ste hen
ess or
193 6
pun kt
comple x
introdu ced
Valle y
" ،
L ond
П ри
ت قد
ع بر
ك و
指 挥
有 关
来 自
ch sel
un ci
di verse
il es
par ents
ang er
ür ger
第一 次
Land es
effe ct
S port
b b
e he
i ve
s üd
v inc
ر ت
ش ک
ش ته
南 京
攻 击
解 放
ra ga
res id
pro jet
ne ue
mo tor
we il
ли сь
pre fer
dis pon
اب ع
ob lig
don ne
jo ue
jo int
са мо
2006 年
ship s
فض ل
ак тив
interpre t
F on
F ree
S ing
h ung
с ку
イ ン
19 27
so le
الم لك
tr ic
ва ла
na io
ze mber
اب ات
De zember
sen s
fü n
Be g
195 1
.. ..
mas si
bro ther
ille urs
äu de
Bu enos
Ét at
A ires
L ater
M ain
b ul
c ta
e ig
g ie
m ando
ب خ
۰ ۰
” ,
成 為
現 在
者 的
语 言
ch io
re placed
la d
qu it
con segu
по ч
na ge
fe ct
fin ish
во з
ки х
ren o
مر كز
cul tura
ai ent
vie ws
gran di
2017 年
iss ance
colle ction
tw are
conse cu
Fl ori
administr ation
schließ lich
Fried rich
I f
M I
O l
e mbre
m ine
r ó
ü hr
ع ود
ف ما
ه ار
很 多
en ded
de pen
un to
se ule
par k
so on
pro to
mo vement
cu atro
gu es
الع ثمان
ці й
iso la
عمل ية
gior no
event s
allow ed
Japan ese
استف اده
T emp
j ap
o tra
r ar
w ers
ж о
ت غ
信 息
广 告
th es
co uver
ac coun
op s
min or
pres e
се р
itu de
ier ten
og gi
str ut
ling u
أك بر
نظ ر
weit ere
dici embre
lavor o
beh ind
B BC
E R
S wed
g ain
s ister
Б е
я та
أ ش
و صل
一 次
这 样
in ese
th us
res te
ul ation
الم ُ
um i
pres ente
عد م
gra zie
chang ed
deg ree
Viet nam
D é
F ig
J im
s ang
y ó
н ен
خ ی
博 物
思 想
th a
ta king
ab ril
gen naio
за па
17 0
war ded
mu erte
olog ia
Mo tor
For ce
defin iti
tie mbre
Fol lowing
9 1
A D
O tto
f are
ま で
as su
ti gen
19 13
ca de
pu eden
col leg
نا ث
Par ti
val u
سا س
activ ities
euro pe
Jahrhunder ts
génér al
Tex as
أث ناء
daugh ter
e ight
ث ار
ز م
پ ای
发 表
ac qui
ho uses
tra bajo
ست ون
ون د
pu esto
در جة
qui er
ле т
ло то
ang el
ris ult
ric an
sp esso
ost ante
رو ز
air craft
appro ach
actu al
kil led
pú blica
B lan
l ise
r are
î tre
仍 然
de li
ri ver
الم ج
hi jo
ru ck
то р
وا جه
با ز
ris e
port un
Or t
rel ated
contin ue
бы ли
Austr ali
CI A
K u
h us
p ère
г ер
خ ارج
و بر
二 十
人 员
澳 门
in car
de ta
de mo
con sul
لك ن
gro s
lar gest
الر وم
كر ة
exp lo
inde pendent
occas ion
M ost
O ver
a ise
e poca
k g
s ost
u th
н т
с ен
ق ه
و غ
直 到
精 神
er rich
ch s
to wards
ent stand
li p
19 10
ant as
St ation
dé ce
193 4
про из
hab ían
كت ش
ос об
acti vidad
الأر من
sep tiembre
. “
N am
k tor
l ittle
p ä
w oman
В а
П е
م ض
产 业
具 有
名 的
后 的
机 构
沒 有
er reich
un os
se ctor
si co
for ced
pro por
tor n
mar s
vis to
Pro gram
rie ben
spe ak
sc en
دار ی
الي وم
loc ation
inde pen
sour ce
ctu bre
munici pal
especi ally
Wes tern
a vo
k et
w al
w ol
П ро
文 学
en da
al en
re ason
as h
se cret
ко го
ex pos
ва ти
ли те
pu re
car go
ari an
Lu is
net work
Ger many
own ed
clos ed
conc lu
profession al
neu en
Leben s
кои то
8 9
b att
o x
َ ل
사 용
al ready
is ted
ri mas
me ans
au ton
ver sa
الم جم
por ti
но ст
id s
ven ir
tri al
fil s
esta blish
eng th
pass ed
forma ción
ät z
sk i
individu al
claim ed
Ban k
Gran de
Guer ra
Kin der
A R
L og
S ho
v rier
è tres
п ло
ا قة
م كان
的 地
그 는
en ci
us s
qu ite
po p
den cia
Mar ie
ric er
бо р
الش يخ
mag ne
attra verso
ськи й
relations hip
eben falls
artic le
H os
K il
M ic
U N
h ic
i zación
j ur
u de
z ä
Т е
ж ду
ب اد
反 对
领 导
la is
se ñ
so la
ag ree
um ento
man ten
man if
sch on
Sch ul
Sch iff
Ne u
Fran z
لم ين
Mo un
fam ille
alis mo
aul t
atten ded
كب يرة
Nav y
Cana dian
comm une
T O
T al
p io
w ish
é v
Н о
ت ين
ー ド
安 全
目 标
았 다
la bel
ge biet
do it
An n
ير ان
ма ти
193 5
So hn
бу ли
Bro wn
derni er
poten ti
eser cito
bekann t
H ans
K los
U p
b atta
e fe
h alt
o ctubre
а ль
س ين
ي ث
利 亚
用 于
년 에
al ta
at om
se pte
so pr
pro gres
ho urs
go als
vel lo
ques te
يا ة
soci ale
193 2
طل ب
Welt krie
التر كي
Tech n
同性 恋
déce mbre
K ol
W ien
g ers
h le
i b
ل أ
使 得
大 陆
江 苏
随 着
ch ampion
ic amente
ten d
الم غ
ale m
ran e
its elf
يا ء
Gr ün
line a
team s
sou vent
Fo x
beg inning
зе м
Schwe iz
Wä hrend
7 1
G ri
H al
P S
T ut
T ag
V is
r one
ب ول
ت ول
ح ف
天 津
时 代
時 代
角 色
还 有
es cu
ro ute
con centr
man e
ex emple
tro u
لل إ
cul os
sig nal
ві й
fig ura
Gro up
maggi ore
septe mbre
A th
G or
K ra
ف ترة
و ظ
传 统
周 刊
节 目
部 的
그 러
en suite
am ar
ac cording
ли я
до л
الح دي
تم ام
ча ст
oper e
ство то
situ ation
дру ги
trav és
evi dence
dévelop pe
8 2
8 4
F rei
i ore
С лед
ح مل
加 斯
建 设
警 察
进 党
는 데
ال وسط
co ast
si ze
che m
est ar
ار ه
ran o
الت عليم
Se cret
مر بع
ère ment
éta ient
تص اد
2018 年
بی ش
Est ado
Wol f
featur es
g än
Р е
й ого
ع ه
お り
增 长
实 现
用 户
co unter
الت اريخ
ven nero
min i
pl atz
col oni
cam bio
ob serv
tel li
لي ين
off en
crit ic
centr ale
نج لي
lä s
Wer k
famil ia
Atl anti
7 00
M P
M iss
O li
O rig
c ci
o go
o hne
s ic
t te
u ge
é li
ô t
Ф ран
и сто
ض ة
ع ائ
活 動
들 은
en semble
ar ma
un ion
ро ди
ست ه
الأ ك
ke ep
pl ans
во ен
با ست
ль ко
ben ef
wh ose
ph ilosop
iti ve
met al
tel lo
ски й
الر ئيس
present a
ju illet
writ er
open ing
deci de
geb aut
chang es
Dire ctor
B ug
J ac
L ord
N S
c ali
v alle
Б а
ت را
ن سي
ジ ェ
这 是
進 行
as pe
il les
qu arti
res iden
ва та
ven tion
min u
met er
stru ct
att utto
fac t
conc lus
otto bre
reach ed
Ir ish
الأمريكي ين
Doc tor
e bbe
h ang
j ér
k ins
ا خ
产 生
民 进党
ed u
на ко
ag re
dé fin
Ar m
ob ten
ча сти
Th at
some times
Des pués
ju lio
beg ann
الأمري كية
brit anni
requi red
Phili pp
أسر ة
fün f
S che
T wo
b lie
b zw
c ado
f ru
h all
r era
т ру
د ل
ص ب
多 的
现 代
te i
di rig
ti fic
con ó
so g
ne a
mo bil
ко ри
fe ce
ма й
وال ذي
out side
sy st
New s
Bo ard
inn en
Da vis
tut te
Fo und
book s
épo ca
nouvel le
Vir gin
compan ies
Santi ago
K le
e igen
h ält
k tur
p lu
r ö
С Р
п ър
al ed
re port
ti ent
me chan
را ی
по мо
fi x
fer n
مع هم
مع ظم
193 1
lan z
isti che
Com mit
propri a
نام ه
wes tern
Bos ton
Zus ammen
manu fac
B la
B ild
C ab
E A
K an
O x
T C
ä d
ب ناء
” 、
制 度
大 部分
并 在
de part
al ten
us a
ab ge
ere i
но во
com une
ite te
parti cul
sol di
oper ation
meet ing
esemp io
Academ y
tou jours
âte au
B ir
B ou
B ack
C B
a warded
w issen
أ هم
以 上
演 唱
es crit
he alth
do tto
ag ric
Al bert
ach sen
لل ت
شر وع
Ge biet
ча с
Uni dos
بين ما
det to
nam ent
seg undo
lung o
کن ند
Pu blic
simp le
proget to
E U
e m
f res
ش نا
定 的
提 高
普 通
过 程
韩 国
으 나
at tu
re z
re mo
he cho
ni vel
gi ve
na hmen
bo und
وال إ
oper ations
consi dé
aliz ed
dar auf
incre ased
Sci ence
pério de
7 3
G ot
M ile
O st
S ü
d agli
d ías
f y
v öl
ш у
أ جل
ب سی
خ وان
ز ل
ش ب
也 有
국 의
， 《
it ud
li k
ap rile
ca po
ول م
dis put
ло сь
وق ف
oc to
че р
Er n
Me dia
сто я
sul le
Af rican
dies en
prop ag
commer cial
صور ت
encuent ra
Frances co
magaz ine
sopr attutto
9 2
K unst
N amen
S w
c et
è le
П і
ع ين
ي ول
گ یر
人 在
命 令
그 리
ro l
co ach
ad er
st aff
be findet
do ws
ра с
sch luss
com er
ein ige
men os
dis pu
ме ри
met ri
رو ی
speci e
2004 年
Bro ad
Arbe it
E v
F ur
R ay
a di
k l
l ég
é tant
О т
ч і
ح الة
ي وجد
よ り
人 士
改 变
机 场
is ing
ad d
au ßer
ac ters
ست ر
pos sono
الق انون
ges tion
parti re
ty pes
اف ظ
бо ль
الا جت
princip almente
ator io
nue va
cultur al
practi ce
چن ین
Sovi et
G ir
M éx
N atur
德 勒
re cher
it ation
ti ó
am ent
se qu
ve get
que ment
do ctor
est án
по ли
En t
end s
cre ate
14 0
ві н
set ti
hat ten
ulti ma
aller dings
itali ana
ref le
tutta via
beson dere
Méx ico
8 6
I re
T am
b ud
g us
k n
œ uvre
严 重
国 内
随 后
an aly
ro ll
ion en
den za
ст ру
tr ä
da bei
gen o
sch ol
الأ د
те н
mi ra
Il s
parti do
gro ße
tain ing
enn ent
Col um
stes sa
polic y
Ire land
( «
E ins
W ales
l ut
е ди
ق انون
」 。
个 人
纪 念
集 团
때 문
di plo
ol es
si ón
ma cht
man os
fe b
inter es
كان وا
tur n
reg ard
الك ت
Li ber
án dose
dies es
forma zione
حر كة
برا طور
km ²
Febru ar
Ci vil
въ з
Bet rieb
ване то
hig her
Ped ro
G ue
I A
I N
L au
O ld
T an
s car
z y
л ы
ت بر
ر ها
ق ات
م يم
ن شر
ه ـ
下 的
不 会
功 能
多 数
拍 摄
死 亡
环 境
美 國
일 본
en cias
ti enen
19 26
au c
est u
vi eron
ни ци
por tra
min utes
ле ния
imp res
oc cident
Con stitu
ele v
ста ва
ita ire
الد م
های ی
vie mbre
Bo ok
الل غة
incre ase
въ в
B ene
W el
f ass
t itu
Н е
с кла
ا ک
ー ス
共 同
原 因
司 令
国 的
毫 米
de cre
ent ly
so pra
no viembre
por ter
ho od
pos s
ay ant
cent er
gro w
mat ic
об раз
sci ence
نس ية
къ м
finan cial
Ano ther
dispon i
9 7
B ras
P on
R NA
н ю
ج يل
خ ان
人 类
儿 童
她 的
批 评
标 准
网 络
附 近
la ire
le ich
con vo
st ations
me ist
ко ж
ко ро
го во
Un is
fr ente
br ero
Com mand
гра д
ör der
organiz ation
Kar l
fé vrier
کت اب
Cong ress
Flori da
jér cito
D un
D ra
S how
T ru
é ra
ب ير
ح ص
ز ن
م ط
」 ，
作 用
俄 罗斯
处 理
第 四
贸 易
as so
to day
con cep
be c
mo us
ho ckey
pl ann
Ma is
Cor por
жен ня
soll te
fos se
であ った
Commit tee
F ac
G as
W omen
_ _
h ost
i th
j am
n ica
p us
p las
Д е
У краї
а вто
必 须
英 國
er halten
an ia
ar ed
au m
be coming
на у
من ه
The atre
ла н
mat rimonio
fon ction
vic es
Ste in
pob lación
sigui ente
octo bre
9 3
d ney
s conf
v ue
w ig
z ir
吕 特
晏 斯
法 律
遭 到
in ta
an ta
re cu
te xt
ver a
be y
ca ción
ви ч
ste ht
الإ م
int it
char acters
tho ught
bra io
他们 的
يج ة
techn ology
ськи х
زب ان
Eli za
吕特 晏斯
8 7
A y
G B
G reg
J ones
s ólo
Л е
ب ین
ص ة
ي ام
か った
伊 斯
國 家
速 度
ed ing
con fir
was ser
sch er
we alth
fa v
Ar chi
ien s
bur ger
new spa
pp ing
fun ction
gover n
Ser vice
Sta ats
conf lic
nom mé
flo or
glo bal
Vere in
C le
G on
d ato
f at
一 個
分 析
나 라
en cour
ar ía
al tra
at ra
re ment
ti ques
des tru
ne ben
الم خ
ко л
ans as
vo it
id as
pres sion
tur ned
مر ت
ind s
cap ture
aff en
olog ía
seg unda
Ed ward
exper i
conoci do
últi mo
proper ty
Lad y
denom in
sare bbe
avre bbe
B on
D io
r á
w enn
п ен
ك اب
に お
る こと
ro w
con vir
ri age
man era
we e
we chsel
по ча
pos te
pos ición
ke iten
An na
An fang
با سم
до ва
ris petto
can ti
شر ون
mas ter
diff eren
190 5
uo mo
Cor ps
sup ported
führ te
atten tion
version e
Mil ano
eing es
dor f
associ ation
commer ci
Nue va
Found ation
C ross
F ri
M any
R y
a ura
f ach
p ad
p ack
z uela
К и
ب ور
م صر
出 了
唯 一
西 亚
le ben
co de
ra zione
ma xim
ab ol
po ol
ten ía
но то
ex iste
по ло
ear lier
gra de
Fran ço
appro xim
Mich el
organis ation
servi zio
H ier
L ors
R P
R ein
S P
b ung
c ès
f red
o il
s pre
w ür
í ses
в ра
ц ю
ر ئيس
农 业
ut t
tro uve
ка за
dé ci
soci età
sc el
ны ми
Ma x
الث الث
cin é
appear ance
indus try
scor e
sum mer
Ni eder
Cu ando
andere m
Syste m
E isen
F all
d one
e conó
k ün
s ports
t unnel
В і
Р у
д ра
ت ط
ث ل
ظ ام
发 布
基 础
战 斗
数 据
早 期
最 初
现 在
qu is
con tent
pro ce
في نة
ist an
tra de
الأ ز
pi es
fi er
gro ßen
bet ter
fac tor
str ada
الي هود
عت بر
dent ro
ches ter
pat ron
four th
episo dio
Bl ue
とな った
中华 民国
Haf en
feb braio
C ru
K ent
R ap
c urs
g ente
l ength
n ic
t am
و أن
形 式
收 入
di rit
st ay
ge führt
mo uth
ant in
In dus
الأ ص
sa y
pi er
St an
да т
بر د
mis ma
wh om
av ril
سم ى
же ние
бы ло
exp an
position s
amo unt
limit ed
XV III
Alex ander
جام عة
إس رائيل
ejemp lo
E du
P ress
l ers
s ort
ш ен
ص ابة
ل أن
ی م
官 方
con cept
se hen
ra ción
mon ey
اب ت
ien za
الد را
cti vely
respon sible
nombre ux
Chi le
decis ion
primar y
K at
a pro
a zioni
b la
Д а
з ь
ح كم
ف ات
主 教
规 模
ti cal
il er
ac cident
po pol
на се
est ate
ca used
comp agn
cor te
fin anci
ла сь
ell schaft
13 0
inclu des
isch es
ück e
vari as
Min ist
2003 年
Bes ch
peu vent
جت مع
hold s
mä ß
9 4
A less
V en
w agen
Г а
أ ل
ؤ دي
ر خ
ر ه
ك يل
人 物
商 业
实 际
报 告
时 候
高 速
라 고
an ten
de ad
el ves
os ten
qu ick
li ved
for mar
lo gr
من اطق
ni er
ex hib
ка х
pre cis
ве ст
Car l
bil ità
long er
program me
polit ica
هد ف
mill ions
building s
Vol ks
Dor f
Famil ie
Plat z
nú mero
1 10
A demás
H L
H it
R ic
R ou
b ass
h ere
m ight
n ut
ا پ
ض اء
ع اد
غ ط
于 是
区 域
居 民
들 의
de p
de z
th ur
to das
ed a
se curity
for est
no ted
tra ff
fe brero
mon u
fi le
وال د
ier on
ele t
сь кі
mission s
کر ده
recog ni
A ri
S aison
W ell
d ite
i ra
é p
Б у
д во
с па
ᵉ ʳ
全 球
平 均
执 行
in come
it zen
to t
he ir
do cum
por que
الأ ح
wor ds
art isti
Gu ar
esti m
Har ry
Hist oria
prés ente
much os
addition al
Off ice
carri era
rég ion
aca dem
% 。
E mil
N ap
г ли
ا حت
ب ِ
م ک
公 开
科 技
还 是
es senti
re tour
un ta
te ma
ra um
20 th
me mor
ac uer
all ora
sch ule
по в
gu ard
ich er
lie gen
си сте
amp li
än de
gener ally
fes ti
lat ter
hom bres
Ha w
issu es
Kore an
particul arly
A mb
H OS
L iter
O f
f ase
j ob
س جل
ی ان
ー ム
关 于
国 王
時 間
治 疗
离 开
越 南
is la
ed ition
par la
The ater
ha ce
ici os
af ir
inc en
mus ste
sub ject
الف ترة
بن سبة
190 6
primer os
super ior
البر يط
pil o
letz ten
ثلا ث
Justi ce
C ast
F ab
P ass
V ien
Z a
c ic
h ers
j udi
n ine
Д и
к лу
م خ
و ء
و تر
が ある
に 対
不 久
军 的
同 時
an ch
es cri
ch ain
re mains
la ger
di venne
ci fic
الم در
ко ли
pos ta
pi os
En tw
tri e
met ros
ga ción
og get
ick s
Des pite
المن طقة
вер сите
graf ía
qual ity
هن گ
wir tschaft
によ り
B lo
B ob
D ien
S and
V e
u do
с ве
ت وسط
ر كة
س ام
들 어
un s
the ms
te te
ro yal
ion ato
ge wä
In st
ко р
dem and
Ar men
sur face
Ge o
tain ment
nor m
tit led
milit ar
volu me
identi al
initi ally
pris es
current ly
trava il
علوم ات
ربع ون
resid ents
C entre
E conom
a x
c ard
i os
l ino
м ного
с ы
ح لة
っ ている
で き
ー ト
包 含
目 的
计 算
身 份
ch ing
ال ها
re view
con fi
ab sol
po po
ри и
Se ine
cer ca
led ge
الد ين
لم ان
سا عد
ски я
gio us
بار اة
2000 年
deux ième
Br and
stat us
第二 次
والأ ربعة
pue blo
Port ug
offer ed
Bahn hof
Vene zuela
squ are
A T
A ff
G lo
W at
W ein
g au
s ali
t um
ب الق
ب الن
ر سی
و فر
… …
拒 绝
決 賽
ar my
ed s
der son
ра ди
ва р
gi udi
op in
fin ales
pa ir
Ch inese
pol y
cre d
الج ام
bes ti
Me di
As s
sein es
وف ق
room s
الإسلام ية
Mile ena
thems elves
D y
E sp
F le
F air
H ong
W W
b ata
e u
i des
n ers
z os
ä us
ب ك
ن حو
方 向
有 限
猶 太
范 围
re in
di vis
ur ban
ni veau
ون ه
fe et
wo bei
15 日
الق اط
Ma ur
Su pre
190 7
fund ing
mayor ía
wan ted
diri gi
ultur al
Span ish
ao ût
B ran
K am
L en
N é
T on
d ès
g la
m ess
А р
М е
Ч ер
ч на
ب أ
ر َ
ش اء
显 示
en car
re lig
un ità
la ws
ci pl
ter ror
po te
ار د
ار س
но ю
ha be
pres enza
St ato
pa íses
ви й
Ne ben
tes ta
وب ة
Ja hres
Pro te
aff er
trad u
حق وق
propos ed
Res earch
sex ual
acqu is
الخاص ة
A pp
B ach
H om
b ic
l ato
r um
s pl
y endo
م هم
ه ام
公 共
南 方
地 下
壹 周刊
ال ري
pr on
mar ine
وال ستون
can al
tin o
emp la
sho t
سي س
alis m
fre qu
جن وب
kom mt
even to
real ity
coup le
النا س
mö glich
Mex ico
ize i
' ,
B lu
F L
H as
L ine
N et
V ar
r ôle
w inning
ä mp
ç on
б ря
ц ів
ؤ ول
ا ذ
ص ح
ق سم
و غير
内 的
地 區
并 不
建 议
蒙 古
al ways
is ant
ac re
ag na
ко я
man agement
pu er
ici an
cam ente
الب عض
sus pen
ér ation
ши х
Mit te
cin q
2001 年
XV II
oth è
であ り
أح مد
A wards
R on
a vi
e mo
و على
そ れ
ュ ー
班 牙
西 班牙
해 서
co u
se ul
des cu
po or
che f
min o
да н
De mocr
ве к
تر ین
че м
sub st
dr am
respon se
exp los
Cas til
によ る
Wilhel m
hus band
Klos ter
B ak
G ren
M ig
S ab
b â
c ann
d ance
e qu
f ish
m ó
m ers
p ia
r und
v ul
آ ل
ط لا
م ورد
ي ان
” .
十 二
当 选
es cap
ter ms
ver kehr
den do
tr ice
sch iff
ly wood
las ci
الأ طفال
lu ogo
St u
во го
lar go
lar ger
rei che
arri v
gun s
prote ction
Ko mp
جز ء
famil ies
بالإ ضافة
difer entes
Lig a
دانش گاه
سكر ية
E N
N ik
f rag
h ed
m ús
r d
u da
è de
ح م
太 平
al og
is land
ال لا
el te
ed y
ri fer
ve y
pro min
est ru
comp les
En ter
inter ior
ins pir
ll t
تم د
fr as
وي ت
amp f
tic s
Man uel
Des de
بود ه
cus to
camp us
Brit ain
ef forts
amer ikan
associ ated
أيض ًا
Person al
llam ado
rius c
pou voir
testi mon
القاط نين
a ded
Л и
у ни
ب ادة
ك ام
テ ィ
只 是
宜 兰
尽 管
网 站
같 은
ar che
ch as
la uf
li cht
for der
الم ش
com ment
ich é
ти я
fr ent
حد يد
mes so
ста нов
ско м
fen se
Bo y
nor te
nor mal
الا حت
ener gy
Univers ità
constru cción
air s
run ning
arbe iter
stra ße
costru zione
nar r
Ig lesia
bud get
sconf it
Entw ick
C N
c ía
c ée
e au
i um
m useum
r ica
w w
г на
и ма
د ف
ک و
共 产
投 资
最 大的
on na
on ais
un its
ent it
et ter
ci os
li co
من ا
comp te
pl at
ill s
ле й
10 日
cam pe
ty p
ме жду
art ist
dire t
person e
parte ci
190 8
бы ла
univers ity
geh ö
Deutsch en
sos ten
Tran s
نها ية
comenz ó
batta glia
그러 나
soldi ers
festi val
M etro
S ports
Y u
Z w
c end
p pi
ч ки
أ غ
ق اد
ل ين
​ ​
一 步
冠 軍
的 主
on ato
or ies
at rice
as ked
te en
ing res
au ment
ab lo
sch rift
по сле
na ve
op portun
min im
ann ual
إل ي
Co ast
حد ات
ні сть
الث انية
سن وات
führ en
Sou thern
Pr ä
gior ni
refer red
دور ه
кой то
cere mon
whe ther
огра фия
b ab
g il
s ale
z ze
ج ري
ل ط
家 族
持 续
杨 绛
模 式
程 度
認 為
议 会
选 择
학 교
함 께
ar lo
co sa
ta ción
ab ord
do or
ра к
man ager
го ло
ph ase
parti es
است ان
ائ رة
pen al
medi ante
pré sident
cin que
él é
طل ق
eg n
publi que
المس لمين
так же
Premi er
communic ation
pelí cula
Log ano
Jac ques
fav ore
G P
R ad
b te
á cti
и х
ج ع
之 後
产 品
是 由
歌 曲
记 者
세 기
ان س
im mag
ко но
18 60
را ز
ali ment
pres enti
bo y
pa th
لا ست
her r
ins pi
الح ي
ای ر
reg ional
sp ent
tes to
tu lo
lan ge
seg ún
كم ²
Sy dney
sto ck
proble ms
Pi etro
fron te
subse quently
Franço is
B ab
B ell
C ho
D P
I ts
I cel
K i
c ross
f rei
m are
ю щи
ت اری
م َ
ه ی
以 来
波 蘭
财 政
達 爾
시 대
as tern
ver sch
ver ein
ne te
ie g
را ع
ly ing
St ati
dis cipl
tri a
وب ية
produ cts
Pro z
uni que
لي س
sho wn
Te atro
diff us
الص ح
Aug us
enter ed
Fo otball
انت خ
XV I
Ti me
hos pital
frances e
" ),
B at
D ue
s ites
t à
è se
ü gel
И з
П ос
г ро
х ра
ش مال
ع رف
ن ى
れ た
ー ン
地 球
大 學
in ser
la del
qu í
so p
ig ung
ie le
mo ti
mo glie
الم رض
gen cy
ug non
car ried
ود ة
ми на
ari as
chi ar
We b
190 4
Am érica
cle ar
Vic toria
conos ci
Cent ro
heav y
acuer do
( *
. ”
F la
b attle
e gli
g ica
j à
v ino
ン ト
制 造
属 于
的 情况
等 人
统 治
起 来
in ch
in se
al can
is ol
as o
con ce
ra ised
ver öff
ce ux
mo bile
ist itu
hi re
ко му
pr ün
ser va
ich ts
ма л
نا ئ
reg ul
gra p
Par liament
art ists
anti gu
San to
الخ ط
mor al
vic tory
constru cted
rap id
äu fig
سط ح
واد س
重要 的
جان ب
expl or
أور وبا
acqui red
( „
8 3
A ber
G ame
P ra
b rie
e vit
f ie
С и
д ів
д ър
о ни
о ру
э то
ه ج
明 治
朝 鮮
逐 渐
风 格
것 이
또 한
er ia
an zi
ch âteau
gen es
gen ere
En rico
gr á
mar riage
لل م
met à
bil d
الا ق
Univers ität
ос нов
Ser ies
führ ung
Mus ik
Bur g
бі ль
bir th
espè ces
inaug ur
leav ing
D NA
H ein
L im
M é
f lor
h ie
s creen
Ö sterreich
б ре
г ре
ب غ
ز می
一 样
举 办
任 命
表 演
in vit
ch ampionship
ur t
ri en
ter a
ap t
om ini
ام ت
не то
ند ا
الح ق
je u
gra phi
leg isl
lie ßen
let t
25 日
Qu esto
program s
Gi use
dro it
يج ب
Men schen
sug gest
Jour nal
sost itu
développe ment
نجلي زية
D C
N ell
R O
S E
T ho
c res
e ch
l è
l ice
v ity
z es
с це
і з
و هذا
。 （
シ ョ
事 务
各 地
开 放
er ie
en cy
ar rest
re p
it ut
di eron
et ts
st ren
ge hen
lo ve
da zu
ex er
gi que
pl ane
her o
dur ant
وال ح
ми ни
urs prün
شر ة
ele ment
part ner
Com mon
sti le
Nor thern
ful ly
ko mp
semb l
order ed
mic ro
годи ни
memb res
Person en
belie ved
gehör te
البحر ية
resul ts
protagon ista
Yo ung
Australi an
Hos pital
нако не
B our
B ürger
C li
C risto
N ico
P au
T ok
c és
i vo
k ten
m ètres
t ête
и спо
フ ォ
博 士
基 金
整 个
日 军
最 大
流 行
社 會
移 民
納 達爾
스 트
정 부
el ten
co pp
ci ent
res tric
so v
do ch
на м
ко ва
man ia
ck y
Re chts
وا حدة
لل ح
iz ation
He ad
الج يش
sy mbol
الف ل
orig en
Es to
nam es
dig ital
major ity
dra w
الأسر ة
compet ition
franç aise
algun as
multi ple
fab ric
kir che
agre ed
syst ème
Corpor ation
B ü
C are
E u
S ac
S tor
e v
f low
f lan
f elt
h es
i ente
é dition
М о
д ви
к ти
ц ы
ت قل
ش ن
ف صل
ك تر
ه ير
و َ
不 少
作 战
士 兵
殖 民
的 新
部 门
集 中
사 이
ar ie
as cen
di er
ta ine
ce la
ir on
на род
ро ва
ca be
по зи
الأ سا
Le on
Re y
dé jà
car ry
col um
هم چنین
الإ نس
وب ي
ves ti
én é
сь ка
الش خص
Or der
det ta
ну ю
Her zog
fran z
cha que
vir tu
iss ent
high est
prob abil
してい た
sug ges
مجم وع
lav ori
cuer po
”、 “
approxim ately
N ight
T en
b um
f lä
k h
s í
s per
s ab
s pos
œ ur
є ю
ج ون
ل ال
出 生
学 家
或 者
자 신
주 의
ch ant
ch im
ro ugh
ic ia
ol der
li ves
ber s
الت ص
те х
Ar ti
hn t
ob ras
cre w
ton s
tel s
fon do
ці я
cir cu
Do wn
Ser ie
pub blico
mill ones
пу бли
run s
gegen über
Don ald
Rail way
phys ical
Virgin ia
Giuse ppe
franz ös
A sia
L ang
S ong
W alter
l à
o ts
u omini
z an
أ ت
أ قل
ع ر
ف ريق
م عد
و حدة
し か
リ ア
回 到
好 的
平 方
年 代
技 術
라 는
re lie
to uch
ge grün
no table
ag ing
الم دار
та л
va in
sa de
mit ted
sen ior
198 0s
ку ль
Nor man
خر ج
189 0
ég lise
cat to
Nach dem
المن اطق
gover no
خص وص
arch itet
2002 年
hol m
gab en
によ って
Gover nment
previous ly
cô té
Gue ugnon
B attle
C lass
K ü
L ittle
S ic
X IV
a im
a ther
r í
щ у
ش ف
■ ■
不 可
問 題
引 起
纪 录
阿 根
들 을
en fer
te atro
ti le
li bre
li vello
pro vo
do mes
ات ها
ex pla
we ap
ay a
Al la
Mar t
ски х
бу ла
tig t
rel ative
قي قة
Ra hmen
lead ers
دی د
rest ling
Kir chen
prob ably
level s
أص بح
tradition al
Pet ers
أف راد
illus tr
diffic ult
Mün chen
disting u
jä h
lik ely
Eliza beth
M eter
b ie
c lar
n ées
К ар
т тя
专 业
公 主
其 它
出 的
占 领
宗 教
改 为
有 些
相 当
议 员
设 立
项 目
기 도
리 아
시 작
en ced
an ze
at u
co ordin
ol are
19 th
ie u
op position
rit ten
fin almente
ure au
gli chen
17 日
gra ve
الب شر
Ge gen
fo to
мо р
об ще
person nes
zi al
cri p
سل سل
бу р
189 5
Pri mer
hom me
кі н
مار س
wen det
Emp ire
cine mato
attemp t
desarro llo
numero us
阿根 廷
B uch
N ation
g rie
r à
v ante
y m
е дин
у чи
ч ні
م جلس
ي ار
コ ン
为 主
化 学
十 分
同 意
同 盟
因 為
它 们
报 导
生 涯
纽 约
당 시
에 도
is i
to ld
ter o
ac cus
pro ced
ab sor
في روس
um en
ين ات
ست ند
در ی
pl ate
mar ch
tre ten
Mar ine
ви н
té e
الس فن
mes i
dire cted
fam ous
сти ту
lig ne
bel ow
import ance
Lu ft
fur ent
pun ti
aller y
individu als
پی ش
ihre m
العالم ية
successi vo
pap a
geme ins
esc uela
polí tica
ingles e
exc lus
scul p
L S
L uc
O pen
P hi
S C
b é
s vol
y et
а бо
گ ان
と の
亿 元
但 在
影 片
朋 友
er folgte
it ä
un se
le o
te ment
ro y
ent ren
se c
li vre
he uti
des pite
ig an
ام ر
ran k
zion ali
gi co
ha i
go bern
pres a
gr é
Ar thur
ren der
إل كتر
ph one
fu era
ord net
It aly
ین ی
import antes
premi ers
onn en
hy dro
gior n
reli gious
King dom
erst mals
أيض اً
dol lar
deut sche
separ ate
pubblic ato
complet amente
때문 에
" ).
8 1
F est
O R
S toria
X II
a par
n itt
s au
v res
â ce
é ro
ا ي
ج ها
ل و
保 持
台 北
学 习
影 響
植 物
然 后
維 奇
返 回
ur ies
ri k
ge ht
res ol
be zeichnet
par o
ig o
ap para
ра т
18 日
ran ce
الأ ور
tor neo
gu id
Re volution
De ut
