{"[UNK]":0,"[PAD]":1,"[BOS]":2,"[EOS]":3,"<s>":4," ":5,"!":6,"\"":7,"#":8,"$":9,"%":10,"&":11,"'":12,"(":13,")":14,"*":15,"+":16,",":17,"-":18,".":19,"/":20,"0":21,"1":22,"2":23,"3":24,"4":25,"5":26,"6":27,"7":28,"8":29,"9":30,":":31,";":32,"<":33,"=":34,">":35,"?":36,"@":37,"A":38,"B":39,"C":40,"D":41,"E":42,"F":43,"G":44,"H":45,"I":46,"J":47,"K":48,"L":49,"M":50,"N":51,"O":52,"P":53,"Q":54,"R":55,"S":56,"T":57,"U":58,"V":59,"W":60,"X":61,"Y":62,"Z":63,"[":64,"\\":65,"]":66,"^":67,"_":68,"`":69,"a":70,"b":71,"c":72,"d":73,"e":74,"f":75,"g":76,"h":77,"i":78,"j":79,"k":80,"l":81,"m":82,"n":83,"o":84,"p":85,"q":86,"r":87,"s":88,"t":89,"u":90,"v":91,"w":92,"x":93,"y":94,"z":95,"{":96,"|":97,"}":98,"~":99,"¡":100,"£":101,"¥":102,"§":103,"ª":104,"«":105,"¬":106,"­":107,"®":108,"°":109,"±":110,"²":111,"³":112,"´":113,"µ":114,"¶":115,"·":116,"¹":117,"º":118,"»":119,"¼":120,"½":121,"¾":122,"¿":123,"À":124,"Á":125,"Â":126,"Ä":127,"Å":128,"Æ":129,"Ç":130,"È":131,"É":132,"Ê":133,"Í":134,"Î":135,"Ð":136,"Ñ":137,"Ó":138,"Ô":139,"Ö":140,"×":141,"Ø":142,"Ú":143,"Ü":144,"Þ":145,"ß":146,"à":147,"á":148,"â":149,"ã":150,"ä":151,"å":152,"æ":153,"ç":154,"è":155,"é":156,"ê":157,"ë":158,"ì":159,"í":160,"î":161,"ï":162,"ð":163,"ñ":164,"ò":165,"ó":166,"ô":167,"õ":168,"ö":169,"ø":170,"ù":171,"ú":172,"û":173,"ü":174,"ý":175,"þ":176,"ÿ":177,"Ā":178,"ā":179,"ă":180,"ą":181,"Ć":182,"ć":183,"Č":184,"č":185,"Đ":186,"đ":187,"Ē":188,"ē":189,"Ĕ":190,"ĕ":191,"Ė":192,"ė":193,"ę":194,"ě":195,"ğ":196,"ġ":197,"Ħ":198,"ħ":199,"ĩ":200,"ī":201,"ĭ":202,"į":203,"İ":204,"ı":205,"ķ":206,"Ľ":207,"ľ":208,"Ł":209,"ł":210,"ń":211,"ņ":212,"ň":213,"ŋ":214,"Ō":215,"ō":216,"ő":217,"Œ":218,"œ":219,"ř":220,"Ś":221,"ś":222,"Ş":223,"ş":224,"Š":225,"š":226,"Ţ":227,"ţ":228,"ť":229,"ũ":230,"ū":231,"ŭ":232,"ů":233,"ű":234,"ŵ":235,"Ŷ":236,"ŷ":237,"ź":238,"Ż":239,"ż":240,"Ž":241,"ž":242,"ſ":243,"Ɖ":244,"ƒ":245,"ơ":246,"ư":247,"Ʋ":248,"ǀ":249,"ǁ":250,"ǃ":251,"ǎ":252,"ǐ":253,"ǒ":254,"ǔ":255,"ǧ":256,"ǫ":257,"Ș":258,"ș":259,"Ț":260,"ț":261,"ȣ":262,"ɐ":263,"ɒ":264,"ɔ":265,"ɕ":266,"ɖ":267,"ə":268,"ɛ":269,"ɡ":270,"ɣ":271,"ɨ":272,"ɪ":273,"ɹ":274,"ɾ":275,"ʁ":276,"ʃ":277,"ʊ":278,"ʌ":279,"ʎ":280,"ʒ":281,"ʰ":282,"ʲ":283,"ʳ":284,"ʻ":285,"ʼ":286,"ʾ":287,"ʿ":288,"ˇ":289,"ˈ":290,"ˊ":291,"ˋ":292,"ˌ":293,"ː":294,"˙":295,"˚":296,"ˡ":297,"̀":298,"́":299,"̂":300,"̃":301,"̄":302,"̅":303,"̇":304,"̈":305,"̍":306,"̤":307,"̥":308,"̪":309,"̯":310,"̿":311,"͡":312,"͵":313,"Ά":314,"Α":315,"Β":316,"Γ":317,"Δ":318,"Ε":319,"Η":320,"Θ":321,"Ι":322,"Κ":323,"Λ":324,"Μ":325,"Ν":326,"Ο":327,"Π":328,"Ρ":329,"Σ":330,"Τ":331,"Υ":332,"Φ":333,"Χ":334,"Ψ":335,"Ω":336,"ά":337,"έ":338,"ή":339,"ί":340,"α":341,"β":342,"γ":343,"δ":344,"ε":345,"ζ":346,"η":347,"θ":348,"ι":349,"κ":350,"λ":351,"μ":352,"ν":353,"ξ":354,"ο":355,"π":356,"ρ":357,"ς":358,"σ":359,"τ":360,"υ":361,"φ":362,"χ":363,"ψ":364,"ω":365,"ό":366,"ύ":367,"ώ":368,"ϐ":369,"ϒ":370,"ϝ":371,"ϥ":372,"ϩ":373,"ϯ":374,"ϰ":375,"Є":376,"І":377,"Ї":378,"А":379,"Б":380,"В":381,"Г":382,"Д":383,"Е":384,"Ж":385,"З":386,"И":387,"Й":388,"К":389,"Л":390,"М":391,"Н":392,"О":393,"П":394,"Р":395,"С":396,"Т":397,"У":398,"Ф":399,"Х":400,"Ц":401,"Ч":402,"Ш":403,"Щ":404,"Ы":405,"Ь":406,"Э":407,"Ю":408,"Я":409,"а":410,"б":411,"в":412,"г":413,"д":414,"е":415,"ж":416,"з":417,"и":418,"й":419,"к":420,"л":421,"м":422,"н":423,"о":424,"п":425,"р":426,"с":427,"т":428,"у":429,"ф":430,"х":431,"ц":432,"ч":433,"ш":434,"щ":435,"ъ":436,"ы":437,"ь":438,"э":439,"ю":440,"я":441,"ё":442,"є":443,"і":444,"ї":445,"ј":446,"ћ":447,"ѝ":448,"ў":449,"џ":450,"ѣ":451,"ѧ":452,"ѫ":453,"Ґ":454,"ґ":455,"қ":456,"Һ":457,"ә":458,"Ա":459,"Գ":460,"Կ":461,"Հ":462,"Մ":463,"Յ":464,"Ն":465,"Չ":466,"Ս":467,"ա":468,"բ":469,"գ":470,"դ":471,"ե":472,"թ":473,"ի":474,"լ":475,"կ":476,"հ":477,"ձ":478,"ղ":479,"մ":480,"յ":481,"ն":482,"ո":483,"տ":484,"ր":485,"ց":486,"ւ":487,"ְ":488,"ֲ":489,"ִ":490,"ֵ":491,"ֶ":492,"ַ":493,"ָ":494,"ֹ":495,"ּ":496,"ׁ":497,"ׂ":498,"׃":499,"ׄ":500,"א":501,"ב":502,"ג":503,"ד":504,"ה":505,"ו":506,"ז":507,"ח":508,"ט":509,"י":510,"ך":511,"כ":512,"ל":513,"ם":514,"מ":515,"ן":516,"נ":517,"ס":518,"ע":519,"ף":520,"פ":521,"צ":522,"ק":523,"ר":524,"ש":525,"ת":526,"،":527,"؛":528,"؟":529,"ء":530,"آ":531,"أ":532,"ؤ":533,"إ":534,"ئ":535,"ا":536,"ب":537,"ة":538,"ت":539,"ث":540,"ج":541,"ح":542,"خ":543,"د":544,"ذ":545,"ر":546,"ز":547,"س":548,"ش":549,"ص":550,"ض":551,"ط":552,"ظ":553,"ع":554,"غ":555,"ـ":556,"ف":557,"ق":558,"ك":559,"ل":560,"م":561,"ن":562,"ه":563,"و":564,"ى":565,"ي":566,"ً":567,"ٌ":568,"ٍ":569,"َ":570,"ُ":571,"ِ":572,"ّ":573,"ْ":574,"ٓ":575,"ٔ":576,"ٕ":577,"٠":578,"١":579,"٢":580,"٣":581,"٤":582,"٥":583,"٦":584,"٧":585,"٨":586,"٩":587,"٪":588,"٫":589,"٬":590,"ٮ":591,"ٰ":592,"ٱ":593,"ٴ":594,"پ":595,"چ":596,"ژ":597,"ڤ":598,"ک":599,"گ":600,"ھ":601,"ۀ":602,"ہ":603,"ی":604,"ە":605,"ۗ":606,"ۚ":607,"ۡ":608,"ۢ":609,"۬":610,"۰":611,"۱":612,"۲":613,"۳":614,"۴":615,"۵":616,"۶":617,"۷":618,"۸":619,"۹":620,"ܐ":621,"ܒ":622,"ܓ":623,"ܕ":624,"ܘ":625,"ܛ":626,"ܝ":627,"ܟ":628,"ܠ":629,"ܡ":630,"ܢ":631,"ܣ":632,"ܥ":633,"ܪ":634,"ܵ":635,"ं":636,"अ":637,"उ":638,"क":639,"ख":640,"ग":641,"ज":642,"ट":643,"त":644,"थ":645,"द":646,"न":647,"प":648,"म":649,"य":650,"र":651,"ल":652,"ळ":653,"व":654,"श":655,"स":656,"ह":657,"ा":658,"ि":659,"ी":660,"े":661,"ै":662,"ो":663,"ौ":664,"्":665,"ং":666,"ই":667,"এ":668,"জ":669,"ত":670,"দ":671,"ন":672,"ব":673,"র":674,"ি":675,"্":676,"ਂ":677,"ਅ":678,"ਆ":679,"ਇ":680,"ਉ":681,"ਕ":682,"ਖ":683,"ਗ":684,"ਘ":685,"ਚ":686,"ਛ":687,"ਜ":688,"ਠ":689,"ਣ":690,"ਤ":691,"ਥ":692,"ਦ":693,"ਨ":694,"ਪ":695,"ਬ":696,"ਭ":697,"ਰ":698,"ਲ":699,"ਵ":700,"ਸ":701,"ਹ":702,"਼":703,"ਾ":704,"ਿ":705,"ੀ":706,"ੁ":707,"ੂ":708,"ੇ":709,"ੈ":710,"ੋ":711,"੍":712,"ੰ":713,"ੱ":714,"க":715,"ங":716,"ச":717,"ட":718,"த":719,"ப":720,"ம":721,"ய":722,"ர":723,"ல":724,"ி":725,"ு":726,"ூ":727,"ோ":728,"்":729,"ก":730,"ง":731,"ซ":732,"ญ":733,"ฏ":734,"ณ":735,"ด":736,"ต":737,"ท":738,"ธ":739,"น":740,"ป":741,"พ":742,"ม":743,"ย":744,"ร":745,"ล":746,"ว":747,"ห":748,"อ":749,"ะ":750,"ั":751,"า":752,"ิ":753,"ี":754,"ุ":755,"เ":756,"แ":757,"โ":758,"ใ":759,"ไ":760,"่":761,"้":762,"་":763,"ཀ":764,"ག":765,"ང":766,"ད":767,"ན":768,"བ":769,"ཚ":770,"ཞ":771,"ར":772,"ཥ":773,"ས":774,"ི":775,"ུ":776,"ེ":777,"ོ":778,"ྗ":779,"ྟ":780,"ྡ":781,"ྨ":782,"ྲ":783,"ླ":784,"က":785,"ခ":786,"ဂ":787,"င":788,"စ":789,"ဆ":790,"ည":791,"တ":792,"ထ":793,"န":794,"ပ":795,"ဖ":796,"ဘ":797,"မ":798,"ယ":799,"ရ":800,"လ":801,"ဝ":802,"သ":803,"ဟ":804,"အ":805,"ဦ":806,"ါ":807,"ာ":808,"ိ":809,"ီ":810,"ု":811,"ူ":812,"ေ":813,"ဲ":814,"ံ":815,"့":816,"း":817,"္":818,"်":819,"ျ":820,"ြ":821,"ွ":822,"ှ":823,"၊":824,"။":825,"ა":826,"ბ":827,"გ":828,"დ":829,"ე":830,"ვ":831,"თ":832,"ი":833,"კ":834,"ლ":835,"მ":836,"ნ":837,"ო":838,"რ":839,"ს":840,"ტ":841,"უ":842,"ყ":843,"შ":844,"ჭ":845,"ხ":846,"ል":847,"ሥ":848,"ራ":849,"ስ":850,"ቢ":851,"ቤ":852,"ተ":853,"አ":854,"ኤ":855,"እ":856,"ᴬ":857,"ᴮ":858,"ᴵ":859,"ᴷ":860,"ᴹ":861,"ᴿ":862,"ᵀ":863,"ᵁ":864,"ᵃ":865,"ᵈ":866,"ᵉ":867,"ᵍ":868,"ᵐ":869,"ᵒ":870,"ᵗ":871,"ᵘ":872,"ᵢ":873,"ᵥ":874,"ᶜ":875,"ḍ":876,"Ḏ":877,"Ḡ":878,"Ḥ":879,"ḥ":880,"Ḫ":881,"ḫ":882,"ṁ":883,"ṃ":884,"ṅ":885,"Ṇ":886,"ṇ":887,"ṛ":888,"ṡ":889,"Ṣ":890,"ṣ":891,"Ṭ":892,"ṭ":893,"ṯ":894,"ẏ":895,"ạ":896,"ả":897,"ầ":898,"ậ":899,"ắ":900,"ẵ":901,"ẽ":902,"ế":903,"ề":904,"ễ":905,"ệ":906,"ị":907,"ọ":908,"ố":909,"ồ":910,"ộ":911,"ớ":912,"ờ":913,"Ở":914,"ủ":915,"ứ":916,"ừ":917,"ữ":918,"ự":919,"ỳ":920,"ỹ":921,"ἀ":922,"ἁ":923,"ἄ":924,"Ἀ":925,"Ἁ":926,"Ἄ":927,"Ἅ":928,"ἐ":929,"ἔ":930,"Ἐ":931,"Ἑ":932,"ἠ":933,"Ἠ":934,"ἰ":935,"ἱ":936,"ἶ":937,"Ἰ":938,"Ἳ":939,"Ἴ":940,"Ἵ":941,"ὁ":942,"ὄ":943,"ὐ":944,"ὰ":945,"ὲ":946,"ὴ":947,"ὶ":948,"ὸ":949,"ὼ":950,"ᾶ":951,"ῆ":952,"ῖ":953,"ῦ":954,"ῳ":955,"ῶ":956,"​":957,"‌":958,"‍":959,"‎":960,"‏":961,"‐":962,"‑":963,"‒":964,"–":965,"—":966,"―":967,"‖":968,"‘":969,"’":970,"‚":971,"“":972,"”":973,"„":974,"‟":975,"†":976,"•":977,"․":978,"…":979,"‧":980,"‰":981,"′":982,"″":983,"‹":984,"›":985,"※":986,"⁄":987,"⁰":988,"ⁱ":989,"⁴":990,"⁵":991,"⁶":992,"⁷":993,"⁸":994,"⁹":995,"⁺":996,"⁻":997,"ⁿ":998,"₀":999,"₁":1000,"₂":1001,"₃":1002,"₄":1003,"₅":1004,"₆":1005,"₇":1006,"₈":1007,"₉":1008,"₋":1009,"ₑ":1010,"ₓ":1011,"ₕ":1012,"ₘ":1013,"ₙ":1014,"ₚ":1015,"ₛ":1016,"₣":1017,"₤":1018,"₧":1019,"₨":1020,"€":1021,"₹":1022,"℃":1023,"ℓ":1024,"№":1025,"™":1026,"⅓":1027,"⅔":1028,"⅛":1029,"Ⅰ":1030,"Ⅱ":1031,"Ⅲ":1032,"Ⅳ":1033,"Ⅴ":1034,"Ⅵ":1035,"Ⅶ":1036,"Ⅷ":1037,"Ⅸ":1038,"←":1039,"↑":1040,"→":1041,"↓":1042,"↔":1043,"↦":1044,"⇒":1045,"∀":1046,"∆":1047,"∈":1048,"−":1049,"∘":1050,"√":1051,"∞":1052,"∧":1053,"∩":1054,"∪":1055,"∼":1056,"≅":1057,"≈":1058,"≠":1059,"≡":1060,"≤":1061,"≥":1062,"≪":1063,"≫":1064,"⊕":1065,"⊗":1066,"⊙":1067,"⋅":1068,"①":1069,"②":1070,"③":1071,"④":1072,"⑤":1073,"⑥":1074,"⑦":1075,"⑰":1076,"─":1077,"│":1078,"└":1079,"■":1080,"□":1081,"▪":1082,"◆":1083,"◇":1084,"○":1085,"◌":1086,"●":1087,"★":1088,"☆":1089,"♀":1090,"♂":1091,"♠":1092,"♡":1093,"♣":1094,"♦":1095,"⟨":1096,"⟩":1097,"⟪":1098,"⟫":1099,"ⲁ":1100,"ⲃ":1101,"ⲏ":1102,"ⲓ":1103,"ⲙ":1104,"ⲛ":1105,"ⲡ":1106,"ⲣ":1107,"ⲧ":1108,"ⲩ":1109,"ⲱ":1110,"、":1111,"。":1112,"々":1113,"〇":1114,"〈":1115,"〉":1116,"《":1117,"》":1118,"「":1119,"」":1120,"『":1121,"』":1122,"【":1123,"】":1124,"〓":1125,"〔":1126,"〕":1127,"〜":1128,"ぁ":1129,"あ":1130,"い":1131,"う":1132,"え":1133,"お":1134,"か":1135,"が":1136,"き":1137,"ぎ":1138,"く":1139,"ぐ":1140,"け":1141,"げ":1142,"こ":1143,"ご":1144,"さ":1145,"ざ":1146,"し":1147,"じ":1148,"す":1149,"ず":1150,"せ":1151,"ぜ":1152,"そ":1153,"ぞ":1154,"た":1155,"だ":1156,"ち":1157,"ぢ":1158,"っ":1159,"つ":1160,"づ":1161,"て":1162,"で":1163,"と":1164,"ど":1165,"な":1166,"に":1167,"ぬ":1168,"ね":1169,"の":1170,"は":1171,"ば":1172,"ぱ":1173,"ひ":1174,"び":1175,"ぴ":1176,"ふ":1177,"ぶ":1178,"ぷ":1179,"へ":1180,"べ":1181,"ぺ":1182,"ほ":1183,"ぼ":1184,"ぽ":1185,"ま":1186,"み":1187,"む":1188,"め":1189,"も":1190,"ゃ":1191,"や":1192,"ゅ":1193,"ゆ":1194,"ょ":1195,"よ":1196,"ら":1197,"り":1198,"る":1199,"れ":1200,"ろ":1201,"わ":1202,"を":1203,"ん":1204,"゛":1205,"ァ":1206,"ア":1207,"ィ":1208,"イ":1209,"ゥ":1210,"ウ":1211,"ェ":1212,"エ":1213,"ォ":1214,"オ":1215,"カ":1216,"ガ":1217,"キ":1218,"ギ":1219,"ク":1220,"グ":1221,"ケ":1222,"ゲ":1223,"コ":1224,"ゴ":1225,"サ":1226,"ザ":1227,"シ":1228,"ジ":1229,"ス":1230,"ズ":1231,"セ":1232,"ゼ":1233,"ソ":1234,"ゾ":1235,"タ":1236,"ダ":1237,"チ":1238,"ヂ":1239,"ッ":1240,"ツ":1241,"ヅ":1242,"テ":1243,"デ":1244,"ト":1245,"ド":1246,"ナ":1247,"ニ":1248,"ヌ":1249,"ネ":1250,"ノ":1251,"ハ":1252,"バ":1253,"パ":1254,"ヒ":1255,"ビ":1256,"ピ":1257,"フ":1258,"ブ":1259,"プ":1260,"ヘ":1261,"ベ":1262,"ペ":1263,"ホ":1264,"ボ":1265,"ポ":1266,"マ":1267,"ミ":1268,"ム":1269,"メ":1270,"モ":1271,"ャ":1272,"ヤ":1273,"ュ":1274,"ユ":1275,"ョ":1276,"ヨ":1277,"ラ":1278,"リ":1279,"ル":1280,"レ":1281,"ロ":1282,"ワ":1283,"ヰ":1284,"ヱ":1285,"ヲ":1286,"ン":1287,"ヴ":1288,"ヵ":1289,"ヶ":1290,"・":1291,"ー":1292,"ㄆ":1293,"ㄌ":1294,"ㄐ":1295,"ㄑ":1296,"ㄒ":1297,"ㄓ":1298,"ㄗ":1299,"ㄘ":1300,"ㄙ":1301,"ㄚ":1302,"ㄟ":1303,"ㄢ":1304,"ㄣ":1305,"ㄧ":1306,"ㄨ":1307,"ㄩ":1308,"ㅠ":1309,"ㅡ":1310,"ㅣ":1311,"ㆍ":1312,"㎒":1313,"㎛":1314,"䃅":1315,"䜣":1316,"䮖":1317,"䴉":1318,"一":1319,"丁":1320,"七":1321,"万":1322,"丈":1323,"三":1324,"上":1325,"下":1326,"不":1327,"与":1328,"丐":1329,"丑":1330,"专":1331,"且":1332,"丕":1333,"世":1334,"丘":1335,"丙":1336,"业":1337,"丛":1338,"东":1339,"丝":1340,"丞":1341,"丟":1342,"両":1343,"丢":1344,"两":1345,"严":1346,"並":1347,"丧":1348,"个":1349,"丫":1350,"中":1351,"丰":1352,"串":1353,"临":1354,"丸":1355,"丹":1356,"为":1357,"主":1358,"丽":1359,"举":1360,"乂":1361,"乃":1362,"久":1363,"么":1364,"义":1365,"之":1366,"乌":1367,"乍":1368,"乎":1369,"乏":1370,"乐":1371,"乒":1372,"乓":1373,"乔":1374,"乖":1375,"乗":1376,"乘":1377,"乙":1378,"九":1379,"乞":1380,"也":1381,"习":1382,"乡":1383,"书":1384,"乩":1385,"买":1386,"乱":1387,"乳":1388,"乾":1389,"亀":1390,"亂":1391,"了":1392,"予":1393,"争":1394,"事":1395,"二":1396,"于":1397,"亏":1398,"云":1399,"互":1400,"五":1401,"井":1402,"亘":1403,"亚":1404,"些":1405,"亜":1406,"亞":1407,"亟":1408,"亡":1409,"亢":1410,"交":1411,"亥":1412,"亦":1413,"产":1414,"亨":1415,"亩":1416,"享":1417,"京":1418,"亭":1419,"亮":1420,"亲":1421,"亳":1422,"亵":1423,"亶":1424,"人":1425,"亿":1426,"什":1427,"仁":1428,"仄":1429,"仅":1430,"仆":1431,"仇":1432,"今":1433,"介":1434,"仍":1435,"从":1436,"仏":1437,"仑":1438,"仓":1439,"仔":1440,"仕":1441,"他":1442,"仗":1443,"付":1444,"仙":1445,"仝":1446,"仞":1447,"代":1448,"令":1449,"以":1450,"仨":1451,"仪":1452,"们":1453,"仮":1454,"仰":1455,"仲":1456,"件":1457,"价":1458,"任":1459,"份":1460,"仿":1461,"企":1462,"伉":1463,"伊":1464,"伍":1465,"伎":1466,"伏":1467,"伐":1468,"休":1469,"众":1470,"优":1471,"伙":1472,"会":1473,"伝":1474,"伞":1475,"伟":1476,"传":1477,"伤":1478,"伦":1479,"伪":1480,"伯":1481,"估":1482,"伴":1483,"伶":1484,"伷":1485,"伸":1486,"伺":1487,"似":1488,"伽":1489,"佃":1490,"但":1491,"佈":1492,"位":1493,"低":1494,"住":1495,"佐":1496,"佑":1497,"体":1498,"佔":1499,"何":1500,"佘":1501,"余":1502,"佚":1503,"佛":1504,"作":1505,"佞":1506,"佟":1507,"你":1508,"佢":1509,"佣":1510,"佩":1511,"佬":1512,"佯":1513,"佳":1514,"併":1515,"佶":1516,"佺":1517,"佻":1518,"佼":1519,"使":1520,"侃":1521,"侄":1522,"來":1523,"侈":1524,"例":1525,"侍":1526,"侏":1527,"侑":1528,"侗":1529,"供":1530,"依":1531,"侠":1532,"価":1533,"侣":1534,"侦":1535,"侧":1536,"侨":1537,"侪":1538,"侬":1539,"侮":1540,"侯":1541,"侵":1542,"侶":1543,"便":1544,"係":1545,"促":1546,"俄":1547,"俊":1548,"俋":1549,"俏":1550,"俐":1551,"俑":1552,"俗":1553,"俘":1554,"俚":1555,"保":1556,"俞":1557,"俟":1558,"俠":1559,"信":1560,"俣":1561,"俦":1562,"俨":1563,"俩":1564,"俪":1565,"俭":1566,"修":1567,"俯":1568,"俱":1569,"俳":1570,"俵":1571,"俶":1572,"俸":1573,"俺":1574,"俾":1575,"倆":1576,"倉":1577,"個":1578,"倌":1579,"倍":1580,"們":1581,"倒":1582,"倔":1583,"倖":1584,"倘":1585,"候":1586,"倚":1587,"借":1588,"倡":1589,"倣":1590,"値":1591,"倦":1592,"倨":1593,"倩":1594,"倪":1595,"倫":1596,"倭":1597,"倶":1598,"债":1599,"值":1600,"倾":1601,"偃":1602,"假":1603,"偈":1604,"偉":1605,"偏":1606,"偕":1607,"做":1608,"停":1609,"健":1610,"偪":1611,"偰":1612,"偲":1613,"側":1614,"偵":1615,"偶":1616,"偷":1617,"偽":1618,"偾":1619,"偿":1620,"傀":1621,"傅":1622,"傈":1623,"傍":1624,"傑":1625,"傕":1626,"傘":1627,"備":1628,"傢":1629,"傣":1630,"储":1631,"催":1632,"傭":1633,"傲":1634,"傳":1635,"債":1636,"傷":1637,"傻":1638,"傾":1639,"僅":1640,"僉":1641,"働":1642,"像":1643,"僑":1644,"僔":1645,"僕":1646,"僖":1647,"僚":1648,"僞":1649,"僣":1650,"僧":1651,"僭":1652,"僮":1653,"僱":1654,"僳":1655,"僵":1656,"價":1657,"僻":1658,"儀":1659,"儁":1660,"儂":1661,"億":1662,"儉":1663,"儋":1664,"儒":1665,"儘":1666,"儚":1667,"償":1668,"儡":1669,"優":1670,"儲":1671,"儸":1672,"儺":1673,"儿":1674,"兀":1675,"允":1676,"元":1677,"兄":1678,"充":1679,"兆":1680,"兇":1681,"先":1682,"光":1683,"克":1684,"兌":1685,"免":1686,"児":1687,"兑":1688,"兒":1689,"兔":1690,"兖":1691,"党":1692,"兜":1693,"兢":1694,"入":1695,"內":1696,"全":1697,"兩":1698,"八":1699,"公":1700,"六":1701,"兮":1702,"兰":1703,"共":1704,"关":1705,"兴":1706,"兵":1707,"其":1708,"具":1709,"典":1710,"兹":1711,"养":1712,"兼":1713,"兽":1714,"冀":1715,"内":1716,"円":1717,"冇":1718,"冈":1719,"冉":1720,"冊":1721,"册":1722,"再":1723,"冒":1724,"冕":1725,"冗":1726,"写":1727,"军":1728,"农":1729,"冠":1730,"冢":1731,"冤":1732,"冥":1733,"冧":1734,"冨":1735,"冬":1736,"冯":1737,"冰":1738,"冲":1739,"决":1740,"冴":1741,"况":1742,"冶":1743,"冷":1744,"冻":1745,"冼":1746,"净":1747,"凃":1748,"凄":1749,"准":1750,"凉":1751,"凋":1752,"凌":1753,"凍":1754,"减":1755,"凑":1756,"凛":1757,"凝":1758,"几":1759,"凡":1760,"凤":1761,"処":1762,"凭":1763,"凯":1764,"凰":1765,"凱":1766,"凳":1767,"凶":1768,"凸":1769,"凹":1770,"出":1771,"击":1772,"凼":1773,"函":1774,"凿":1775,"刀":1776,"刁":1777,"刃":1778,"分":1779,"切":1780,"刈":1781,"刊":1782,"刎":1783,"刑":1784,"划":1785,"列":1786,"刘":1787,"则":1788,"刚":1789,"创":1790,"初":1791,"删":1792,"判":1793,"別":1794,"刨":1795,"利":1796,"刪":1797,"别":1798,"刮":1799,"到":1800,"制":1801,"刷":1802,"券":1803,"刹":1804,"刺":1805,"刻":1806,"刽":1807,"剁":1808,"剂":1809,"剃":1810,"則":1811,"削":1812,"剌":1813,"前":1814,"剎":1815,"剑":1816,"剔":1817,"剖":1818,"剛":1819,"剜":1820,"剝":1821,"剣":1822,"剤":1823,"剥":1824,"剧":1825,"剩":1826,"剪":1827,"副":1828,"剰":1829,"割":1830,"創":1831,"剽":1832,"剿":1833,"劃":1834,"劇":1835,"劈":1836,"劉":1837,"劍":1838,"劑":1839,"力":1840,"劝":1841,"办":1842,"功":1843,"加":1844,"务":1845,"劢":1846,"劣":1847,"动":1848,"助":1849,"努":1850,"劫":1851,"劭":1852,"励":1853,"劲":1854,"劳":1855,"労":1856,"効":1857,"劾":1858,"势":1859,"勁":1860,"勃":1861,"勅":1862,"勇":1863,"勉":1864,"勋":1865,"勍":1866,"勐":1867,"勒":1868,"動":1869,"勖":1870,"勗":1871,"勘":1872,"務":1873,"勛":1874,"勝":1875,"勞":1876,"募":1877,"勢":1878,"勤":1879,"勧":1880,"勰":1881,"勲":1882,"勳":1883,"勵":1884,"勸":1885,"勺":1886,"勻":1887,"勾":1888,"勿":1889,"匀":1890,"匂":1891,"包":1892,"匆":1893,"匈":1894,"匍":1895,"匏":1896,"匐":1897,"匕":1898,"化":1899,"北":1900,"匙":1901,"匠":1902,"匡":1903,"匣":1904,"匪":1905,"匮":1906,"匯":1907,"匹":1908,"区":1909,"医":1910,"匾":1911,"匿":1912,"區":1913,"十":1914,"千":1915,"卅":1916,"升":1917,"午":1918,"卉":1919,"半":1920,"卌":1921,"华":1922,"协":1923,"卐":1924,"卑":1925,"卒":1926,"卓":1927,"協":1928,"单":1929,"卖":1930,"南":1931,"単":1932,"博":1933,"卜":1934,"卞":1935,"占":1936,"卡":1937,"卢":1938,"卣":1939,"卤":1940,"卦":1941,"卧":1942,"卫":1943,"卯":1944,"印":1945,"危":1946,"即":1947,"却":1948,"卵":1949,"卷":1950,"卸":1951,"卻":1952,"卽":1953,"卿":1954,"厂":1955,"厄":1956,"厅":1957,"历":1958,"厉":1959,"压":1960,"厌":1961,"厍":1962,"厕":1963,"厖":1964,"厘":1965,"厚":1966,"厝":1967,"原":1968,"厢":1969,"厥":1970,"厦":1971,"厨":1972,"厭":1973,"厮":1974,"厲":1975,"厳":1976,"去":1977,"县":1978,"参":1979,"參":1980,"又":1981,"叉":1982,"及":1983,"友":1984,"双":1985,"反":1986,"収":1987,"发":1988,"叔":1989,"取":1990,"受":1991,"变":1992,"叙":1993,"叛":1994,"叟":1995,"叠":1996,"叡":1997,"叢":1998,"口":1999,"古":2000,"句":2001,"另":2002,"叨":2003,"叩":2004,"只":2005,"叫":2006,"召":2007,"叭":2008,"叮":2009,"可":2010,"台":2011,"叱":2012,"史":2013,"右":2014,"叵":2015,"叶":2016,"号":2017,"司":2018,"叹":2019,"吁":2020,"吃":2021,"各":2022,"合":2023,"吉":2024,"吊":2025,"吋":2026,"同":2027,"名":2028,"后":2029,"吏":2030,"吐":2031,"向":2032,"吒":2033,"吓":2034,"吕":2035,"吗":2036,"君":2037,"吞":2038,"吟":2039,"吠":2040,"吡":2041,"否":2042,"吧":2043,"吨":2044,"吩":2045,"含":2046,"听":2047,"吮":2048,"启":2049,"吳":2050,"吴":2051,"吵":2052,"吶":2053,"吸":2054,"吹":2055,"吻":2056,"吼":2057,"吽":2058,"吾":2059,"呀":2060,"呂":2061,"呆":2062,"呈":2063,"呉":2064,"告":2065,"呎":2066,"呐":2067,"呑":2068,"呕":2069,"员":2070,"呛":2071,"呜":2072,"呢":2073,"呣":2074,"呤":2075,"周":2076,"呪":2077,"味":2078,"呵":2079,"呻":2080,"呼":2081,"命":2082,"呾":2083,"咀":2084,"咁":2085,"咄":2086,"咆":2087,"咋":2088,"和":2089,"咎":2090,"咏":2091,"咐":2092,"咒":2093,"咕":2094,"咖":2095,"咗":2096,"咙":2097,"咛":2098,"咤":2099,"咨":2100,"咩":2101,"咪":2102,"咫":2103,"咬":2104,"咭":2105,"咱":2106,"咲":2107,"咳":2108,"咷":2109,"咸":2110,"咽":2111,"哀":2112,"品":2113,"哄":2114,"哆":2115,"哇":2116,"哈":2117,"哉":2118,"哋":2119,"响":2120,"哏":2121,"哑":2122,"哔":2123,"哗":2124,"哙":2125,"哝":2126,"哟":2127,"員":2128,"哥":2129,"哦":2130,"哨":2131,"哩":2132,"哪":2133,"哭":2134,"哮":2135,"哲":2136,"哷":2137,"哺":2138,"哼":2139,"哽":2140,"唁":2141,"唆":2142,"唇":2143,"唉":2144,"唐":2145,"唔":2146,"唖":2147,"唠":2148,"唢":2149,"唤":2150,"售":2151,"唯":2152,"唱":2153,"唷":2154,"唸":2155,"唾":2156,"啃":2157,"啄":2158,"商":2159,"啊":2160,"問":2161,"啓":2162,"啖":2163,"啞":2164,"啟":2165,"啡":2166,"啤":2167,"啥":2168,"啦":2169,"啧":2170,"啬":2171,"啮":2172,"啰":2173,"啲":2174,"啶":2175,"啸":2176,"啻":2177,"啼":2178,"喀":2179,"喂":2180,"善":2181,"喆":2182,"喇":2183,"喉":2184,"喊":2185,"喋":2186,"喑":2187,"喘":2188,"喙":2189,"喚":2190,"喜":2191,"喝":2192,"喧":2193,"喪":2194,"喫":2195,"喬":2196,"單":2197,"喰":2198,"喱":2199,"喲":2200,"喵":2201,"営":2202,"喷":2203,"喻":2204,"喾":2205,"嗅":2206,"嗆":2207,"嗎":2208,"嗓":2209,"嗔":2210,"嗜":2211,"嗟":2212,"嗣":2213,"嗤":2214,"嗦":2215,"嗨":2216,"嗪":2217,"嗰":2218,"嗽":2219,"嘆":2220,"嘉":2221,"嘌":2222,"嘔":2223,"嘗":2224,"嘘":2225,"嘛":2226,"嘟":2227,"嘧":2228,"嘩":2229,"嘯":2230,"嘱":2231,"嘲":2232,"嘴":2233,"嘶":2234,"嘻":2235,"噂":2236,"噎":2237,"噛":2238,"噜":2239,"噤":2240,"器":2241,"噩":2242,"噪":2243,"噬":2244,"噱":2245,"噴":2246,"噶":2247,"噸":2248,"嚆":2249,"嚇":2250,"嚎":2251,"嚏":2252,"嚟":2253,"嚣":2254,"嚥":2255,"嚮":2256,"嚴":2257,"嚷":2258,"嚼":2259,"囂":2260,"囃":2261,"囊":2262,"囍":2263,"囑":2264,"囚":2265,"四":2266,"回":2267,"因":2268,"团":2269,"団":2270,"囪":2271,"园":2272,"困":2273,"囱":2274,"囲":2275,"図":2276,"围":2277,"囹":2278,"固":2279,"国":2280,"图":2281,"囿":2282,"圀":2283,"圃":2284,"圄":2285,"圆":2286,"圈":2287,"國":2288,"圍":2289,"圏":2290,"園":2291,"圓":2292,"圖":2293,"團":2294,"圜":2295,"土":2296,"圣":2297,"圧":2298,"在":2299,"圩":2300,"圭":2301,"圯":2302,"地":2303,"圳":2304,"场":2305,"圾":2306,"址":2307,"坂":2308,"均":2309,"坊":2310,"坍":2311,"坎":2312,"坏":2313,"坐":2314,"坑":2315,"块":2316,"坚":2317,"坛":2318,"坝":2319,"坞":2320,"坟":2321,"坠":2322,"坡":2323,"坤":2324,"坦":2325,"坨":2326,"坩":2327,"坪":2328,"坭":2329,"坳":2330,"坷":2331,"坻":2332,"坼":2333,"垂":2334,"垃":2335,"垄":2336,"垅":2337,"型":2338,"垒":2339,"垓":2340,"垛":2341,"垟":2342,"垠":2343,"垣":2344,"垦":2345,"垩":2346,"垫":2347,"垭":2348,"垮":2349,"埃":2350,"埇":2351,"埋":2352,"城":2353,"埔":2354,"埕":2355,"埗":2356,"埚":2357,"域":2358,"埠":2359,"埤":2360,"埭":2361,"執":2362,"埸":2363,"培":2364,"基":2365,"埼":2366,"堀":2367,"堂":2368,"堃":2369,"堅":2370,"堆":2371,"堊":2372,"堍":2373,"堑":2374,"堔":2375,"堕":2376,"堝":2377,"堞":2378,"堡":2379,"堤":2380,"堪":2381,"堯":2382,"堰":2383,"報":2384,"場":2385,"堵":2386,"堺":2387,"塀":2388,"塁":2389,"塊":2390,"塌":2391,"塍":2392,"塑":2393,"塔":2394,"塗":2395,"塘":2396,"塙":2397,"塚":2398,"塞":2399,"塢":2400,"塩":2401,"填":2402,"塱":2403,"塵":2404,"塽":2405,"塾":2406,"境":2407,"墅":2408,"墊":2409,"墓":2410,"増":2411,"墙":2412,"墜":2413,"增":2414,"墟":2415,"墣":2416,"墨":2417,"墩":2418,"墮":2419,"墳":2420,"墾":2421,"壁":2422,"壆":2423,"壇":2424,"壊":2425,"壌":2426,"壎":2427,"壑":2428,"壓":2429,"壕":2430,"壘":2431,"壞":2432,"壟":2433,"壠":2434,"壢":2435,"壤":2436,"壩":2437,"士":2438,"壬":2439,"壮":2440,"壯":2441,"声":2442,"売":2443,"壳":2444,"壶":2445,"壸":2446,"壹":2447,"壺":2448,"壽":2449,"处":2450,"备":2451,"変":2452,"复":2453,"夏":2454,"夔":2455,"夕":2456,"外":2457,"夙":2458,"多":2459,"夜":2460,"够":2461,"夠":2462,"夢":2463,"夥":2464,"大":2465,"天":2466,"太":2467,"夫":2468,"夭":2469,"央":2470,"夯":2471,"失":2472,"头":2473,"夷":2474,"夸":2475,"夹":2476,"夺":2477,"夾":2478,"奂":2479,"奄":2480,"奇":2481,"奈":2482,"奉":2483,"奋":2484,"奎":2485,"奏":2486,"契":2487,"奔":2488,"奕":2489,"奖":2490,"套":2491,"奘":2492,"奚":2493,"奠":2494,"奢":2495,"奥":2496,"奧":2497,"奨":2498,"奩":2499,"奪":2500,"奬":2501,"奭":2502,"奮":2503,"女":2504,"奴":2505,"奶":2506,"奸":2507,"她":2508,"好":2509,"如":2510,"妃":2511,"妄":2512,"妆":2513,"妇":2514,"妈":2515,"妊":2516,"妍":2517,"妒":2518,"妓":2519,"妖":2520,"妙":2521,"妝":2522,"妞":2523,"妣":2524,"妤":2525,"妥":2526,"妨":2527,"妬":2528,"妮":2529,"妯":2530,"妲":2531,"妹":2532,"妻":2533,"妾":2534,"姆":2535,"姉":2536,"姊":2537,"始":2538,"姐":2539,"姑":2540,"姒":2541,"姓":2542,"委":2543,"姗":2544,"姘":2545,"姚":2546,"姜":2547,"姥":2548,"姦":2549,"姨":2550,"姪":2551,"姫":2552,"姬":2553,"姻":2554,"姿":2555,"威":2556,"娃":2557,"娄":2558,"娅":2559,"娇":2560,"娌":2561,"娑":2562,"娘":2563,"娛":2564,"娜":2565,"娟":2566,"娠":2567,"娥":2568,"娩":2569,"娯":2570,"娱":2571,"娲":2572,"娴":2573,"娶":2574,"娼":2575,"婁":2576,"婆":2577,"婉":2578,"婊":2579,"婕":2580,"婚":2581,"婢":2582,"婦":2583,"婪":2584,"婭":2585,"婴":2586,"婶":2587,"婷":2588,"婺":2589,"婿":2590,"媒":2591,"媚":2592,"媛":2593,"媞":2594,"媲":2595,"媳":2596,"媵":2597,"媽":2598,"媾":2599,"嫁":2600,"嫂":2601,"嫄":2602,"嫉":2603,"嫌":2604,"嫔":2605,"嫖":2606,"嫗":2607,"嫡":2608,"嫦":2609,"嫩":2610,"嫺":2611,"嬅":2612,"嬉":2613,"嬌":2614,"嬙":2615,"嬪":2616,"嬰":2617,"嬴":2618,"嬸":2619,"孀":2620,"孁":2621,"子":2622,"孑":2623,"孓":2624,"孔":2625,"孕":2626,"孖":2627,"字":2628,"存":2629,"孙":2630,"孚":2631,"孛":2632,"孜":2633,"孝":2634,"孟":2635,"孢":2636,"季":2637,"孤":2638,"学":2639,"孩":2640,"孪":2641,"孫":2642,"孬":2643,"孰":2644,"孳":2645,"孵":2646,"學":2647,"孺":2648,"孽":2649,"宁":2650,"它":2651,"宅":2652,"宇":2653,"守":2654,"安":2655,"宋":2656,"完":2657,"宏":2658,"宓":2659,"宕":2660,"宗":2661,"官":2662,"宙":2663,"定":2664,"宛":2665,"宜":2666,"宝":2667,"实":2668,"実":2669,"宠":2670,"审":2671,"客":2672,"宣":2673,"室":2674,"宥":2675,"宦":2676,"宪":2677,"宫":2678,"宮":2679,"宰":2680,"害":2681,"宴":2682,"宵":2683,"家":2684,"宸":2685,"容":2686,"宽":2687,"宾":2688,"宿":2689,"寂":2690,"寄":2691,"寅":2692,"密":2693,"寇":2694,"富":2695,"寐":2696,"寒":2697,"寓":2698,"寛":2699,"寝":2700,"寞":2701,"察":2702,"寡":2703,"寢":2704,"寥":2705,"實":2706,"寧":2707,"寨":2708,"審":2709,"寫":2710,"寬":2711,"寮":2712,"寰":2713,"寵":2714,"寶":2715,"寸":2716,"对":2717,"寺":2718,"寻":2719,"导":2720,"対":2721,"寿":2722,"封":2723,"専":2724,"射":2725,"将":2726,"將":2727,"專":2728,"尉":2729,"尊":2730,"尋":2731,"對":2732,"導":2733,"小":2734,"少":2735,"尔":2736,"尖":2737,"尘":2738,"尙":2739,"尚":2740,"尝":2741,"尢":2742,"尤":2743,"尧":2744,"尬":2745,"尭":2746,"就":2747,"尴":2748,"尷":2749,"尸":2750,"尹":2751,"尺":2752,"尻":2753,"尼":2754,"尽":2755,"尾":2756,"尿":2757,"局":2758,"屁":2759,"层":2760,"居":2761,"屆":2762,"屇":2763,"屈":2764,"屉":2765,"届":2766,"屋":2767,"屍":2768,"屎":2769,"屏":2770,"屑":2771,"展":2772,"属":2773,"屠":2774,"屡":2775,"屢":2776,"層":2777,"履":2778,"屬":2779,"屯":2780,"山":2781,"屹":2782,"屺":2783,"屿":2784,"岁":2785,"岂":2786,"岌":2787,"岐":2788,"岑":2789,"岔":2790,"岖":2791,"岗":2792,"岚":2793,"岛":2794,"岠":2795,"岡":2796,"岩":2797,"岫":2798,"岬":2799,"岭":2800,"岱":2801,"岳":2802,"岵":2803,"岷":2804,"岸":2805,"岹":2806,"岿":2807,"峄":2808,"峇":2809,"峋":2810,"峙":2811,"峠":2812,"峡":2813,"峥":2814,"峦":2815,"峨":2816,"峪":2817,"峭":2818,"峯":2819,"峰":2820,"島":2821,"峻":2822,"峽":2823,"崁":2824,"崂":2825,"崇":2826,"崋":2827,"崎":2828,"崐":2829,"崑":2830,"崔":2831,"崖":2832,"崗":2833,"崙":2834,"崛":2835,"崤":2836,"崧":2837,"崩":2838,"崭":2839,"崮":2840,"崴":2841,"崽":2842,"嵇":2843,"嵊":2844,"嵌":2845,"嵐":2846,"嵘":2847,"嵙":2848,"嵛":2849,"嵩":2850,"嵯":2851,"嶄":2852,"嶇":2853,"嶋":2854,"嶌":2855,"嶙":2856,"嶝":2857,"嶠":2858,"嶲":2859,"嶴":2860,"嶷":2861,"嶺":2862,"嶼":2863,"嶽":2864,"巃":2865,"巅":2866,"巍":2867,"巔":2868,"巖":2869,"川":2870,"州":2871,"巡":2872,"巢":2873,"巣":2874,"工":2875,"左":2876,"巧":2877,"巨":2878,"巩":2879,"巫":2880,"差":2881,"己":2882,"已":2883,"巳":2884,"巴":2885,"巷":2886,"巹":2887,"巻":2888,"巽":2889,"巾":2890,"巿":2891,"币":2892,"市":2893,"布":2894,"帅":2895,"帆":2896,"师":2897,"希":2898,"帏":2899,"帐":2900,"帑":2901,"帕":2902,"帖":2903,"帘":2904,"帚":2905,"帛":2906,"帜":2907,"帝":2908,"帥":2909,"带":2910,"帧":2911,"師":2912,"席":2913,"帮":2914,"帯":2915,"帰":2916,"帳":2917,"帶":2918,"帷":2919,"常":2920,"帻":2921,"帽":2922,"幅":2923,"幇":2924,"幌":2925,"幔":2926,"幕":2927,"幟":2928,"幡":2929,"幢":2930,"幣":2931,"幫":2932,"干":2933,"平":2934,"年":2935,"并":2936,"幷":2937,"幸":2938,"幹":2939,"幻":2940,"幼":2941,"幽":2942,"幾":2943,"广":2944,"庁":2945,"広":2946,"庄":2947,"庆":2948,"庇":2949,"床":2950,"序":2951,"庐":2952,"庑":2953,"库":2954,"应":2955,"底":2956,"店":2957,"庙":2958,"庚":2959,"府":2960,"庞":2961,"废":2962,"度":2963,"座":2964,"庫":2965,"庭":2966,"庳":2967,"庵":2968,"庶":2969,"康":2970,"庸":2971,"庹":2972,"庾":2973,"廁":2974,"廂":2975,"廃":2976,"廄":2977,"廆":2978,"廈":2979,"廉":2980,"廊":2981,"廍":2982,"廓":2983,"廖":2984,"廙":2985,"廚":2986,"廝":2987,"廟":2988,"廠":2989,"廢":2990,"廣":2991,"廪":2992,"廬":2993,"廳":2994,"延":2995,"廷":2996,"廸":2997,"建":2998,"廻":2999,"廼":3000,"廿":3001,"开":3002,"弁":3003,"异":3004,"弃":3005,"弄":3006,"弈":3007,"弊":3008,"弋":3009,"式":3010,"弐":3011,"弑":3012,"弓":3013,"弔":3014,"引":3015,"弗":3016,"弘":3017,"弛":3018,"弝":3019,"弟":3020,"张":3021,"弥":3022,"弦":3023,"弧":3024,"弩":3025,"弭":3026,"弯":3027,"弰":3028,"弱":3029,"張":3030,"強":3031,"弹":3032,"强":3033,"弼":3034,"弾":3035,"彀":3036,"彈":3037,"彌":3038,"彎":3039,"归":3040,"当":3041,"录":3042,"彗":3043,"彙":3044,"彝":3045,"形":3046,"彤":3047,"彥":3048,"彦":3049,"彧":3050,"彩":3051,"彪":3052,"彫":3053,"彬":3054,"彭":3055,"彰":3056,"影":3057,"彷":3058,"役":3059,"彻":3060,"彼":3061,"彿":3062,"往":3063,"征":3064,"径":3065,"待":3066,"徇":3067,"很":3068,"徊":3069,"律":3070,"後":3071,"徐":3072,"徑":3073,"徒":3074,"従":3075,"徕":3076,"得":3077,"徘":3078,"徙":3079,"從":3080,"徠":3081,"御":3082,"徨":3083,"復":3084,"循":3085,"徬":3086,"徭":3087,"微":3088,"徳":3089,"徴":3090,"徵":3091,"德":3092,"徹":3093,"徽":3094,"心":3095,"必":3096,"忆":3097,"忌":3098,"忍":3099,"忏":3100,"忒":3101,"志":3102,"忘":3103,"忙":3104,"応":3105,"忝":3106,"忞":3107,"忠":3108,"忤":3109,"忧":3110,"快":3111,"忱":3112,"念":3113,"忻":3114,"忼":3115,"忽":3116,"忿":3117,"怀":3118,"态":3119,"怂":3120,"怅":3121,"怍":3122,"怎":3123,"怏":3124,"怒":3125,"怔":3126,"怕":3127,"怖":3128,"怜":3129,"思":3130,"怠":3131,"怡":3132,"急":3133,"性":3134,"怨":3135,"怪":3136,"怯":3137,"总":3138,"恂":3139,"恃":3140,"恆":3141,"恋":3142,"恍":3143,"恐":3144,"恒":3145,"恕":3146,"恙":3147,"恢":3148,"恣":3149,"恤":3150,"恥":3151,"恨":3152,"恩":3153,"恪":3154,"恫":3155,"恬":3156,"恭":3157,"息":3158,"恰":3159,"恳":3160,"恵":3161,"恶":3162,"恸":3163,"恺":3164,"恼":3165,"恿":3166,"悄":3167,"悅":3168,"悉":3169,"悌":3170,"悍":3171,"悒":3172,"悔":3173,"悖":3174,"悚":3175,"悟":3176,"悠":3177,"患":3178,"悦":3179,"您":3180,"悩":3181,"悪":3182,"悫":3183,"悬":3184,"悯":3185,"悲":3186,"悴":3187,"悶":3188,"悸":3189,"悻":3190,"悼":3191,"情":3192,"惇":3193,"惊":3194,"惋":3195,"惑":3196,"惕":3197,"惘":3198,"惜":3199,"惟":3200,"惠":3201,"惡":3202,"惣":3203,"惦":3204,"惧":3205,"惨":3206,"惩":3207,"惫":3208,"惭":3209,"惮":3210,"惯":3211,"惰":3212,"惱":3213,"想":3214,"惶":3215,"惹":3216,"惺":3217,"愁":3218,"愈":3219,"愉":3220,"愍":3221,"愎":3222,"意":3223,"愔":3224,"愕":3225,"愚":3226,"愛":3227,"感":3228,"愠":3229,"愤":3230,"愧":3231,"愫":3232,"愼":3233,"愿":3234,"慄":3235,"慈":3236,"態":3237,"慌":3238,"慎":3239,"慑":3240,"慕":3241,"慘":3242,"慚":3243,"慢":3244,"慣":3245,"慤":3246,"慧":3247,"慨":3248,"慫":3249,"慮":3250,"慰":3251,"慳":3252,"慶":3253,"慷":3254,"慺":3255,"慾":3256,"憂":3257,"憋":3258,"憍":3259,"憎":3260,"憐":3261,"憑":3262,"憔":3263,"憙":3264,"憤":3265,"憧":3266,"憨":3267,"憩":3268,"憬":3269,"憲":3270,"憶":3271,"憾":3272,"懂":3273,"懇":3274,"懈":3275,"應":3276,"懊":3277,"懋":3278,"懐":3279,"懒":3280,"懦":3281,"懲":3282,"懷":3283,"懸":3284,"懺":3285,"懼":3286,"懾":3287,"懿":3288,"戀":3289,"戈":3290,"戊":3291,"戌":3292,"戍":3293,"戎":3294,"戏":3295,"成":3296,"我":3297,"戒":3298,"戕":3299,"或":3300,"战":3301,"戚":3302,"戛":3303,"戟":3304,"戡":3305,"戢":3306,"戦":3307,"戩":3308,"截":3309,"戬":3310,"戮":3311,"戯":3312,"戰":3313,"戲":3314,"戳":3315,"戴":3316,"戶":3317,"户":3318,"戸":3319,"戻":3320,"戾":3321,"房":3322,"所":3323,"扁":3324,"扃":3325,"扇":3326,"扈":3327,"扉":3328,"手":3329,"才":3330,"扎":3331,"扑":3332,"扒":3333,"打":3334,"扔":3335,"払":3336,"托":3337,"扛":3338,"扞":3339,"扣":3340,"执":3341,"扩":3342,"扪":3343,"扫":3344,"扬":3345,"扭":3346,"扮":3347,"扯":3348,"扰":3349,"扱":3350,"扳":3351,"扶":3352,"批":3353,"扺":3354,"扼":3355,"找":3356,"承":3357,"技":3358,"抃":3359,"抄":3360,"抉":3361,"把":3362,"抑":3363,"抒":3364,"抓":3365,"投":3366,"抖":3367,"抗":3368,"折":3369,"抚":3370,"抛":3371,"抜":3372,"択":3373,"抠":3374,"抢":3375,"护":3376,"报":3377,"抨":3378,"披":3379,"抬":3380,"抱":3381,"抵":3382,"抹":3383,"抺":3384,"押":3385,"抽":3386,"拂":3387,"担":3388,"拆":3389,"拇":3390,"拉":3391,"拋":3392,"拌":3393,"拍":3394,"拏":3395,"拐":3396,"拒":3397,"拓":3398,"拔":3399,"拖":3400,"拗":3401,"拘":3402,"拙":3403,"招":3404,"拜":3405,"拝":3406,"拟":3407,"拠":3408,"拡":3409,"拢":3410,"拣":3411,"拥":3412,"拦":3413,"拧":3414,"拨":3415,"择":3416,"拫":3417,"括":3418,"拭":3419,"拮":3420,"拯":3421,"拱":3422,"拳":3423,"拴":3424,"拵":3425,"拶":3426,"拷":3427,"拼":3428,"拽":3429,"拾":3430,"拿":3431,"持":3432,"挂":3433,"指":3434,"挈":3435,"按":3436,"挑":3437,"挖":3438,"挙":3439,"挚":3440,"挛":3441,"挝":3442,"挞":3443,"挟":3444,"挠":3445,"挡":3446,"挣":3447,"挤":3448,"挥":3449,"挨":3450,"挪":3451,"挫":3452,"振":3453,"挹":3454,"挺":3455,"挽":3456,"挾":3457,"挿":3458,"捂":3459,"捅":3460,"捆":3461,"捉":3462,"捍":3463,"捎":3464,"捏":3465,"捐":3466,"捒":3467,"捕":3468,"捗":3469,"捜":3470,"捞":3471,"损":3472,"捡":3473,"换":3474,"捣":3475,"捧":3476,"捨":3477,"捩":3478,"捫":3479,"据":3480,"捱":3481,"捲":3482,"捶":3483,"捷":3484,"捻":3485,"掀":3486,"掃":3487,"授":3488,"掉":3489,"掌":3490,"掎":3491,"掏":3492,"排":3493,"掖":3494,"掘":3495,"掙":3496,"掛":3497,"掞":3498,"掟":3499,"掠":3500,"採":3501,"探":3502,"接":3503,"掦":3504,"控":3505,"推":3506,"掩":3507,"措":3508,"掮":3509,"掰":3510,"掲":3511,"掳":3512,"掴":3513,"掷":3514,"掺":3515,"掻":3516,"掾":3517,"揀":3518,"揃":3519,"揄":3520,"揆":3521,"揉":3522,"描":3523,"提":3524,"插":3525,"揚":3526,"換":3527,"握":3528,"揣":3529,"揪":3530,"揭":3531,"揮":3532,"援":3533,"揶":3534,"揺":3535,"揽":3536,"搀":3537,"搁":3538,"搅":3539,"損":3540,"搏":3541,"搓":3542,"搔":3543,"搖":3544,"搜":3545,"搞":3546,"搡":3547,"搪":3548,"搬":3549,"搭":3550,"搶":3551,"携":3552,"摀":3553,"摂":3554,"摄":3555,"摆":3556,"摇":3557,"摈":3558,"摊":3559,"摒":3560,"摔":3561,"摘":3562,"摞":3563,"摠":3564,"摧":3565,"摩":3566,"摶":3567,"摸":3568,"摹":3569,"摺":3570,"撃":3571,"撇":3572,"撈":3573,"撐":3574,"撑":3575,"撒":3576,"撓":3577,"撕":3578,"撚":3579,"撞":3580,"撣":3581,"撤":3582,"撥":3583,"撩":3584,"撫":3585,"撬":3586,"播":3587,"撮":3588,"撰":3589,"撲":3590,"撵":3591,"撷":3592,"撻":3593,"撼":3594,"擀":3595,"擁":3596,"擂":3597,"擄":3598,"擅":3599,"擇":3600,"擊":3601,"擋":3602,"操":3603,"擎":3604,"擒":3605,"擔":3606,"據":3607,"擠":3608,"擢":3609,"擦":3610,"擧":3611,"擬":3612,"擰":3613,"擱":3614,"擲":3615,"擴":3616,"擺":3617,"擾":3618,"攀":3619,"攏":3620,"攒":3621,"攔":3622,"攘":3623,"攜":3624,"攝":3625,"攢":3626,"攤":3627,"攥":3628,"攪":3629,"攫":3630,"攬":3631,"支":3632,"收":3633,"攸":3634,"改":3635,"攻":3636,"放":3637,"政":3638,"故":3639,"效":3640,"敌":3641,"敍":3642,"敎":3643,"敏":3644,"救":3645,"敕":3646,"敖":3647,"敗":3648,"敘":3649,"教":3650,"敛":3651,"敝":3652,"敞":3653,"敢":3654,"散":3655,"敦":3656,"敬":3657,"数":3658,"敲":3659,"整":3660,"敵":3661,"敷":3662,"數":3663,"斂":3664,"斃":3665,"文":3666,"斉":3667,"斋":3668,"斌":3669,"斎":3670,"斐":3671,"斑":3672,"斗":3673,"料":3674,"斜":3675,"斟":3676,"斠":3677,"斡":3678,"斤":3679,"斥":3680,"斧":3681,"斩":3682,"斬":3683,"断":3684,"斯":3685,"新":3686,"斷":3687,"方":3688,"於":3689,"施":3690,"旁":3691,"旅":3692,"旋":3693,"旌":3694,"族":3695,"旗":3696,"无":3697,"既":3698,"旣":3699,"日":3700,"旦":3701,"旧":3702,"旨":3703,"早":3704,"旬":3705,"旭":3706,"旰":3707,"旱":3708,"时":3709,"旷":3710,"旺":3711,"旻":3712,"昀":3713,"昂":3714,"昆":3715,"昇":3716,"昉":3717,"昊":3718,"昌":3719,"明":3720,"昏":3721,"易":3722,"昔":3723,"昕":3724,"昙":3725,"星":3726,"映":3727,"春":3728,"昧":3729,"昨":3730,"昭":3731,"是":3732,"昱":3733,"昵":3734,"昶":3735,"昼":3736,"显":3737,"晁":3738,"時":3739,"晃":3740,"晉":3741,"晋":3742,"晌":3743,"晏":3744,"晒":3745,"晓":3746,"晔":3747,"晕":3748,"晖":3749,"晗":3750,"晚":3751,"晝":3752,"晟":3753,"晤":3754,"晦":3755,"晨":3756,"晩":3757,"普":3758,"景":3759,"晰":3760,"晴":3761,"晶":3762,"智":3763,"晾":3764,"暁":3765,"暂":3766,"暄":3767,"暇":3768,"暈":3769,"暉":3770,"暌":3771,"暑":3772,"暖":3773,"暗":3774,"暠":3775,"暢":3776,"暦":3777,"暧":3778,"暨":3779,"暫":3780,"暮":3781,"暱":3782,"暴":3783,"暹":3784,"曆":3785,"曉":3786,"曙":3787,"曜":3788,"曝":3789,"曠":3790,"曦":3791,"曬":3792,"曰":3793,"曲":3794,"曳":3795,"更":3796,"曶":3797,"書":3798,"曹":3799,"曺":3800,"曼":3801,"曽":3802,"曾":3803,"替":3804,"最":3805,"會":3806,"月":3807,"有":3808,"朋":3809,"服":3810,"朐":3811,"朔":3812,"朕":3813,"朗":3814,"望":3815,"朝":3816,"期":3817,"朦":3818,"朧":3819,"木":3820,"未":3821,"末":3822,"本":3823,"札":3824,"术":3825,"朱":3826,"朳":3827,"朴":3828,"朵":3829,"朶":3830,"机":3831,"朽":3832,"杀":3833,"杂":3834,"权":3835,"杆":3836,"杉":3837,"李":3838,"杏":3839,"材":3840,"村":3841,"杖":3842,"杙":3843,"杜":3844,"杞":3845,"束":3846,"杠":3847,"条":3848,"来":3849,"杨":3850,"杭":3851,"杯":3852,"杰":3853,"東":3854,"杲":3855,"杳":3856,"杵":3857,"杷":3858,"杼":3859,"松":3860,"板":3861,"极":3862,"构":3863,"枇":3864,"枉":3865,"枋":3866,"枌":3867,"析":3868,"枕":3869,"林":3870,"枚":3871,"果":3872,"枝":3873,"枞":3874,"枠":3875,"枢":3876,"枣":3877,"枨":3878,"枪":3879,"枫":3880,"枭":3881,"枯":3882,"枲":3883,"枴":3884,"架":3885,"枷":3886,"枹":3887,"柄":3888,"柏":3889,"某":3890,"柑":3891,"染":3892,"柔":3893,"柘":3894,"柜":3895,"柞":3896,"柠":3897,"柢":3898,"查":3899,"柩":3900,"柬":3901,"柯":3902,"柰":3903,"柱":3904,"柳":3905,"柴":3906,"柵":3907,"査":3908,"柿":3909,"栃":3910,"栄":3911,"栅":3912,"标":3913,"栈":3914,"栉":3915,"栋":3916,"栎":3917,"栏":3918,"树":3919,"栓":3920,"栖":3921,"栗":3922,"校":3923,"栢":3924,"栩":3925,"株":3926,"栲":3927,"样":3928,"核":3929,"根":3930,"格":3931,"栽":3932,"桀":3933,"桁":3934,"桂":3935,"桃":3936,"桅":3937,"框":3938,"案":3939,"桉":3940,"桌":3941,"桎":3942,"桐":3943,"桑":3944,"桓":3945,"桔":3946,"桜":3947,"桟":3948,"桢":3949,"档":3950,"桥":3951,"桦":3952,"桧":3953,"桨":3954,"桩":3955,"桯":3956,"桶":3957,"桿":3958,"梁":3959,"梃":3960,"梅":3961,"梆":3962,"梏":3963,"梓":3964,"梗":3965,"條":3966,"梟":3967,"梢":3968,"梦":3969,"梧":3970,"梨":3971,"梭":3972,"梯":3973,"械":3974,"梱":3975,"梳":3976,"梵":3977,"梶":3978,"检":3979,"棄":3980,"棉":3981,"棊":3982,"棋":3983,"棍":3984,"棒":3985,"棕":3986,"棗":3987,"棘":3988,"棚":3989,"棟":3990,"棠":3991,"棣":3992,"棨":3993,"森":3994,"棱":3995,"棲":3996,"棵":3997,"棹":3998,"棺":3999,"棻":4000,"椀":4001,"椅":4002,"椋":4003,"植":4004,"椎":4005,"椒":4006,"検":4007,"椪":4008,"椭":4009,"椰":4010,"椽":4011,"楂":4012,"楊":4013,"楓":4014,"楔":4015,"楕":4016,"楚":4017,"楞":4018,"楠":4019,"楡":4020,"楣":4021,"楨":4022,"楩":4023,"楫":4024,"業":4025,"楯":4026,"極":4027,"楷":4028,"楼":4029,"楽":4030,"概":4031,"榄":4032,"榆":4033,"榈":4034,"榊":4035,"榎":4036,"榕":4037,"榘":4038,"榛":4039,"榜":4040,"榨":4041,"榭":4042,"榮":4043,"榴":4044,"榷":4045,"槃":4046,"槊":4047,"構":4048,"槌":4049,"槍":4050,"槎":4051,"槐":4052,"様":4053,"槛":4054,"槟":4055,"槭":4056,"槲":4057,"槻":4058,"槽":4059,"樁":4060,"樂":4061,"樊":4062,"樋":4063,"樑":4064,"樓":4065,"樗":4066,"樘":4067,"標":4068,"樞":4069,"樟":4070,"模":4071,"樣":4072,"樨":4073,"権":4074,"横":4075,"樫":4076,"樱":4077,"樵":4078,"樸":4079,"樹":4080,"樺":4081,"樽":4082,"樾":4083,"橄":4084,"橋":4085,"橘":4086,"橙":4087,"橚":4088,"橛":4089,"機":4090,"橡":4091,"橢":4092,"橫":4093,"橱":4094,"橿":4095,"檀":4096,"檄":4097,"檐":4098,"檔":4099,"檗":4100,"檜":4101,"檢":4102,"檬":4103,"檯":4104,"檳":4105,"檸":4106,"檻":4107,"櫂":4108,"櫃":4109,"櫓":4110,"櫛":4111,"櫻":4112,"欄":4113,"權":4114,"欖":4115,"欠":4116,"次":4117,"欢":4118,"欣":4119,"欧":4120,"欲":4121,"欷":4122,"欺":4123,"欽":4124,"款":4125,"歆":4126,"歇":4127,"歉":4128,"歌":4129,"歎":4130,"歐":4131,"歓":4132,"歜":4133,"歡":4134,"止":4135,"正":4136,"此":4137,"步":4138,"武":4139,"歧":4140,"歩":4141,"歪":4142,"歯":4143,"歲":4144,"歳":4145,"歴":4146,"歷":4147,"歸":4148,"歹":4149,"死":4150,"歼":4151,"歿":4152,"殁":4153,"殂":4154,"殃":4155,"殄":4156,"殆":4157,"殇":4158,"殉":4159,"殊":4160,"残":4161,"殒":4162,"殓":4163,"殖":4164,"殘":4165,"殚":4166,"殛":4167,"殡":4168,"殤":4169,"殫":4170,"殮":4171,"殯":4172,"殲":4173,"殴":4174,"段":4175,"殷":4176,"殺":4177,"殻":4178,"殼":4179,"殿":4180,"毀":4181,"毁":4182,"毂":4183,"毅":4184,"毆":4185,"毋":4186,"毌":4187,"母":4188,"毎":4189,"每":4190,"毒":4191,"毓":4192,"比":4193,"毕":4194,"毗":4195,"毘":4196,"毙":4197,"毛":4198,"毡":4199,"毫":4200,"毯":4201,"氈":4202,"氏":4203,"氐":4204,"民":4205,"氓":4206,"气":4207,"氖":4208,"気":4209,"氛":4210,"氟":4211,"氢":4212,"氣":4213,"氦":4214,"氧":4215,"氨":4216,"氫":4217,"氮":4218,"氯":4219,"氰":4220,"水":4221,"氷":4222,"永":4223,"氹":4224,"汀":4225,"汁":4226,"求":4227,"汇":4228,"汉":4229,"汎":4230,"汐":4231,"汕":4232,"汗":4233,"汙":4234,"汚":4235,"汛":4236,"汜":4237,"汝":4238,"江":4239,"池":4240,"污":4241,"汤":4242,"汪":4243,"汰":4244,"汲":4245,"汴":4246,"汶":4247,"汹":4248,"決":4249,"汽":4250,"汾":4251,"沁":4252,"沂":4253,"沃":4254,"沅":4255,"沆":4256,"沈":4257,"沉":4258,"沌":4259,"沐":4260,"沒":4261,"沓":4262,"沔":4263,"沖":4264,"沙":4265,"沚":4266,"沛":4267,"沟":4268,"没":4269,"沢":4270,"沣":4271,"沥":4272,"沦":4273,"沧":4274,"沨":4275,"沩":4276,"沪":4277,"沫":4278,"沭":4279,"沮":4280,"沱":4281,"河":4282,"沸":4283,"油":4284,"治":4285,"沼":4286,"沽":4287,"沾":4288,"沿":4289,"況":4290,"泄":4291,"泅":4292,"泉":4293,"泊":4294,"泌":4295,"泒":4296,"泓":4297,"法":4298,"泗":4299,"泚":4300,"泛":4301,"泞":4302,"泡":4303,"波":4304,"泣":4305,"泥":4306,"注":4307,"泪":4308,"泯":4309,"泰":4310,"泳":4311,"泵":4312,"泷":4313,"泸":4314,"泺":4315,"泻":4316,"泼":4317,"泽":4318,"泾":4319,"洁":4320,"洋":4321,"洒":4322,"洗":4323,"洙":4324,"洛":4325,"洞":4326,"津":4327,"洩":4328,"洪":4329,"洮":4330,"洱":4331,"洲":4332,"洵":4333,"洸":4334,"洹":4335,"洺":4336,"活":4337,"洼":4338,"洽":4339,"派":4340,"流":4341,"浄":4342,"浅":4343,"浆":4344,"浇":4345,"浊":4346,"测":4347,"济":4348,"浏":4349,"浑":4350,"浒":4351,"浓":4352,"浔":4353,"浙":4354,"浚":4355,"浜":4356,"浠":4357,"浣":4358,"浦":4359,"浩":4360,"浪":4361,"浬":4362,"浮":4363,"浯":4364,"浴":4365,"海":4366,"浸":4367,"浿":4368,"涂":4369,"涅":4370,"消":4371,"涉":4372,"涌":4373,"涔":4374,"涕":4375,"涙":4376,"涛":4377,"涜":4378,"涝":4379,"涟":4380,"涡":4381,"涣":4382,"润":4383,"涧":4384,"涨":4385,"涩":4386,"涪":4387,"涯":4388,"液":4389,"涵":4390,"涸":4391,"涼":4392,"涿":4393,"淀":4394,"淄":4395,"淅":4396,"淆":4397,"淇":4398,"淋":4399,"淌":4400,"淑":4401,"淒":4402,"淖":4403,"淘":4404,"淚":4405,"淝":4406,"淞":4407,"淡":4408,"淤":4409,"淦":4410,"淨":4411,"淪":4412,"淫":4413,"淬":4414,"淮":4415,"深":4416,"淳":4417,"淵":4418,"淶":4419,"混":4420,"淸":4421,"淹":4422,"淺":4423,"添":4424,"清":4425,"渇":4426,"済":4427,"渉":4428,"渊":4429,"渋":4430,"渍":4431,"渎":4432,"渐":4433,"渓":4434,"渔":4435,"渗":4436,"渙":4437,"渚":4438,"減":4439,"渝":4440,"渠":4441,"渡":4442,"渣":4443,"渤":4444,"渥":4445,"渦":4446,"温":4447,"測":4448,"渭":4449,"港":4450,"渲":4451,"渴":4452,"游":4453,"渺":4454,"渾":4455,"湃":4456,"湄":4457,"湊":4458,"湍":4459,"湖":4460,"湘":4461,"湛":4462,"湜":4463,"湟":4464,"湧":4465,"湫":4466,"湮":4467,"湯":4468,"湾":4469,"湿":4470,"満":4471,"溃":4472,"溅":4473,"溉":4474,"源":4475,"準":4476,"溘":4477,"溜":4478,"溝":4479,"溢":4480,"溥":4481,"溧":4482,"溪":4483,"溫":4484,"溯":4485,"溱":4486,"溴":4487,"溶":4488,"溷":4489,"溺":4490,"滁":4491,"滂":4492,"滄":4493,"滅":4494,"滇":4495,"滋":4496,"滎":4497,"滏":4498,"滑":4499,"滓":4500,"滔":4501,"滕":4502,"滘":4503,"滚":4504,"滝":4505,"滞":4506,"满":4507,"滤":4508,"滥":4509,"滦":4510,"滨":4511,"滩":4512,"滬":4513,"滯":4514,"滲":4515,"滴":4516,"滷":4517,"滹":4518,"滾":4519,"滿":4520,"漁":4521,"漂":4522,"漆":4523,"漈":4524,"漏":4525,"漓":4526,"演":4527,"漕":4528,"漠":4529,"漢":4530,"漩":4531,"漪":4532,"漫":4533,"漬":4534,"漯":4535,"漱":4536,"漲":4537,"漳":4538,"漸":4539,"漾":4540,"漿":4541,"潇":4542,"潍":4543,"潑":4544,"潔":4545,"潘":4546,"潛":4547,"潜":4548,"潞":4549,"潟":4550,"潢":4551,"潤":4552,"潦":4553,"潭":4554,"潮":4555,"潰":4556,"潼":4557,"澂":4558,"澄":4559,"澇":4560,"澈":4561,"澎":4562,"澜":4563,"澡":4564,"澤":4565,"澧":4566,"澪":4567,"澱":4568,"澳":4569,"澶":4570,"澹":4571,"激":4572,"濁":4573,"濂":4574,"濃":4575,"濑":4576,"濒":4577,"濕":4578,"濘":4579,"濟":4580,"濠":4581,"濡":4582,"濤":4583,"濫":4584,"濬":4585,"濮":4586,"濯":4587,"濰":4588,"濱":4589,"濺":4590,"濾":4591,"瀅":4592,"瀆":4593,"瀉":4594,"瀋":4595,"瀍":4596,"瀏":4597,"瀑":4598,"瀕":4599,"瀚":4600,"瀛":4601,"瀝":4602,"瀣":4603,"瀧":4604,"瀬":4605,"瀰":4606,"瀲":4607,"瀾":4608,"灌":4609,"灑":4610,"灕":4611,"灘":4612,"灣":4613,"灤":4614,"火":4615,"灭":4616,"灯":4617,"灰":4618,"灵":4619,"灶":4620,"灼":4621,"災":4622,"灾":4623,"灿":4624,"炀":4625,"炉":4626,"炊":4627,"炎":4628,"炒":4629,"炔":4630,"炕":4631,"炖":4632,"炙":4633,"炜":4634,"炟":4635,"炫":4636,"炬":4637,"炭":4638,"炮":4639,"炯":4640,"炳":4641,"炷":4642,"炸":4643,"点":4644,"為":4645,"炼":4646,"炽":4647,"烂":4648,"烃":4649,"烈":4650,"烏":4651,"烘":4652,"烙":4653,"烛":4654,"烝":4655,"烟":4656,"烤":4657,"烦":4658,"烧":4659,"烩":4660,"烫":4661,"烬":4662,"热":4663,"烯":4664,"烴":4665,"烷":4666,"烹":4667,"烽":4668,"焉":4669,"焊":4670,"焕":4671,"焖":4672,"焘":4673,"焙":4674,"焚":4675,"無":4676,"焦":4677,"焯":4678,"焰":4679,"然":4680,"焼":4681,"煇":4682,"煉":4683,"煊":4684,"煌":4685,"煎":4686,"煐":4687,"煒":4688,"煕":4689,"煙":4690,"煜":4691,"煞":4692,"煤":4693,"煥":4694,"煦":4695,"照":4696,"煨":4697,"煩":4698,"煮":4699,"煲":4700,"煽":4701,"熄":4702,"熊":4703,"熏":4704,"熒":4705,"熔":4706,"熙":4707,"熜":4708,"熟":4709,"熨":4710,"熬":4711,"熱":4712,"熵":4713,"熹":4714,"熾":4715,"燁":4716,"燃":4717,"燈":4718,"燉":4719,"燊":4720,"燏":4721,"燒":4722,"燔":4723,"燕":4724,"燙":4725,"營":4726,"燥":4727,"燦":4728,"燧":4729,"燭":4730,"燮":4731,"燹":4732,"燻":4733,"燾":4734,"爆":4735,"爐":4736,"爛":4737,"爨":4738,"爪":4739,"爬":4740,"爭":4741,"爰":4742,"爱":4743,"爲":4744,"爵":4745,"父":4746,"爷":4747,"爸":4748,"爹":4749,"爺":4750,"爽":4751,"爾":4752,"爿":4753,"牆":4754,"片":4755,"版":4756,"牌":4757,"牒":4758,"牘":4759,"牙":4760,"牛":4761,"牟":4762,"牠":4763,"牡":4764,"牢":4765,"牧":4766,"物":4767,"牲":4768,"牵":4769,"特":4770,"牺":4771,"牽":4772,"犀":4773,"犁":4774,"犄":4775,"犊":4776,"犍":4777,"犠":4778,"犢":4779,"犧":4780,"犬":4781,"犯":4782,"状":4783,"犷":4784,"犸":4785,"犹":4786,"狀":4787,"狂":4788,"狄":4789,"狈":4790,"狎":4791,"狐":4792,"狗":4793,"狙":4794,"狠":4795,"狡":4796,"狨":4797,"狩":4798,"独":4799,"狭":4800,"狮":4801,"狯":4802,"狱":4803,"狸":4804,"狹":4805,"狼":4806,"猇":4807,"猎":4808,"猔":4809,"猖":4810,"猗":4811,"猛":4812,"猜":4813,"猝":4814,"猥":4815,"猩":4816,"猪":4817,"猫":4818,"献":4819,"猴":4820,"猶":4821,"猷":4822,"猺":4823,"猾":4824,"猿":4825,"獄":4826,"獅":4827,"獎":4828,"獗":4829,"獠":4830,"獣":4831,"獨":4832,"獭":4833,"獲":4834,"獵":4835,"獷":4836,"獸":4837,"獻":4838,"獾":4839,"玄":4840,"率":4841,"玉":4842,"王":4843,"玑":4844,"玒":4845,"玖":4846,"玙":4847,"玛":4848,"玟":4849,"玠":4850,"玨":4851,"玩":4852,"玫":4853,"玮":4854,"环":4855,"现":4856,"玲":4857,"玷":4858,"玺":4859,"玻":4860,"珀":4861,"珂":4862,"珈":4863,"珉":4864,"珊":4865,"珍":4866,"珑":4867,"珙":4868,"珞":4869,"珠":4870,"珣":4871,"珥":4872,"珪":4873,"班":4874,"珲":4875,"現":4876,"球":4877,"琅":4878,"理":4879,"琇":4880,"琉":4881,"琊":4882,"琏":4883,"琐":4884,"琛":4885,"琢":4886,"琥":4887,"琦":4888,"琪":4889,"琮":4890,"琰":4891,"琲":4892,"琳":4893,"琴":4894,"琵":4895,"琶":4896,"琹":4897,"琼":4898,"瑀":4899,"瑈":4900,"瑋":4901,"瑕":4902,"瑗":4903,"瑙":4904,"瑚":4905,"瑛":4906,"瑜":4907,"瑞":4908,"瑟":4909,"瑠":4910,"瑣":4911,"瑤":4912,"瑩":4913,"瑪":4914,"瑭":4915,"瑰":4916,"瑶":4917,"瑷":4918,"瑾":4919,"璁":4920,"璃":4921,"璆":4922,"璇":4923,"璋":4924,"璐":4925,"璘":4926,"璜":4927,"璝":4928,"璞":4929,"璟":4930,"璠":4931,"璧":4932,"璨":4933,"璩":4934,"環":4935,"璲":4936,"璿":4937,"瓈":4938,"瓊":4939,"瓏":4940,"瓒":4941,"瓔":4942,"瓘":4943,"瓚":4944,"瓜":4945,"瓠":4946,"瓢":4947,"瓣":4948,"瓦":4949,"瓮":4950,"瓯":4951,"瓶":4952,"瓷":4953,"甄":4954,"甌":4955,"甑":4956,"甘":4957,"甙":4958,"甚":4959,"甜":4960,"生":4961,"產":4962,"産":4963,"甥":4964,"用":4965,"甩":4966,"甫":4967,"甬":4968,"甯":4969,"田":4970,"由":4971,"甲":4972,"申":4973,"电":4974,"男":4975,"甸":4976,"町":4977,"画":4978,"畅":4979,"畋":4980,"界":4981,"畏":4982,"畑":4983,"畔":4984,"留":4985,"畛":4986,"畜":4987,"畝":4988,"畠":4989,"畢":4990,"略":4991,"畦":4992,"番":4993,"畫":4994,"畯":4995,"異":4996,"畲":4997,"畳":4998,"畴":4999,"畵":5000,"當":5001,"畸":5002,"畿":5003,"疆":5004,"疇":5005,"疊":5006,"疋":5007,"疎":5008,"疏":5009,"疑":5010,"疗":5011,"疙":5012,"疚":5013,"疟":5014,"疣":5015,"疤":5016,"疫":5017,"疮":5018,"疯":5019,"疱":5020,"疲":5021,"疵":5022,"疸":5023,"疹":5024,"疼":5025,"疾":5026,"病":5027,"症":5028,"痉":5029,"痊":5030,"痒":5031,"痔":5032,"痕":5033,"痘":5034,"痛":5035,"痢":5036,"痩":5037,"痪":5038,"痫":5039,"痴":5040,"痹":5041,"痺":5042,"痿":5043,"瘁":5044,"瘋":5045,"瘓":5046,"瘟":5047,"瘠":5048,"瘤":5049,"瘦":5050,"瘩":5051,"瘫":5052,"瘴":5053,"瘸":5054,"瘾":5055,"瘿":5056,"療":5057,"癌":5058,"癒":5059,"癖":5060,"癞":5061,"癡":5062,"癣":5063,"癫":5064,"癮":5065,"癱":5066,"癸":5067,"発":5068,"登":5069,"發":5070,"白":5071,"百":5072,"皂":5073,"的":5074,"皆":5075,"皇":5076,"皈":5077,"皋":5078,"皐":5079,"皓":5080,"皖":5081,"皙":5082,"皝":5083,"皮":5084,"皱":5085,"皺":5086,"皿":5087,"盂":5088,"盃":5089,"盅":5090,"盆":5091,"盈":5092,"益":5093,"盎":5094,"盏":5095,"盐":5096,"监":5097,"盒":5098,"盔":5099,"盖":5100,"盗":5101,"盘":5102,"盛":5103,"盜":5104,"盟":5105,"盡":5106,"監":5107,"盤":5108,"盥":5109,"盦":5110,"盧":5111,"盪":5112,"目":5113,"盯":5114,"盱":5115,"盲":5116,"直":5117,"相":5118,"盼":5119,"盾":5120,"省":5121,"眈":5122,"眉":5123,"看":5124,"県":5125,"眙":5126,"眞":5127,"真":5128,"眠":5129,"眨":5130,"眩":5131,"眶":5132,"眷":5133,"眺":5134,"眼":5135,"眾":5136,"着":5137,"睁":5138,"睇":5139,"睏":5140,"睐":5141,"睛":5142,"睞":5143,"睡":5144,"睢":5145,"督":5146,"睦":5147,"睪":5148,"睫":5149,"睬":5150,"睹":5151,"睺":5152,"睽":5153,"睿":5154,"瞄":5155,"瞅":5156,"瞋":5157,"瞌":5158,"瞎":5159,"瞑":5160,"瞒":5161,"瞞":5162,"瞠":5163,"瞥":5164,"瞧":5165,"瞩":5166,"瞪":5167,"瞬":5168,"瞭":5169,"瞰":5170,"瞳":5171,"瞻":5172,"瞿":5173,"矗":5174,"矚":5175,"矛":5176,"矜":5177,"矢":5178,"矣":5179,"知":5180,"矩":5181,"矫":5182,"短":5183,"矮":5184,"矯":5185,"石":5186,"矶":5187,"矽":5188,"矾":5189,"矿":5190,"码":5191,"砂":5192,"砌":5193,"砍":5194,"研":5195,"砕":5196,"砖":5197,"砚":5198,"砟":5199,"砥":5200,"砦":5201,"砧":5202,"砲":5203,"破":5204,"砵":5205,"砷":5206,"砸":5207,"砺":5208,"砻":5209,"砼":5210,"砾":5211,"础":5212,"硃":5213,"硅":5214,"硏":5215,"硕":5216,"硝":5217,"硫":5218,"硬":5219,"确":5220,"硯":5221,"硼":5222,"碁":5223,"碇":5224,"碉":5225,"碌":5226,"碍":5227,"碎":5228,"碑":5229,"碗":5230,"碘":5231,"碛":5232,"碟":5233,"碧":5234,"碩":5235,"碰":5236,"碱":5237,"碳":5238,"確":5239,"碼":5240,"磁":5241,"磅":5242,"磊":5243,"磋":5244,"磐":5245,"磕":5246,"磙":5247,"磚":5248,"磡":5249,"磨":5250,"磯":5251,"磷":5252,"磹":5253,"磺":5254,"礁":5255,"礎":5256,"礙":5257,"礠":5258,"礦":5259,"礪":5260,"礫":5261,"礬":5262,"示":5263,"礼":5264,"社":5265,"礿":5266,"祀":5267,"祁":5268,"祂":5269,"祆":5270,"祇":5271,"祈":5272,"祉":5273,"祎":5274,"祐":5275,"祕":5276,"祖":5277,"祗":5278,"祚":5279,"祛":5280,"祜":5281,"祝":5282,"神":5283,"祟":5284,"祠":5285,"祢":5286,"祥":5287,"祧":5288,"票":5289,"祩":5290,"祭":5291,"祯":5292,"祷":5293,"祸":5294,"祺":5295,"祿":5296,"禀":5297,"禁":5298,"禄":5299,"禅":5300,"禊":5301,"禍":5302,"禎":5303,"福":5304,"禔":5305,"禛":5306,"禦":5307,"禧":5308,"禩":5309,"禪":5310,"禮":5311,"禰":5312,"禱":5313,"禹":5314,"禺":5315,"离":5316,"禽":5317,"禾":5318,"秀":5319,"私":5320,"秃":5321,"秆":5322,"秉":5323,"秋":5324,"种":5325,"科":5326,"秒":5327,"秕":5328,"秘":5329,"租":5330,"秣":5331,"秤":5332,"秦":5333,"秧":5334,"秩":5335,"秭":5336,"积":5337,"称":5338,"秸":5339,"移":5340,"秽":5341,"稀":5342,"稅":5343,"程":5344,"稍":5345,"税":5346,"稔":5347,"稚":5348,"稜":5349,"稟":5350,"稠":5351,"稣":5352,"種":5353,"稱":5354,"稲":5355,"稳":5356,"稷":5357,"稹":5358,"稻":5359,"稼":5360,"稽":5361,"稿":5362,"穀":5363,"穆":5364,"穌":5365,"積":5366,"穎":5367,"穏":5368,"穗":5369,"穡":5370,"穢":5371,"穩":5372,"穫":5373,"穰":5374,"穴":5375,"究":5376,"穷":5377,"穹":5378,"空":5379,"穿":5380,"突":5381,"窃":5382,"窄":5383,"窍":5384,"窑":5385,"窒":5386,"窓":5387,"窖":5388,"窗":5389,"窘":5390,"窜":5391,"窝":5392,"窟":5393,"窠":5394,"窥":5395,"窦":5396,"窩":5397,"窪":5398,"窮":5399,"窯":5400,"窰":5401,"窺":5402,"窿":5403,"竄":5404,"竇":5405,"竈":5406,"竊":5407,"立":5408,"竑":5409,"竒":5410,"竖":5411,"站":5412,"竜":5413,"竞":5414,"竟":5415,"章":5416,"竣":5417,"童":5418,"竦":5419,"竪":5420,"竭":5421,"端":5422,"競":5423,"竸":5424,"竹":5425,"竺":5426,"竽":5427,"竿":5428,"笃":5429,"笆":5430,"笈":5431,"笋":5432,"笑":5433,"笔":5434,"笙":5435,"笛":5436,"笞":5437,"笠":5438,"符":5439,"笨":5440,"第":5441,"笹":5442,"笺":5443,"笼":5444,"筆":5445,"筇":5446,"筈":5447,"等":5448,"筊":5449,"筋":5450,"筍":5451,"筏":5452,"筐":5453,"筑":5454,"筒":5455,"答":5456,"策":5457,"筛":5458,"筝":5459,"筠":5460,"筱":5461,"筵":5462,"筷":5463,"筹":5464,"筼":5465,"签":5466,"简":5467,"箇":5468,"箋":5469,"箍":5470,"箏":5471,"箔":5472,"箕":5473,"算":5474,"箚":5475,"箝":5476,"管":5477,"箭":5478,"箱":5479,"箴":5480,"箸":5481,"節":5482,"篁":5483,"範":5484,"篆":5485,"篇":5486,"築":5487,"篋":5488,"篝":5489,"篠":5490,"篡":5491,"篤":5492,"篪":5493,"篮":5494,"篱":5495,"篷":5496,"篾":5497,"簃":5498,"簇":5499,"簋":5500,"簒":5501,"簓":5502,"簗":5503,"簡":5504,"簧":5505,"簪":5506,"簸":5507,"簽":5508,"簾":5509,"簿":5510,"籃":5511,"籌":5512,"籍":5513,"籐":5514,"籓":5515,"籠":5516,"籤":5517,"籬":5518,"籲":5519,"米":5520,"类":5521,"籽":5522,"籾":5523,"粉":5524,"粋":5525,"粑":5526,"粒":5527,"粕":5528,"粗":5529,"粘":5530,"粛":5531,"粟":5532,"粤":5533,"粥":5534,"粧":5535,"粪":5536,"粮":5537,"粱":5538,"粲":5539,"粵":5540,"粹":5541,"粽":5542,"精":5543,"粿":5544,"糊":5545,"糌":5546,"糕":5547,"糖":5548,"糙":5549,"糜":5550,"糞":5551,"糟":5552,"糠":5553,"糧":5554,"糯":5555,"糰":5556,"糸":5557,"系":5558,"糾":5559,"紀":5560,"約":5561,"紅":5562,"紆":5563,"紉":5564,"紊":5565,"紋":5566,"納":5567,"紐":5568,"純":5569,"紗":5570,"紘":5571,"紙":5572,"級":5573,"紛":5574,"紝":5575,"素":5576,"紡":5577,"索":5578,"紧":5579,"紫":5580,"紬":5581,"紮":5582,"累":5583,"細":5584,"紱":5585,"紳":5586,"紹":5587,"紺":5588,"絀":5589,"終":5590,"絃":5591,"組":5592,"絆":5593,"経":5594,"結":5595,"絕":5596,"絚":5597,"絞":5598,"絡":5599,"給":5600,"絮":5601,"統":5602,"絲":5603,"絵":5604,"絶":5605,"絸":5606,"綁":5607,"綏":5608,"綑":5609,"經":5610,"継":5611,"続":5612,"綜":5613,"綠":5614,"綢":5615,"綫":5616,"綬":5617,"維":5618,"綱":5619,"網":5620,"綴":5621,"綵":5622,"綺":5623,"綻":5624,"綾":5625,"綿":5626,"緊":5627,"緋":5628,"総":5629,"緑":5630,"緒":5631,"緘":5632,"線":5633,"締":5634,"緣":5635,"編":5636,"緩":5637,"緬":5638,"緯":5639,"練":5640,"緻":5641,"縁":5642,"縄":5643,"縊":5644,"縐":5645,"縒":5646,"縛":5647,"縝":5648,"縣":5649,"縦":5650,"縫":5651,"縮":5652,"縱":5653,"縷":5654,"縻":5655,"總":5656,"績":5657,"繁":5658,"繆":5659,"繇":5660,"繊":5661,"繋":5662,"織":5663,"繕":5664,"繖":5665,"繞":5666,"繡":5667,"繩":5668,"繪":5669,"繫":5670,"繭":5671,"繰":5672,"繳":5673,"繹":5674,"繼":5675,"纂":5676,"續":5677,"纏":5678,"纖":5679,"纘":5680,"纜":5681,"纠":5682,"红":5683,"纣":5684,"纤":5685,"纥":5686,"约":5687,"级":5688,"纨":5689,"纪":5690,"纬":5691,"纭":5692,"纯":5693,"纰":5694,"纱":5695,"纲":5696,"纳":5697,"纵":5698,"纷":5699,"纸":5700,"纹":5701,"纺":5702,"纽":5703,"纾":5704,"线":5705,"绀":5706,"练":5707,"组":5708,"绅":5709,"细":5710,"织":5711,"终":5712,"绊":5713,"绌":5714,"绍":5715,"绎":5716,"经":5717,"绑":5718,"绒":5719,"结":5720,"绔":5721,"绕":5722,"绘":5723,"给":5724,"绚":5725,"绛":5726,"络":5727,"绝":5728,"绞":5729,"统":5730,"绢":5731,"绣":5732,"绥":5733,"继":5734,"绩":5735,"绪":5736,"绫":5737,"续":5738,"绮":5739,"绯":5740,"绰":5741,"绳":5742,"维":5743,"绵":5744,"绶":5745,"绸":5746,"综":5747,"绽":5748,"绿":5749,"缀":5750,"缄":5751,"缅":5752,"缆":5753,"缇":5754,"缉":5755,"缎":5756,"缓":5757,"缔":5758,"缕":5759,"编":5760,"缘":5761,"缚":5762,"缛":5763,"缜":5764,"缝":5765,"缠":5766,"缢":5767,"缤":5768,"缨":5769,"缩":5770,"缪":5771,"缫":5772,"缭":5773,"缮":5774,"缯":5775,"缰":5776,"缳":5777,"缴":5778,"缵":5779,"缶":5780,"缸":5781,"缺":5782,"罄":5783,"罈":5784,"罐":5785,"网":5786,"罔":5787,"罕":5788,"罗":5789,"罘":5790,"罚":5791,"罟":5792,"罢":5793,"罣":5794,"罩":5795,"罪":5796,"置":5797,"罰":5798,"署":5799,"罴":5800,"罵":5801,"罷":5802,"罹":5803,"羁":5804,"羅":5805,"羊":5806,"羌":5807,"美":5808,"羔":5809,"羕":5810,"羚":5811,"羞":5812,"羟":5813,"羡":5814,"羣":5815,"群":5816,"羥":5817,"羨":5818,"義":5819,"羮":5820,"羯":5821,"羰":5822,"羲":5823,"羸":5824,"羹":5825,"羽":5826,"羿":5827,"翁":5828,"翅":5829,"翊":5830,"翌":5831,"翎":5832,"習":5833,"翔":5834,"翘":5835,"翛":5836,"翟":5837,"翠":5838,"翡":5839,"翦":5840,"翩":5841,"翰":5842,"翱":5843,"翻":5844,"翼":5845,"耀":5846,"老":5847,"考":5848,"者":5849,"耆":5850,"而":5851,"耍":5852,"耐":5853,"耕":5854,"耗":5855,"耘":5856,"耦":5857,"耨":5858,"耳":5859,"耶":5860,"耸":5861,"耻":5862,"耽":5863,"耿":5864,"聂":5865,"聆":5866,"聊":5867,"聋":5868,"职":5869,"聒":5870,"联":5871,"聖":5872,"聘":5873,"聚":5874,"聞":5875,"聪":5876,"聯":5877,"聰":5878,"聲":5879,"聴":5880,"聶":5881,"職":5882,"聽":5883,"聾":5884,"聿":5885,"肃":5886,"肄":5887,"肅":5888,"肆":5889,"肇":5890,"肉":5891,"肋":5892,"肌":5893,"肖":5894,"肘":5895,"肚":5896,"肛":5897,"肝":5898,"肠":5899,"股":5900,"肢":5901,"肤":5902,"肥":5903,"肩":5904,"肪":5905,"肮":5906,"肯":5907,"肱":5908,"育":5909,"肴":5910,"肺":5911,"肼":5912,"肽":5913,"肾":5914,"肿":5915,"胀":5916,"胁":5917,"胃":5918,"胄":5919,"胆":5920,"背":5921,"胎":5922,"胖":5923,"胚":5924,"胜":5925,"胞":5926,"胡":5927,"胤":5928,"胥":5929,"胧":5930,"胪":5931,"胫":5932,"胰":5933,"胱":5934,"胳":5935,"胴":5936,"胶":5937,"胸":5938,"胺":5939,"能":5940,"脂":5941,"脅":5942,"脆":5943,"脇":5944,"脈":5945,"脉":5946,"脊":5947,"脍":5948,"脏":5949,"脐":5950,"脑":5951,"脓":5952,"脖":5953,"脚":5954,"脛":5955,"脤":5956,"脩":5957,"脫":5958,"脯":5959,"脱":5960,"脳":5961,"脷":5962,"脸":5963,"脹":5964,"脾":5965,"腆":5966,"腊":5967,"腌":5968,"腎":5969,"腐":5970,"腑":5971,"腓":5972,"腔":5973,"腕":5974,"腙":5975,"腥":5976,"腦":5977,"腩":5978,"腫":5979,"腮":5980,"腰":5981,"腱":5982,"腳":5983,"腸":5984,"腹":5985,"腺":5986,"腻":5987,"腼":5988,"腾":5989,"腿":5990,"膀":5991,"膂":5992,"膊":5993,"膏":5994,"膑":5995,"膚":5996,"膛":5997,"膜":5998,"膝":5999,"膠":6000,"膨":6001,"膩":6002,"膳":6003,"膺":6004,"膻":6005,"膽":6006,"臀":6007,"臂":6008,"臃":6009,"臆":6010,"臉":6011,"臍":6012,"臓":6013,"臘":6014,"臚":6015,"臟":6016,"臣":6017,"臥":6018,"臧":6019,"臨":6020,"自":6021,"臬":6022,"臭":6023,"至":6024,"致":6025,"臺":6026,"臻":6027,"臼":6028,"舂":6029,"舅":6030,"舆":6031,"與":6032,"興":6033,"舉":6034,"舊":6035,"舌":6036,"舍":6037,"舎":6038,"舒":6039,"舔":6040,"舖":6041,"舗":6042,"舜":6043,"舞":6044,"舟":6045,"舢":6046,"舣":6047,"舨":6048,"航":6049,"舫":6050,"般":6051,"舯":6052,"舰":6053,"舱":6054,"舵":6055,"舶":6056,"舷":6057,"船":6058,"舺":6059,"舾":6060,"艇":6061,"艉":6062,"艋":6063,"艏":6064,"艘":6065,"艙":6066,"艛":6067,"艟":6068,"艦":6069,"艨":6070,"良":6071,"艰":6072,"艱":6073,"色":6074,"艳":6075,"艷":6076,"艺":6077,"艾":6078,"节":6079,"芋":6080,"芒":6081,"芙":6082,"芜":6083,"芝":6084,"芥":6085,"芦":6086,"芪":6087,"芫":6088,"芬":6089,"芭":6090,"芮":6091,"芯":6092,"花":6093,"芳":6094,"芷":6095,"芸":6096,"芹":6097,"芽":6098,"苇":6099,"苌":6100,"苍":6101,"苎":6102,"苏":6103,"苑":6104,"苓":6105,"苔":6106,"苖":6107,"苗":6108,"苛":6109,"苞":6110,"苟":6111,"若":6112,"苦":6113,"苧":6114,"苯":6115,"英":6116,"苳":6117,"苷":6118,"苹":6119,"苻":6120,"茀":6121,"茁":6122,"茂":6123,"范":6124,"茄":6125,"茅":6126,"茉":6127,"茎":6128,"茗":6129,"茚":6130,"茜":6131,"茧":6132,"茨":6133,"茫":6134,"茯":6135,"茱":6136,"茲":6137,"茴":6138,"茵":6139,"茶":6140,"茸":6141,"茹":6142,"荀":6143,"荃":6144,"荆":6145,"草":6146,"荊":6147,"荌":6148,"荐":6149,"荒":6150,"荔":6151,"荖":6152,"荘":6153,"荚":6154,"荟":6155,"荡":6156,"荣":6157,"荧":6158,"荪":6159,"荫":6160,"药":6161,"荷":6162,"荻":6163,"荼":6164,"荽":6165,"莅":6166,"莆":6167,"莉":6168,"莊":6169,"莎":6170,"莒":6171,"莓":6172,"莖":6173,"莘":6174,"莚":6175,"莞":6176,"莠":6177,"莢":6178,"莪":6179,"莫":6180,"莱":6181,"莲":6182,"获":6183,"莹":6184,"莺":6185,"莽":6186,"菀":6187,"菁":6188,"菅":6189,"菇":6190,"菈":6191,"菊":6192,"菌":6193,"菏":6194,"菓":6195,"菜":6196,"菟":6197,"菠":6198,"菡":6199,"菩":6200,"華":6201,"菱":6202,"菲":6203,"菸":6204,"菽":6205,"萁":6206,"萃":6207,"萄":6208,"萊":6209,"萌":6210,"萍":6211,"萎":6212,"萝":6213,"萤":6214,"营":6215,"萦":6216,"萧":6217,"萨":6218,"萩":6219,"萬":6220,"萱":6221,"萸":6222,"萼":6223,"落":6224,"葆":6225,"葉":6226,"葑":6227,"著":6228,"葛":6229,"葡":6230,"葢":6231,"董":6232,"葦":6233,"葫":6234,"葬":6235,"葭":6236,"葱":6237,"葵":6238,"葶":6239,"葺":6240,"蒂":6241,"蒋":6242,"蒐":6243,"蒔":6244,"蒙":6245,"蒜":6246,"蒯":6247,"蒲":6248,"蒴":6249,"蒸":6250,"蒺":6251,"蒼":6252,"蒽":6253,"蒿":6254,"蓄":6255,"蓉":6256,"蓋":6257,"蓓":6258,"蓝":6259,"蓟":6260,"蓦":6261,"蓬":6262,"蓮":6263,"蓼":6264,"蔑":6265,"蔓":6266,"蔗":6267,"蔚":6268,"蔡":6269,"蔣":6270,"蔥":6271,"蔬":6272,"蔭":6273,"蔵":6274,"蔷":6275,"蔺":6276,"蔻":6277,"蔼":6278,"蔽":6279,"蕃":6280,"蕅":6281,"蕉":6282,"蕊":6283,"蕎":6284,"蕖":6285,"蕙":6286,"蕞":6287,"蕤":6288,"蕨":6289,"蕩":6290,"蕪":6291,"蕭":6292,"蕲":6293,"蕴":6294,"蕾":6295,"薄":6296,"薇":6297,"薈":6298,"薙":6299,"薛":6300,"薤":6301,"薦":6302,"薨":6303,"薩":6304,"薪":6305,"薫":6306,"薬":6307,"薮":6308,"薯":6309,"薰":6310,"薺":6311,"藁":6312,"藉":6313,"藍":6314,"藏":6315,"藓":6316,"藔":6317,"藜":6318,"藝":6319,"藤":6320,"藥":6321,"藩":6322,"藪":6323,"藷":6324,"藻":6325,"蘂":6326,"蘄":6327,"蘆":6328,"蘇":6329,"蘊":6330,"蘋":6331,"蘑":6332,"蘩":6333,"蘭":6334,"蘸":6335,"蘿":6336,"虎":6337,"虏":6338,"虐":6339,"虑":6340,"虔":6341,"處":6342,"虗":6343,"虚":6344,"虛":6345,"虜":6346,"虞":6347,"號":6348,"虧":6349,"虫":6350,"虬":6351,"虱":6352,"虹":6353,"虻":6354,"虽":6355,"虾":6356,"蚀":6357,"蚁":6358,"蚂":6359,"蚊":6360,"蚌":6361,"蚕":6362,"蚜":6363,"蚝":6364,"蚣":6365,"蚤":6366,"蚩":6367,"蚬":6368,"蚵":6369,"蚶":6370,"蛄":6371,"蛇":6372,"蛉":6373,"蛊":6374,"蛋":6375,"蛍":6376,"蛎":6377,"蛏":6378,"蛙":6379,"蛛":6380,"蛞":6381,"蛟":6382,"蛤":6383,"蛭":6384,"蛮":6385,"蛳":6386,"蛻":6387,"蛾":6388,"蜀":6389,"蜂":6390,"蜃":6391,"蜆":6392,"蜈":6393,"蜉":6394,"蜊":6395,"蜒":6396,"蜓":6397,"蜕":6398,"蜗":6399,"蜘":6400,"蜚":6401,"蜜":6402,"蜡":6403,"蜥":6404,"蜴":6405,"蜻":6406,"蜿":6407,"蝇":6408,"蝉":6409,"蝋":6410,"蝎":6411,"蝓":6412,"蝕":6413,"蝗":6414,"蝙":6415,"蝠":6416,"蝣":6417,"蝥":6418,"蝦":6419,"蝰":6420,"蝴":6421,"蝶":6422,"螂":6423,"螃":6424,"融":6425,"螢":6426,"螨":6427,"螭":6428,"螳":6429,"螺":6430,"蟆":6431,"蟠":6432,"蟲":6433,"蟳":6434,"蟹":6435,"蟾":6436,"蠟":6437,"蠢":6438,"蠱":6439,"蠲":6440,"蠵":6441,"蠹":6442,"蠻":6443,"血":6444,"衅":6445,"衆":6446,"衊":6447,"行":6448,"衍":6449,"衎":6450,"術":6451,"衔":6452,"街":6453,"衙":6454,"衛":6455,"衝":6456,"衞":6457,"衡":6458,"衢":6459,"衣":6460,"补":6461,"表":6462,"衫":6463,"衬":6464,"衮":6465,"衰":6466,"衷":6467,"衾":6468,"衿":6469,"袁":6470,"袂":6471,"袅":6472,"袈":6473,"袋":6474,"袍":6475,"袒":6476,"袖":6477,"袜":6478,"袞":6479,"袤":6480,"被":6481,"袭":6482,"袱":6483,"袴":6484,"裁":6485,"裂":6486,"装":6487,"裏":6488,"裒":6489,"裔":6490,"裕":6491,"裘":6492,"裙":6493,"補":6494,"裝":6495,"裟":6496,"裡":6497,"裤":6498,"裨":6499,"裳":6500,"裴":6501,"裵":6502,"裸":6503,"裹":6504,"製":6505,"複":6506,"褐":6507,"褒":6508,"褓":6509,"褔":6510,"褚":6511,"褛":6512,"褥":6513,"褪":6514,"褫":6515,"褲":6516,"褶":6517,"褻":6518,"襁":6519,"襄":6520,"襟":6521,"襯":6522,"襲":6523,"襴":6524,"襷":6525,"西":6526,"要":6527,"覃":6528,"覆":6529,"覇":6530,"見":6531,"規":6532,"覓":6533,"視":6534,"覗":6535,"覚":6536,"覧":6537,"親":6538,"覲":6539,"観":6540,"覺":6541,"覽":6542,"觀":6543,"见":6544,"观":6545,"规":6546,"觅":6547,"视":6548,"览":6549,"觉":6550,"觊":6551,"觎":6552,"觐":6553,"觑":6554,"角":6555,"觞":6556,"解":6557,"触":6558,"觸":6559,"言":6560,"訂":6561,"訇":6562,"計":6563,"訊":6564,"訌":6565,"討":6566,"訓":6567,"訕":6568,"訖":6569,"託":6570,"記":6571,"訛":6572,"訝":6573,"訟":6574,"訣":6575,"訥":6576,"訪":6577,"設":6578,"許":6579,"訳":6580,"訴":6581,"訶":6582,"診":6583,"註":6584,"証":6585,"詈":6586,"詐":6587,"詔":6588,"評":6589,"詛":6590,"詞":6591,"詠":6592,"詡":6593,"詢":6594,"詣":6595,"試":6596,"詩":6597,"詫":6598,"詬":6599,"詭":6600,"詮":6601,"詰":6602,"話":6603,"該":6604,"詳":6605,"詹":6606,"誇":6607,"誉":6608,"誌":6609,"認":6610,"誑":6611,"誓":6612,"誕":6613,"誘":6614,"語":6615,"誠":6616,"誡":6617,"誣":6618,"誤":6619,"誥":6620,"誦":6621,"說":6622,"説":6623,"読":6624,"誰":6625,"課":6626,"誹":6627,"誼":6628,"誾":6629,"調":6630,"談":6631,"請":6632,"諍":6633,"諏":6634,"諒":6635,"論":6636,"諜":6637,"諡":6638,"諦":6639,"諧":6640,"諭":6641,"諮":6642,"諱":6643,"諷":6644,"諸":6645,"諾":6646,"謀":6647,"謁":6648,"謂":6649,"謊":6650,"謎":6651,"謐":6652,"謖":6653,"謗":6654,"謙":6655,"謚":6656,"講":6657,"謝":6658,"謠":6659,"謡":6660,"謨":6661,"謬":6662,"謳":6663,"謹":6664,"謾":6665,"證":6666,"譏":6667,"識":6668,"譚":6669,"譜":6670,"警":6671,"譬":6672,"譯":6673,"議":6674,"譲":6675,"譴":6676,"護":6677,"譽":6678,"讀":6679,"讃":6680,"讉":6681,"變":6682,"讐":6683,"讓":6684,"讖":6685,"讚":6686,"计":6687,"订":6688,"认":6689,"讥":6690,"讦":6691,"讧":6692,"讨":6693,"让":6694,"讪":6695,"讫":6696,"训":6697,"议":6698,"讯":6699,"记":6700,"讲":6701,"讳":6702,"讴":6703,"讵":6704,"讶":6705,"讷":6706,"许":6707,"讹":6708,"论":6709,"讼":6710,"讽":6711,"设":6712,"访":6713,"诀":6714,"证":6715,"诃":6716,"评":6717,"诅":6718,"识":6719,"诈":6720,"诉":6721,"诊":6722,"诋":6723,"词":6724,"诎":6725,"诏":6726,"译":6727,"诒":6728,"诔":6729,"试":6730,"诗":6731,"诘":6732,"诙":6733,"诚":6734,"诛":6735,"话":6736,"诞":6737,"诟":6738,"诠":6739,"诡":6740,"询":6741,"诣":6742,"诤":6743,"该":6744,"详":6745,"诧":6746,"诨":6747,"诩":6748,"诫":6749,"诬":6750,"语":6751,"误":6752,"诰":6753,"诱":6754,"诲":6755,"诳":6756,"说":6757,"诵":6758,"请":6759,"诸":6760,"诺":6761,"读":6762,"诽":6763,"课":6764,"诿":6765,"谁":6766,"调":6767,"谄":6768,"谅":6769,"谈":6770,"谊":6771,"谋":6772,"谌":6773,"谍":6774,"谎":6775,"谏":6776,"谐":6777,"谑":6778,"谒":6779,"谓":6780,"谔":6781,"谕":6782,"谗":6783,"谘":6784,"谙":6785,"谚":6786,"谛":6787,"谜":6788,"谟":6789,"谢":6790,"谣":6791,"谤":6792,"谥":6793,"谦":6794,"谨":6795,"谩":6796,"谪":6797,"谬":6798,"谭":6799,"谮":6800,"谯":6801,"谱":6802,"谲":6803,"谳":6804,"谴":6805,"谶":6806,"谷":6807,"谿":6808,"豀":6809,"豁":6810,"豆":6811,"豈":6812,"豉":6813,"豊":6814,"豎":6815,"豐":6816,"豕":6817,"豚":6818,"象":6819,"豢":6820,"豪":6821,"豫":6822,"豬":6823,"豲":6824,"豳":6825,"豹":6826,"貂":6827,"貉":6828,"貌":6829,"貒":6830,"貓":6831,"貘":6832,"貝":6833,"貞":6834,"負":6835,"財":6836,"貢":6837,"貧":6838,"貨":6839,"販":6840,"貪":6841,"貫":6842,"責":6843,"貯":6844,"貰":6845,"貳":6846,"貴":6847,"貶":6848,"買":6849,"貸":6850,"費":6851,"貼":6852,"貽":6853,"貿":6854,"賀":6855,"賂":6856,"賃":6857,"賄":6858,"資":6859,"賈":6860,"賊":6861,"賑":6862,"賓":6863,"賛":6864,"賜":6865,"賞":6866,"賠":6867,"賢":6868,"賣":6869,"賤":6870,"賦":6871,"質":6872,"賬":6873,"賭":6874,"賴":6875,"賺":6876,"購":6877,"賽":6878,"贄":6879,"贈":6880,"贊":6881,"贍":6882,"贏":6883,"贓":6884,"贖":6885,"贛":6886,"贝":6887,"贞":6888,"负":6889,"贡":6890,"财":6891,"责":6892,"贤":6893,"败":6894,"账":6895,"货":6896,"质":6897,"贩":6898,"贪":6899,"贫":6900,"贬":6901,"购":6902,"贮":6903,"贯":6904,"贰":6905,"贱":6906,"贲":6907,"贴":6908,"贵":6909,"贷":6910,"贸":6911,"费":6912,"贺":6913,"贻":6914,"贼":6915,"贽":6916,"贾":6917,"贿":6918,"赁":6919,"赂":6920,"赃":6921,"资":6922,"赈":6923,"赉":6924,"赋":6925,"赌":6926,"赎":6927,"赏":6928,"赐":6929,"赓":6930,"赔":6931,"赖":6932,"赘":6933,"赙":6934,"赚":6935,"赛":6936,"赞":6937,"赟":6938,"赠":6939,"赡":6940,"赢":6941,"赣":6942,"赤":6943,"赦":6944,"赧":6945,"赫":6946,"走":6947,"赴":6948,"赵":6949,"赶":6950,"起":6951,"趁":6952,"超":6953,"越":6954,"趋":6955,"趕":6956,"趙":6957,"趟":6958,"趣":6959,"趨":6960,"足":6961,"趴":6962,"趾":6963,"跃":6964,"跋":6965,"跌":6966,"跑":6967,"跗":6968,"跛":6969,"距":6970,"跟":6971,"跡":6972,"跤":6973,"跨":6974,"跪":6975,"路":6976,"跱":6977,"跳":6978,"践":6979,"跷":6980,"跸":6981,"跺":6982,"跻":6983,"踊":6984,"踌":6985,"踏":6986,"踐":6987,"踝":6988,"踞":6989,"踢":6990,"踣":6991,"踩":6992,"踪":6993,"踬":6994,"踴":6995,"踵":6996,"踹":6997,"蹂":6998,"蹄":6999,"蹈":7000,"蹋":7001,"蹑":7002,"蹕":7003,"蹙":7004,"蹟":7005,"蹤":7006,"蹦":7007,"蹩":7008,"蹬":7009,"蹲":7010,"蹴":7011,"蹶":7012,"躁":7013,"躄":7014,"躇":7015,"躊":7016,"躋":7017,"躍":7018,"躏":7019,"躙":7020,"躥":7021,"躪":7022,"身":7023,"躬":7024,"躯":7025,"躲":7026,"躺":7027,"軀":7028,"車":7029,"軋":7030,"軌":7031,"軍":7032,"軒":7033,"軔":7034,"軛":7035,"軟":7036,"転":7037,"軸":7038,"軼":7039,"軽":7040,"軾":7041,"較":7042,"載":7043,"輌":7044,"輒":7045,"輓":7046,"輔":7047,"輕":7048,"輛":7049,"輜":7050,"輝":7051,"輟":7052,"輥":7053,"輩":7054,"輪":7055,"輯":7056,"輸":7057,"輻":7058,"輾":7059,"輿":7060,"轂":7061,"轄":7062,"轅":7063,"轉":7064,"轍":7065,"轎":7066,"轟":7067,"车":7068,"轧":7069,"轨":7070,"轩":7071,"转":7072,"轭":7073,"轮":7074,"软":7075,"轰":7076,"轲":7077,"轴":7078,"轶":7079,"轹":7080,"轻":7081,"载":7082,"轿":7083,"辂":7084,"较":7085,"辄":7086,"辅":7087,"辆":7088,"辈":7089,"辉":7090,"辍":7091,"辎":7092,"辐":7093,"辑":7094,"输":7095,"辕":7096,"辖":7097,"辗":7098,"辙":7099,"辛":7100,"辜":7101,"辞":7102,"辟":7103,"辣":7104,"辦":7105,"辧":7106,"辨":7107,"辩":7108,"辫":7109,"辭":7110,"辯":7111,"辰":7112,"辱":7113,"農":7114,"边":7115,"辺":7116,"辻":7117,"込":7118,"辽":7119,"达":7120,"辿":7121,"迁":7122,"迂":7123,"迄":7124,"迅":7125,"过":7126,"迈":7127,"迎":7128,"运":7129,"近":7130,"返":7131,"还":7132,"这":7133,"进":7134,"远":7135,"违":7136,"连":7137,"迟":7138,"迤":7139,"迥":7140,"迦":7141,"迨":7142,"迩":7143,"迪":7144,"迫":7145,"迭":7146,"述":7147,"迳":7148,"迴":7149,"迷":7150,"迹":7151,"迺":7152,"追":7153,"退":7154,"送":7155,"适":7156,"逃":7157,"逅":7158,"逆":7159,"选":7160,"逊":7161,"逍":7162,"透":7163,"逐":7164,"递":7165,"逓":7166,"途":7167,"逕":7168,"逖":7169,"逗":7170,"這":7171,"通":7172,"逛":7173,"逝":7174,"逞":7175,"速":7176,"造":7177,"逢":7178,"連":7179,"逮":7180,"逯":7181,"週":7182,"進":7183,"逶":7184,"逸":7185,"逻":7186,"逼":7187,"逾":7188,"遁":7189,"遂":7190,"遅":7191,"遇":7192,"遊":7193,"運":7194,"遍":7195,"過":7196,"遏":7197,"遐":7198,"遑":7199,"道":7200,"達":7201,"違":7202,"遗":7203,"遙":7204,"遜":7205,"遞":7206,"遠":7207,"遡":7208,"遣":7209,"遥":7210,"適":7211,"遭":7212,"遮":7213,"遲":7214,"遴":7215,"遵":7216,"遷":7217,"選":7218,"遺":7219,"遼":7220,"遽":7221,"避":7222,"邀":7223,"邁":7224,"邂":7225,"邃":7226,"還":7227,"邇":7228,"邈":7229,"邊":7230,"邏":7231,"邑":7232,"邓":7233,"邕":7234,"邛":7235,"邝":7236,"邠":7237,"邢":7238,"那":7239,"邦":7240,"邨":7241,"邪":7242,"邬":7243,"邮":7244,"邯":7245,"邰":7246,"邱":7247,"邳":7248,"邵":7249,"邸":7250,"邹":7251,"邺":7252,"邻":7253,"邾":7254,"郁":7255,"郃":7256,"郊":7257,"郎":7258,"郑":7259,"郓":7260,"郗":7261,"郝":7262,"郞":7263,"郡":7264,"郦":7265,"郧":7266,"部":7267,"郭":7268,"郯":7269,"郴":7270,"郵":7271,"郷":7272,"郸":7273,"都":7274,"郾":7275,"郿":7276,"鄀":7277,"鄂":7278,"鄉":7279,"鄒":7280,"鄔":7281,"鄖":7282,"鄙":7283,"鄢":7284,"鄣":7285,"鄧":7286,"鄭":7287,"鄯":7288,"鄰":7289,"鄱":7290,"鄲":7291,"鄴":7292,"酈":7293,"酉":7294,"酊":7295,"酋":7296,"酌":7297,"配":7298,"酎":7299,"酒":7300,"酔":7301,"酗":7302,"酝":7303,"酢":7304,"酣":7305,"酥":7306,"酩":7307,"酪":7308,"酬":7309,"酮":7310,"酯":7311,"酰":7312,"酱":7313,"酵":7314,"酶":7315,"酷":7316,"酸":7317,"酿":7318,"醃":7319,"醇":7320,"醉":7321,"醋":7322,"醌":7323,"醍":7324,"醐":7325,"醒":7326,"醛":7327,"醜":7328,"醞":7329,"醤":7330,"醪":7331,"醫":7332,"醮":7333,"醯":7334,"醴":7335,"醸":7336,"釀":7337,"釁":7338,"采":7339,"釈":7340,"釉":7341,"释":7342,"釋":7343,"里":7344,"重":7345,"野":7346,"量":7347,"釐":7348,"金":7349,"釕":7350,"釗":7351,"釜":7352,"針":7353,"釣":7354,"釤":7355,"釩":7356,"釹":7357,"釿":7358,"鈉":7359,"鈍":7360,"鈔":7361,"鈕":7362,"鈞":7363,"鈡":7364,"鈣":7365,"鈦":7366,"鈮":7367,"鈴":7368,"鈾":7369,"鉀":7370,"鉄":7371,"鉅":7372,"鉉":7373,"鉏":7374,"鉛":7375,"鉤":7376,"鉦":7377,"鉭":7378,"鉱":7379,"鉴":7380,"鉻":7381,"銀":7382,"銃":7383,"銅":7384,"銓":7385,"銕":7386,"銖":7387,"銘":7388,"銜":7389,"銭":7390,"銮":7391,"銳":7392,"銷":7393,"鋁":7394,"鋅":7395,"鋒":7396,"鋕":7397,"鋤":7398,"鋪":7399,"鋭":7400,"鋰":7401,"鋲":7402,"鋳":7403,"鋸":7404,"鋼":7405,"錄":7406,"錆":7407,"錐":7408,"錘":7409,"錠":7410,"錢":7411,"錦":7412,"錫":7413,"錬":7414,"錮":7415,"錯":7416,"録":7417,"錳":7418,"錶":7419,"鍇":7420,"鍊":7421,"鍋":7422,"鍍":7423,"鍙":7424,"鍛":7425,"鍬":7426,"鍰":7427,"鍵":7428,"鍹":7429,"鍼":7430,"鍾":7431,"鎊":7432,"鎌":7433,"鎔":7434,"鎖":7435,"鎗":7436,"鎚":7437,"鎢":7438,"鎧":7439,"鎬":7440,"鎭":7441,"鎮":7442,"鏈":7443,"鏖":7444,"鏗":7445,"鏟":7446,"鏡":7447,"鏤":7448,"鏽":7449,"鐘":7450,"鐙":7451,"鐵":7452,"鐸":7453,"鑄":7454,"鑑":7455,"鑒":7456,"鑛":7457,"鑫":7458,"鑰":7459,"鑲":7460,"鑽":7461,"鑾":7462,"鑿":7463,"钇":7464,"针":7465,"钉":7466,"钊":7467,"钍":7468,"钏":7469,"钓":7470,"钕":7471,"钗":7472,"钙":7473,"钛":7474,"钜":7475,"钝":7476,"钞":7477,"钟":7478,"钢":7479,"钤":7480,"钥":7481,"钦":7482,"钧":7483,"钨":7484,"钩":7485,"钮":7486,"钰":7487,"钱":7488,"钳":7489,"钴":7490,"钵":7491,"钹":7492,"钺":7493,"钻":7494,"钾":7495,"铀":7496,"铁":7497,"铃":7498,"铄":7499,"铅":7500,"铎":7501,"铐":7502,"铖":7503,"铛":7504,"铜":7505,"铝":7506,"铟":7507,"铠":7508,"铢":7509,"铣":7510,"铧":7511,"铨":7512,"铬":7513,"铭":7514,"铮":7515,"铰":7516,"铱":7517,"铲":7518,"铳":7519,"铵":7520,"银":7521,"铸":7522,"铺":7523,"链":7524,"铿":7525,"销":7526,"锁":7527,"锂":7528,"锄":7529,"锅":7530,"锆":7531,"锈":7532,"锋":7533,"锌":7534,"锐":7535,"锑":7536,"错":7537,"锚":7538,"锛":7539,"锜":7540,"锡":7541,"锣":7542,"锤":7543,"锥":7544,"锦":7545,"锭":7546,"键":7547,"锯":7548,"锰":7549,"锲":7550,"锳":7551,"锴":7552,"锵":7553,"锷":7554,"锹":7555,"锺":7556,"锻":7557,"锾":7558,"镀":7559,"镁":7560,"镂":7561,"镇":7562,"镉":7563,"镌":7564,"镍":7565,"镑":7566,"镔":7567,"镕":7568,"镖":7569,"镗":7570,"镛":7571,"镜":7572,"镞":7573,"镫":7574,"镭":7575,"镰":7576,"镳":7577,"镶":7578,"長":7579,"长":7580,"門":7581,"閃":7582,"閉":7583,"開":7584,"閏":7585,"閒":7586,"間":7587,"閔":7588,"閖":7589,"閟":7590,"関":7591,"閣":7592,"閥":7593,"閨":7594,"閩":7595,"閱":7596,"閲":7597,"閻":7598,"閽":7599,"闆":7600,"闇":7601,"闊":7602,"闋":7603,"闓":7604,"闖":7605,"闘":7606,"關":7607,"闞":7608,"闡":7609,"闢":7610,"门":7611,"闩":7612,"闪":7613,"闭":7614,"问":7615,"闯":7616,"闰":7617,"闱":7618,"闲":7619,"间":7620,"闵":7621,"闷":7622,"闸":7623,"闹":7624,"闺":7625,"闻":7626,"闽":7627,"闾":7628,"阀":7629,"阁":7630,"阂":7631,"阅":7632,"阆":7633,"阇":7634,"阉":7635,"阎":7636,"阐":7637,"阑":7638,"阔":7639,"阖":7640,"阗":7641,"阙":7642,"阚":7643,"阜":7644,"队":7645,"阪":7646,"阮":7647,"阯":7648,"阱":7649,"防":7650,"阳":7651,"阴":7652,"阵":7653,"阶":7654,"阻":7655,"阼":7656,"阿":7657,"陀":7658,"陂":7659,"附":7660,"际":7661,"陆":7662,"陇":7663,"陈":7664,"陋":7665,"陌":7666,"降":7667,"限":7668,"陔":7669,"陕":7670,"陘":7671,"陛":7672,"陝":7673,"陞":7674,"陟":7675,"陡":7676,"院":7677,"陣":7678,"除":7679,"陥":7680,"陨":7681,"险":7682,"陪":7683,"陰":7684,"陲":7685,"陳":7686,"陵":7687,"陶":7688,"陷":7689,"陸":7690,"険":7691,"陽":7692,"隅":7693,"隆":7694,"隈":7695,"隊":7696,"隋":7697,"隍":7698,"階":7699,"随":7700,"隐":7701,"隔":7702,"隕":7703,"隘":7704,"隙":7705,"際":7706,"障":7707,"隠":7708,"隣":7709,"隧":7710,"隨":7711,"險":7712,"隰":7713,"隱":7714,"隴":7715,"隶":7716,"隷":7717,"隸":7718,"隻":7719,"隼":7720,"隽":7721,"难":7722,"雀":7723,"雁":7724,"雄":7725,"雅":7726,"集":7727,"雇":7728,"雉":7729,"雌":7730,"雍":7731,"雎":7732,"雏":7733,"雑":7734,"雒":7735,"雕":7736,"雖":7737,"雙":7738,"雛":7739,"雜":7740,"雞":7741,"雠":7742,"離":7743,"難":7744,"雨":7745,"雪":7746,"雯":7747,"雰":7748,"雲":7749,"雳":7750,"零":7751,"雷":7752,"雹":7753,"電":7754,"雾":7755,"需":7756,"霄":7757,"震":7758,"霈":7759,"霉":7760,"霊":7761,"霍":7762,"霏":7763,"霑":7764,"霓":7765,"霖":7766,"霜":7767,"霞":7768,"霧":7769,"霪":7770,"霰":7771,"露":7772,"霸":7773,"霹":7774,"霾":7775,"靄":7776,"靈":7777,"靑":7778,"青":7779,"靓":7780,"靖":7781,"静":7782,"靜":7783,"非":7784,"靠":7785,"靡":7786,"面":7787,"革":7788,"靳":7789,"靴":7790,"靶":7791,"靺":7792,"靼":7793,"鞄":7794,"鞆":7795,"鞋":7796,"鞍":7797,"鞏":7798,"鞑":7799,"鞘":7800,"鞜":7801,"鞠":7802,"鞣":7803,"鞨":7804,"鞭":7805,"韃":7806,"韋":7807,"韌":7808,"韓":7809,"韞":7810,"韡":7811,"韦":7812,"韧":7813,"韩":7814,"韫":7815,"韬":7816,"韭":7817,"音":7818,"韵":7819,"韶":7820,"韻":7821,"響":7822,"頁":7823,"頂":7824,"頃":7825,"項":7826,"順":7827,"須":7828,"頌":7829,"預":7830,"頑":7831,"頒":7832,"頓":7833,"頗":7834,"領":7835,"頜":7836,"頠":7837,"頭":7838,"頸":7839,"頹":7840,"頻":7841,"頼":7842,"顆":7843,"題":7844,"額":7845,"顎":7846,"顏":7847,"顔":7848,"顕":7849,"願":7850,"顛":7851,"類":7852,"顧":7853,"顫":7854,"顬":7855,"顯":7856,"顱":7857,"顳":7858,"页":7859,"顶":7860,"顷":7861,"项":7862,"顺":7863,"须":7864,"顽":7865,"顾":7866,"顿":7867,"颁":7868,"颂":7869,"预":7870,"颅":7871,"领":7872,"颇":7873,"颈":7874,"颉":7875,"颊":7876,"颍":7877,"颐":7878,"频":7879,"颓":7880,"颖":7881,"颗":7882,"题":7883,"颙":7884,"颜":7885,"额":7886,"颠":7887,"颡":7888,"颦":7889,"颧":7890,"風":7891,"颱":7892,"颳":7893,"颶":7894,"飄":7895,"飆":7896,"风":7897,"飒":7898,"飓":7899,"飘":7900,"飙":7901,"飛":7902,"飞":7903,"食":7904,"飡":7905,"飢":7906,"飪":7907,"飭":7908,"飯":7909,"飲":7910,"飼":7911,"飽":7912,"飾":7913,"餅":7914,"餉":7915,"養":7916,"餌":7917,"餐":7918,"餓":7919,"餘":7920,"餞":7921,"館":7922,"餬":7923,"餮":7924,"餵":7925,"餽":7926,"饅":7927,"饋":7928,"饌":7929,"饑":7930,"饒":7931,"饕":7932,"饗":7933,"饥":7934,"饨":7935,"饪":7936,"饫":7937,"饬":7938,"饭":7939,"饮":7940,"饯":7941,"饰":7942,"饱":7943,"饲":7944,"饴":7945,"饵":7946,"饶":7947,"饷":7948,"饺":7949,"饼":7950,"饿":7951,"馀":7952,"馁":7953,"馄":7954,"馆":7955,"馈":7956,"馏":7957,"馑":7958,"馒":7959,"首":7960,"香":7961,"馥":7962,"馨":7963,"馬":7964,"馮":7965,"馱":7966,"馳":7967,"馴":7968,"駁":7969,"駄":7970,"駅":7971,"駆":7972,"駐":7973,"駒":7974,"駕":7975,"駛":7976,"駝":7977,"駢":7978,"駭":7979,"駰":7980,"駱":7981,"駿":7982,"騎":7983,"騒":7984,"験":7985,"騙":7986,"騫":7987,"騭":7988,"騰":7989,"騷":7990,"驁":7991,"驃":7992,"驅":7993,"驊":7994,"驒":7995,"驕":7996,"驗":7997,"驚":7998,"驟":7999,"驢":8000,"驣":8001,"驤":8002,"驥":8003,"驪":8004,"马":8005,"驭":8006,"驮":8007,"驯":8008,"驰":8009,"驱":8010,"驳":8011,"驴":8012,"驶":8013,"驷":8014,"驸":8015,"驹":8016,"驻":8017,"驼":8018,"驾":8019,"驿":8020,"骁":8021,"骂":8022,"骄":8023,"骅":8024,"骆":8025,"骇":8026,"骈":8027,"骊":8028,"验":8029,"骏":8030,"骑":8031,"骗":8032,"骘":8033,"骚":8034,"骜":8035,"骞":8036,"骠":8037,"骡":8038,"骢":8039,"骤":8040,"骥":8041,"骧":8042,"骨":8043,"骶":8044,"骷":8045,"骸":8046,"骼":8047,"髂":8048,"髄":8049,"髅":8050,"髒":8051,"髓":8052,"體":8053,"高":8054,"髙":8055,"髢":8056,"髦":8057,"髪":8058,"髭":8059,"髮":8060,"髯":8061,"髻":8062,"鬃":8063,"鬆":8064,"鬍":8065,"鬘":8066,"鬚":8067,"鬟":8068,"鬣":8069,"鬥":8070,"鬧":8071,"鬪":8072,"鬮":8073,"鬱":8074,"鬻":8075,"鬼":8076,"魁":8077,"魂":8078,"魄":8079,"魅":8080,"魇":8081,"魍":8082,"魎":8083,"魏":8084,"魑":8085,"魔":8086,"魚":8087,"魯":8088,"鮎":8089,"鮑":8090,"鮭":8091,"鮮":8092,"鯉":8093,"鯨":8094,"鯱":8095,"鯽":8096,"鰭":8097,"鰱":8098,"鰲":8099,"鰹":8100,"鱅":8101,"鱗":8102,"鱥":8103,"鱲":8104,"鱷":8105,"鱼":8106,"鱿":8107,"鲁":8108,"鲂":8109,"鲆":8110,"鲇":8111,"鲈":8112,"鲍":8113,"鲎":8114,"鲑":8115,"鲔":8116,"鲗":8117,"鲛":8118,"鲜":8119,"鲟":8120,"鲤":8121,"鲨":8122,"鲱":8123,"鲳":8124,"鲷":8125,"鲸":8126,"鲽":8127,"鳅":8128,"鳌":8129,"鳍":8130,"鳎":8131,"鳕":8132,"鳞":8133,"鳢":8134,"鳥":8135,"鳧":8136,"鳩":8137,"鳳":8138,"鳴":8139,"鴉":8140,"鴎":8141,"鴕":8142,"鴛":8143,"鴦":8144,"鴨":8145,"鴻":8146,"鴿":8147,"鵄":8148,"鵑":8149,"鵓":8150,"鵜":8151,"鵝":8152,"鵬":8153,"鵰":8154,"鵲":8155,"鶏":8156,"鶯":8157,"鶴":8158,"鶻":8159,"鶿":8160,"鷄":8161,"鷖":8162,"鷗":8163,"鷲":8164,"鷹":8165,"鷺":8166,"鸕":8167,"鸛":8168,"鸞":8169,"鸟":8170,"鸠":8171,"鸡":8172,"鸢":8173,"鸣":8174,"鸥":8175,"鸦":8176,"鸩":8177,"鸭":8178,"鸮":8179,"鸯":8180,"鸳":8181,"鸵":8182,"鸽":8183,"鸿":8184,"鹃":8185,"鹅":8186,"鹉":8187,"鹊":8188,"鹏":8189,"鹗":8190,"鹘":8191,"鹜":8192,"鹤":8193,"鹦":8194,"鹨":8195,"鹫":8196,"鹬":8197,"鹭":8198,"鹰":8199,"鹵":8200,"鹼":8201,"鹽":8202,"鹿":8203,"麂":8204,"麈":8205,"麋":8206,"麒":8207,"麓":8208,"麗":8209,"麛":8210,"麝":8211,"麟":8212,"麥":8213,"麦":8214,"麵":8215,"麸":8216,"麻":8217,"麼":8218,"麽":8219,"麾":8220,"黃":8221,"黄":8222,"黉":8223,"黍":8224,"黎":8225,"黏":8226,"黐":8227,"黑":8228,"黒":8229,"黔":8230,"默":8231,"黙":8232,"黛":8233,"黜":8234,"點":8235,"黠":8236,"黥":8237,"黨":8238,"黩":8239,"黯":8240,"黴":8241,"鼎":8242,"鼐":8243,"鼓":8244,"鼠":8245,"鼩":8246,"鼬":8247,"鼯":8248,"鼱":8249,"鼹":8250,"鼻":8251,"齊":8252,"齋":8253,"齐":8254,"齒":8255,"齟":8256,"齡":8257,"齢":8258,"齬":8259,"齶":8260,"齿":8261,"龄":8262,"龈":8263,"龍":8264,"龐":8265,"龔":8266,"龕":8267,"龙":8268,"龚":8269,"龛":8270,"龜":8271,"龟":8272,"ꙗ":8273,"가":8274,"각":8275,"간":8276,"갇":8277,"갈":8278,"갉":8279,"감":8280,"갑":8281,"값":8282,"갓":8283,"갔":8284,"강":8285,"갖":8286,"같":8287,"갚":8288,"개":8289,"객":8290,"갠":8291,"갤":8292,"갱":8293,"걍":8294,"거":8295,"걱":8296,"건":8297,"걷":8298,"걸":8299,"검":8300,"겁":8301,"것":8302,"겉":8303,"게":8304,"겐":8305,"겔":8306,"겠":8307,"겨":8308,"격":8309,"겪":8310,"견":8311,"결":8312,"겸":8313,"겹":8314,"겼":8315,"경":8316,"곁":8317,"계":8318,"고":8319,"곡":8320,"곤":8321,"곧":8322,"골":8323,"곰":8324,"곱":8325,"곳":8326,"공":8327,"과":8328,"곽":8329,"관":8330,"괄":8331,"괌":8332,"광":8333,"괘":8334,"괜":8335,"괴":8336,"굉":8337,"교":8338,"구":8339,"국":8340,"군":8341,"굳":8342,"굴":8343,"굵":8344,"굶":8345,"굼":8346,"굽":8347,"굿":8348,"궁":8349,"권":8350,"궐":8351,"궤":8352,"귀":8353,"귄":8354,"규":8355,"균":8356,"그":8357,"극":8358,"근":8359,"글":8360,"금":8361,"급":8362,"긋":8363,"긍":8364,"기":8365,"긴":8366,"길":8367,"김":8368,"깁":8369,"깃":8370,"깊":8371,"까":8372,"깎":8373,"깐":8374,"깔":8375,"깝":8376,"깡":8377,"깥":8378,"깨":8379,"깬":8380,"깸":8381,"깼":8382,"꺼":8383,"꺾":8384,"껀":8385,"껌":8386,"껍":8387,"껏":8388,"께":8389,"껴":8390,"꼈":8391,"꼬":8392,"꼭":8393,"꼴":8394,"꼽":8395,"꽁":8396,"꽂":8397,"꽃":8398,"꽤":8399,"꾀":8400,"꾸":8401,"꾼":8402,"꿀":8403,"꿈":8404,"꿔":8405,"꿰":8406,"뀌":8407,"뀐":8408,"뀔":8409,"끄":8410,"끈":8411,"끊":8412,"끌":8413,"끓":8414,"끔":8415,"끝":8416,"끼":8417,"낀":8418,"낌":8419,"나":8420,"낙":8421,"낚":8422,"난":8423,"날":8424,"낡":8425,"남":8426,"납":8427,"낫":8428,"났":8429,"낭":8430,"낮":8431,"낯":8432,"낱":8433,"낳":8434,"내":8435,"낸":8436,"낼":8437,"냄":8438,"냅":8439,"냈":8440,"냉":8441,"냐":8442,"냥":8443,"너":8444,"넉":8445,"넋":8446,"넌":8447,"널":8448,"넓":8449,"넘":8450,"넣":8451,"네":8452,"넥":8453,"넨":8454,"넬":8455,"넴":8456,"넵":8457,"넷":8458,"녀":8459,"녁":8460,"년":8461,"념":8462,"녔":8463,"녕":8464,"노":8465,"녹":8466,"논":8467,"놀":8468,"놈":8469,"농":8470,"높":8471,"놓":8472,"뇌":8473,"뇨":8474,"뇽":8475,"누":8476,"눈":8477,"눌":8478,"눔":8479,"눕":8480,"눙":8481,"눠":8482,"뉘":8483,"뉜":8484,"뉴":8485,"늄":8486,"느":8487,"는":8488,"늘":8489,"늙":8490,"늠":8491,"능":8492,"늦":8493,"늪":8494,"늬":8495,"니":8496,"닉":8497,"닌":8498,"닐":8499,"님":8500,"닙":8501,"닛":8502,"닝":8503,"다":8504,"닥":8505,"닦":8506,"단":8507,"닫":8508,"달":8509,"닭":8510,"닮":8511,"담":8512,"답":8513,"당":8514,"닿":8515,"대":8516,"댁":8517,"댄":8518,"댈":8519,"댐":8520,"댔":8521,"댕":8522,"더":8523,"덕":8524,"던":8525,"덜":8526,"덟":8527,"덤":8528,"덥":8529,"덧":8530,"덩":8531,"덮":8532,"데":8533,"덱":8534,"덴":8535,"델":8536,"뎅":8537,"도":8538,"독":8539,"돈":8540,"돋":8541,"돌":8542,"돐":8543,"돔":8544,"돕":8545,"돗":8546,"동":8547,"돛":8548,"돼":8549,"됐":8550,"되":8551,"된":8552,"될":8553,"됨":8554,"됩":8555,"됭":8556,"두":8557,"둑":8558,"둔":8559,"둘":8560,"둠":8561,"둥":8562,"둬":8563,"뒀":8564,"뒤":8565,"뒷":8566,"뒹":8567,"듀":8568,"듈":8569,"듐":8570,"드":8571,"득":8572,"든":8573,"듣":8574,"들":8575,"듦":8576,"듬":8577,"듭":8578,"듯":8579,"등":8580,"디":8581,"딕":8582,"딘":8583,"딛":8584,"딜":8585,"딤":8586,"딧":8587,"딨":8588,"딩":8589,"딪":8590,"따":8591,"딱":8592,"딴":8593,"딷":8594,"딸":8595,"땄":8596,"땅":8597,"때":8598,"땐":8599,"땜":8600,"땟":8601,"떄":8602,"떠":8603,"떡":8604,"떤":8605,"떨":8606,"떫":8607,"떳":8608,"떻":8609,"떼":8610,"뗀":8611,"뗴":8612,"또":8613,"똑":8614,"똥":8615,"뚜":8616,"뚫":8617,"뚱":8618,"뛰":8619,"뜨":8620,"뜩":8621,"뜬":8622,"뜯":8623,"뜰":8624,"뜸":8625,"뜻":8626,"띄":8627,"띈":8628,"띠":8629,"띤":8630,"라":8631,"락":8632,"란":8633,"랄":8634,"람":8635,"랍":8636,"랏":8637,"랐":8638,"랑":8639,"랗":8640,"래":8641,"랙":8642,"랜":8643,"램":8644,"랩":8645,"랫":8646,"랭":8647,"략":8648,"량":8649,"러":8650,"럭":8651,"런":8652,"럴":8653,"럼":8654,"럽":8655,"럿":8656,"렀":8657,"렁":8658,"렇":8659,"레":8660,"렉":8661,"렌":8662,"렐":8663,"렘":8664,"렛":8665,"렝":8666,"려":8667,"력":8668,"련":8669,"렬":8670,"렴":8671,"렵":8672,"렷":8673,"렸":8674,"령":8675,"례":8676,"로":8677,"록":8678,"론":8679,"롤":8680,"롬":8681,"롭":8682,"롯":8683,"롱":8684,"뢰":8685,"료":8686,"룡":8687,"루":8688,"룩":8689,"룬":8690,"룰":8691,"룸":8692,"룹":8693,"룻":8694,"룽":8695,"뤄":8696,"뤘":8697,"뤠":8698,"뤼":8699,"류":8700,"륙":8701,"륜":8702,"률":8703,"륨":8704,"륭":8705,"르":8706,"륵":8707,"른":8708,"를":8709,"름":8710,"릅":8711,"릇":8712,"릉":8713,"릎":8714,"리":8715,"릭":8716,"린":8717,"릴":8718,"림":8719,"립":8720,"릿":8721,"링":8722,"마":8723,"막":8724,"만":8725,"많":8726,"맏":8727,"말":8728,"맑":8729,"맘":8730,"맙":8731,"맛":8732,"망":8733,"맞":8734,"맡":8735,"매":8736,"맥":8737,"맨":8738,"맵":8739,"맷":8740,"맹":8741,"맺":8742,"먀":8743,"머":8744,"먹":8745,"먼":8746,"멀":8747,"멈":8748,"멋":8749,"멍":8750,"메":8751,"멘":8752,"멜":8753,"멤":8754,"멩":8755,"며":8756,"멱":8757,"면":8758,"멸":8759,"몄":8760,"명":8761,"몇":8762,"모":8763,"목":8764,"몬":8765,"몰":8766,"몸":8767,"몹":8768,"못":8769,"몽":8770,"뫼":8771,"묘":8772,"묫":8773,"무":8774,"묵":8775,"묶":8776,"문":8777,"묻":8778,"물":8779,"뭄":8780,"뭇":8781,"뭉":8782,"뭐":8783,"뭔":8784,"뮈":8785,"뮌":8786,"뮤":8787,"뮴":8788,"므":8789,"미":8790,"믹":8791,"민":8792,"믿":8793,"밀":8794,"밈":8795,"밍":8796,"및":8797,"밑":8798,"바":8799,"박":8800,"밖":8801,"반":8802,"받":8803,"발":8804,"밝":8805,"밟":8806,"밤":8807,"밥":8808,"밧":8809,"방":8810,"밭":8811,"배":8812,"백":8813,"밴":8814,"밸":8815,"뱀":8816,"뱃":8817,"뱅":8818,"버":8819,"벅":8820,"번":8821,"벌":8822,"범":8823,"법":8824,"벗":8825,"베":8826,"벡":8827,"벤":8828,"벨":8829,"벰":8830,"벳":8831,"벵":8832,"벼":8833,"벽":8834,"변":8835,"별":8836,"볍":8837,"볏":8838,"병":8839,"볕":8840,"볜":8841,"보":8842,"복":8843,"볶":8844,"본":8845,"볼":8846,"봄":8847,"봅":8848,"봉":8849,"봐":8850,"봤":8851,"뵈":8852,"부":8853,"북":8854,"분":8855,"불":8856,"붉":8857,"붐":8858,"붓":8859,"붕":8860,"붙":8861,"뷔":8862,"뷰":8863,"븀":8864,"브":8865,"븐":8866,"블":8867,"비":8868,"빅":8869,"빈":8870,"빌":8871,"빔":8872,"빗":8873,"빙":8874,"빚":8875,"빛":8876,"빠":8877,"빨":8878,"빵":8879,"빼":8880,"빽":8881,"뺀":8882,"뺌":8883,"뺏":8884,"뻐":8885,"뻔":8886,"뻗":8887,"뼈":8888,"뽑":8889,"뾰":8890,"뿌":8891,"뿐":8892,"뿔":8893,"뿜":8894,"쁘":8895,"쁜":8896,"사":8897,"삭":8898,"산":8899,"살":8900,"삶":8901,"삼":8902,"삽":8903,"삿":8904,"샀":8905,"상":8906,"새":8907,"색":8908,"샌":8909,"샐":8910,"샘":8911,"샛":8912,"생":8913,"샤":8914,"샨":8915,"샬":8916,"샵":8917,"샷":8918,"샹":8919,"서":8920,"석":8921,"섞":8922,"선":8923,"설":8924,"섬":8925,"섭":8926,"섯":8927,"섰":8928,"성":8929,"세":8930,"센":8931,"셀":8932,"셈":8933,"셉":8934,"셋":8935,"셔":8936,"션":8937,"셜":8938,"셨":8939,"셰":8940,"셸":8941,"솅":8942,"소":8943,"속":8944,"손":8945,"솔":8946,"솜":8947,"솟":8948,"송":8949,"솥":8950,"쇄":8951,"쇠":8952,"쇼":8953,"숍":8954,"수":8955,"숙":8956,"순":8957,"술":8958,"숨":8959,"숫":8960,"숭":8961,"숱":8962,"숲":8963,"쉐":8964,"쉬":8965,"쉽":8966,"슈":8967,"슐":8968,"슘":8969,"스":8970,"슨":8971,"슬":8972,"슭":8973,"슴":8974,"습":8975,"슷":8976,"승":8977,"시":8978,"식":8979,"신":8980,"싣":8981,"실":8982,"싫":8983,"심":8984,"십":8985,"싯":8986,"싱":8987,"싶":8988,"싸":8989,"싹":8990,"싼":8991,"쌀":8992,"쌈":8993,"쌌":8994,"쌍":8995,"쌓":8996,"써":8997,"썩":8998,"썸":8999,"썼":9000,"썽":9001,"쏘":9002,"쏙":9003,"쏟":9004,"쏠":9005,"쏭":9006,"쐐":9007,"쑤":9008,"쑥":9009,"쓰":9010,"쓴":9011,"쓸":9012,"씀":9013,"씨":9014,"씩":9015,"씬":9016,"씻":9017,"아":9018,"악":9019,"안":9020,"앉":9021,"않":9022,"알":9023,"앎":9024,"앓":9025,"암":9026,"압":9027,"앗":9028,"았":9029,"앙":9030,"앞":9031,"애":9032,"액":9033,"앤":9034,"앨":9035,"앰":9036,"앳":9037,"앵":9038,"야":9039,"약":9040,"얀":9041,"얄":9042,"얇":9043,"양":9044,"얘":9045,"어":9046,"억":9047,"언":9048,"얹":9049,"얻":9050,"얼":9051,"얽":9052,"엄":9053,"업":9054,"없":9055,"엇":9056,"었":9057,"엉":9058,"엌":9059,"엎":9060,"에":9061,"엑":9062,"엔":9063,"엘":9064,"엡":9065,"엣":9066,"엥":9067,"여":9068,"역":9069,"엮":9070,"연":9071,"열":9072,"염":9073,"엽":9074,"엾":9075,"엿":9076,"였":9077,"영":9078,"옆":9079,"예":9080,"옌":9081,"옐":9082,"옙":9083,"옛":9084,"오":9085,"옥":9086,"온":9087,"올":9088,"옮":9089,"옳":9090,"옴":9091,"옵":9092,"옷":9093,"옹":9094,"옻":9095,"와":9096,"완":9097,"왈":9098,"왓":9099,"왔":9100,"왕":9101,"왜":9102,"외":9103,"왼":9104,"요":9105,"욕":9106,"욘":9107,"욧":9108,"용":9109,"우":9110,"욱":9111,"운":9112,"울":9113,"움":9114,"웁":9115,"웃":9116,"웅":9117,"워":9118,"원":9119,"월":9120,"웜":9121,"웠":9122,"웨":9123,"웬":9124,"웰":9125,"웸":9126,"웹":9127,"위":9128,"윈":9129,"윌":9130,"윗":9131,"윙":9132,"유":9133,"육":9134,"윤":9135,"율":9136,"융":9137,"으":9138,"윽":9139,"은":9140,"을":9141,"읊":9142,"음":9143,"읍":9144,"응":9145,"의":9146,"이":9147,"익":9148,"인":9149,"일":9150,"읽":9151,"잃":9152,"임":9153,"입":9154,"잇":9155,"있":9156,"잉":9157,"잎":9158,"자":9159,"작":9160,"잔":9161,"잖":9162,"잘":9163,"잠":9164,"잡":9165,"잣":9166,"잤":9167,"장":9168,"잦":9169,"재":9170,"잭":9171,"잼":9172,"쟁":9173,"쟈":9174,"저":9175,"적":9176,"전":9177,"절":9178,"젊":9179,"점":9180,"접":9181,"젓":9182,"젔":9183,"정":9184,"젖":9185,"제":9186,"젝":9187,"젠":9188,"젤":9189,"젯":9190,"져":9191,"젼":9192,"졌":9193,"조":9194,"족":9195,"존":9196,"졶":9197,"졸":9198,"좀":9199,"좁":9200,"종":9201,"좋":9202,"좌":9203,"죄":9204,"죠":9205,"주":9206,"죽":9207,"준":9208,"줄":9209,"줌":9210,"줏":9211,"중":9212,"줘":9213,"줬":9214,"쥐":9215,"쥬":9216,"즈":9217,"즉":9218,"즌":9219,"즐":9220,"즘":9221,"즙":9222,"증":9223,"지":9224,"직":9225,"진":9226,"질":9227,"짐":9228,"집":9229,"짓":9230,"징":9231,"짖":9232,"짙":9233,"짚":9234,"짜":9235,"짝":9236,"짠":9237,"짦":9238,"짧":9239,"짱":9240,"째":9241,"쨌":9242,"쩌":9243,"쩍":9244,"쩐":9245,"쩔":9246,"쩡":9247,"쪄":9248,"쪼":9249,"쪽":9250,"쫒":9251,"쫓":9252,"쭈":9253,"쭉":9254,"쯔":9255,"쯤":9256,"찌":9257,"찍":9258,"찔":9259,"찜":9260,"차":9261,"착":9262,"찬":9263,"찮":9264,"찰":9265,"참":9266,"찻":9267,"찼":9268,"창":9269,"찾":9270,"채":9271,"책":9272,"챈":9273,"챌":9274,"챔":9275,"챘":9276,"챙":9277,"처":9278,"척":9279,"천":9280,"철":9281,"첨":9282,"첩":9283,"첫":9284,"청":9285,"체":9286,"첸":9287,"첼":9288,"쳇":9289,"쳐":9290,"쳤":9291,"초":9292,"촉":9293,"촌":9294,"촐":9295,"촘":9296,"총":9297,"촨":9298,"촬":9299,"최":9300,"쵸":9301,"추":9302,"축":9303,"춘":9304,"출":9305,"춤":9306,"충":9307,"춰":9308,"췌":9309,"취":9310,"츄":9311,"츠":9312,"측":9313,"츰":9314,"층":9315,"치":9316,"칙":9317,"친":9318,"칠":9319,"침":9320,"칩":9321,"칭":9322,"카":9323,"칵":9324,"칸":9325,"칼":9326,"캄":9327,"캇":9328,"캉":9329,"캐":9330,"캔":9331,"캘":9332,"캠":9333,"캡":9334,"커":9335,"컨":9336,"컫":9337,"컬":9338,"컴":9339,"컵":9340,"컷":9341,"컸":9342,"케":9343,"켄":9344,"켈":9345,"켓":9346,"켜":9347,"켰":9348,"코":9349,"콕":9350,"콘":9351,"콜":9352,"콤":9353,"콥":9354,"콧":9355,"콩":9356,"콰":9357,"쾅":9358,"쾌":9359,"쾨":9360,"쾰":9361,"쿄":9362,"쿠":9363,"쿨":9364,"쿰":9365,"쿼":9366,"퀘":9367,"퀴":9368,"퀸":9369,"큐":9370,"큘":9371,"크":9372,"큰":9373,"클":9374,"큼":9375,"키":9376,"킥":9377,"킨":9378,"킬":9379,"킴":9380,"킵":9381,"킷":9382,"킹":9383,"타":9384,"탁":9385,"탄":9386,"탈":9387,"탐":9388,"탑":9389,"탓":9390,"탕":9391,"태":9392,"택":9393,"탠":9394,"탤":9395,"탬":9396,"탱":9397,"터":9398,"턱":9399,"턴":9400,"털":9401,"텀":9402,"테":9403,"텍":9404,"텐":9405,"텔":9406,"템":9407,"텝":9408,"텟":9409,"톈":9410,"토":9411,"톡":9412,"톤":9413,"톨":9414,"톰":9415,"톱":9416,"통":9417,"퇴":9418,"툇":9419,"툠":9420,"투":9421,"툭":9422,"툴":9423,"툼":9424,"퉁":9425,"퉈":9426,"튀":9427,"튜":9428,"튠":9429,"트":9430,"특":9431,"튼":9432,"튿":9433,"틀":9434,"틈":9435,"틋":9436,"티":9437,"틱":9438,"틴":9439,"틸":9440,"팀":9441,"팁":9442,"팅":9443,"파":9444,"팍":9445,"팎":9446,"판":9447,"팔":9448,"팜":9449,"팝":9450,"팟":9451,"팠":9452,"팡":9453,"팥":9454,"패":9455,"팩":9456,"팬":9457,"팰":9458,"팽":9459,"퍼":9460,"펀":9461,"펄":9462,"펌":9463,"펑":9464,"페":9465,"펙":9466,"펜":9467,"펠":9468,"펫":9469,"펭":9470,"펴":9471,"편":9472,"펼":9473,"폄":9474,"폈":9475,"평":9476,"폐":9477,"포":9478,"폭":9479,"폰":9480,"폴":9481,"폼":9482,"퐁":9483,"표":9484,"푸":9485,"푹":9486,"푼":9487,"풀":9488,"품":9489,"풍":9490,"퓌":9491,"퓨":9492,"퓰":9493,"프":9494,"픈":9495,"플":9496,"픔":9497,"피":9498,"픽":9499,"핀":9500,"필":9501,"핍":9502,"핏":9503,"핑":9504,"하":9505,"학":9506,"한":9507,"할":9508,"함":9509,"합":9510,"핫":9511,"항":9512,"해":9513,"핵":9514,"햄":9515,"햇":9516,"했":9517,"행":9518,"햋":9519,"햐":9520,"햔":9521,"햘":9522,"향":9523,"허":9524,"헌":9525,"헐":9526,"험":9527,"헛":9528,"헝":9529,"헤":9530,"헥":9531,"헨":9532,"헬":9533,"헴":9534,"혀":9535,"혁":9536,"현":9537,"혈":9538,"혐":9539,"협":9540,"혔":9541,"형":9542,"혜":9543,"호":9544,"혹":9545,"혼":9546,"홀":9547,"홈":9548,"홉":9549,"홍":9550,"화":9551,"확":9552,"환":9553,"활":9554,"황":9555,"회":9556,"획":9557,"횟":9558,"횡":9559,"효":9560,"후":9561,"훅":9562,"훈":9563,"훌":9564,"훔":9565,"훗":9566,"훨":9567,"훼":9568,"휄":9569,"휘":9570,"휠":9571,"휩":9572,"휴":9573,"휼":9574,"흄":9575,"흉":9576,"흐":9577,"흑":9578,"흔":9579,"흘":9580,"흙":9581,"흠":9582,"흡":9583,"흥":9584,"흩":9585,"희":9586,"흰":9587,"히":9588,"힌":9589,"힐":9590,"힘":9591,"힙":9592,"힛":9593,"힝":9594,"":9595,"ﬁ":9596,"﴾":9597,"﴿":9598,"ﷲ":9599,"︤":9600,"︥":9601,"︦":9602,"︰":9603,"﹐":9604,"﹑":9605,"﹒":9606,"﹔":9607,"﹕":9608,"﹚":9609,"﹝":9610,"﹞":9611,"！":9612,"＂":9613,"％":9614,"＆":9615,"（":9616,"）":9617,"＊":9618,"＋":9619,"，":9620,"－":9621,"．":9622,"／":9623,"０":9624,"１":9625,"２":9626,"３":9627,"４":9628,"５":9629,"６":9630,"７":9631,"９":9632,"：":9633,"；":9634,"＜":9635,"＝":9636,"＞":9637,"？":9638,"Ａ":9639,"Ｂ":9640,"Ｆ":9641,"Ｉ":9642,"Ｊ":9643,"Ｌ":9644,"Ｒ":9645,"Ｔ":9646,"Ｖ":9647,"Ｗ":9648,"Ｙ":9649,"［":9650,"］":9651,"ｃ":9652,"ｌ":9653,"ｍ":9654,"ｏ":9655,"ｒ":9656,"ｔ":9657,"～":9658,"｢":9659,"｣":9660,"､":9661,"･":9662,"ｰ":9663,"￥":9664,"￼":9665,"💫":9666,"🞬":9667,"𠵼":9668,"𡒉":9669,"𦛨":9670,"𦻼":9671,"𩾃":9672,"𪡏":9673,"𫏋":9674,"𬀩":9675,"𬘡":9676,"𬞟":9677,"𬣙":9678,"𬬮":9679,"er":9680,"en":9681,"in":9682,"on":9683,"an":9684,"es":9685,"de":9686,"ar":9687,"th":9688,"al":9689,"or":9690,"at":9691,"ch":9692,"is":9693,"ال":9694,"re":9695,"as":9696,"it":9697,"un":9698,"la":9699,"the":9700,"le":9701,"te":9702,"di":9703,"el":9704,"to":9705,"ro":9706,"ti":9707,"ur":9708,"and":9709,"co":9710,"il":9711,"ed":9712,"ion":9713,"os":9714,"ent":9715,"us":9716,"of":9717,"ic":9718,"qu":9719,"am":9720,"ing":9721,"ad":9722,"et":9723,"con":9724,"ri":9725,"st":9726,"se":9727,"ol":9728,"ci":9729,"ra":9730,"li":9731,"19":9732,"ter":9733,"si":9734,"der":9735,"ta":9736,"he":9737,"20":9738,"del":9739,"me":9740,"au":9741,"ver":9742,"ce":9743,"su":9744,"mp":9745,"for":9746,"ge":9747,"res":9748,"be":9749,"lo":9750,"per":9751,"par":9752,"ma":9753,"ve":9754,"des":9755,"so":9756,"ان":9757,"ir":9758,"ac":9759,"no":9760,"ut":9761,"pro":9762,"ation":9763,"und":9764,"ne":9765,"que":9766,"ig":9767,"ab":9768,"ie":9769,"do":9770,"ul":9771,"po":9772,"mo":9773,"che":9774,"на":9775,"في":9776,"est":9777,"ist":9778,"den":9779,"من":9780,"ية":9781,"ment":9782,"ten":9783,"vi":9784,"du":9785,"ag":9786,"ст":9787,"ap":9788,"ine":9789,"was":9790,"ber":9791,"ار":9792,"الم":9793,"all":9794,"um":9795,"io":9796,"hi":9797,"pe":9798,"les":9799,"The":9800,"ات":9801,"tr":9802,"ere":9803,"ant":9804,"In":9805,"om":9806,"ung":9807,"ни":9808,"por":9809,"ia":9810,"die":9811,"da":9812,"are":9813,"son":9814,"wi":9815,"ра":9816,"im":9817,"201":9818,"ام":9819,"00":9820,"ين":9821,"tion":9822,"ente":9823,"ale":9824,"ها":9825,"ко":9826,"ho":9827,"man":9828,"gen":9829,"ni":9830,"но":9831,"ón":9832,"ро":9833,"ex":9834,"los":9835,"18":9836,"sch":9837,"ue":9838,"ff":9839,"with":9840,"200":9841,"ran":9842,"را":9843,"ly":9844,"ate":9845,"tra":9846,"com":9847,"ва":9848,"ug":9849,"pr":9850,"ans":9851,"cu":9852,"ре":9853,"we":9854,"عل":9855,"ست":9856,"hr":9857,"ato":9858,"ca":9859,"ول":9860,"zion":9861,"ck":9862,"ts":9863,"las":9864,"by":9865,"ces":9866,"ru":9867,"по":9868,"gi":9869,"то":9870,"una":9871,"ser":9872,"ون":9873,"ali":9874,"ers":9875,"na":9876,"الأ":9877,"ha":9878,"that":9879,"та":9880,"vo":9881,"ein":9882,"nel":9883,"tor":9884,"va":9885,"comp":9886,"го":9887,"ри":9888,"الت":9889,"ما":9890,"pos":9891,"ли":9892,"pu":9893,"lu":9894,"id":9895,"ati":9896,"his":9897,"ven":9898,"cor":9899,"tro":9900,"sa":9901,"op":9902,"men":9903,"mer":9904,"pi":9905,"La":9906,"En":9907,"ور":9908,"ted":9909,"اد":9910,"mit":9911,"go":9912,"rit":9913,"ка":9914,"),":9915,"chen":9916,"fe":9917,"rom":9918,"min":9919,"ay":9920,"bi":9921,"ción":9922,"ano":9923,"pres":9924,"те":9925,"fin":9926,"Le":9927,"در":9928,"za":9929,"ke":9930,"mb":9931,"von":9932,").":9933,"pre":9934,"pl":9935,"St":9936,"mi":9937,"ard":9938,"ica":9939,"во":9940,"pri":9941,"ther":9942,"zione":9943,"gu":9944,"une":9945,"bo":9946,"An":9947,"ен":9948,"Re":9949,"وا":9950,"ity":9951,"ich":9952,"ct":9953,"pa":9954,"from":9955,"qui":9956,"ير":9957,"mon":9958,"gr":9959,"ado":9960,"mar":9961,"Al":9962,"ass":9963,"ore":9964,"за":9965,"ach":9966,"end":9967,"ure":9968,"tre":9969,"ill":9970,"الع":9971,"ки":9972,"ла":9973,"لا":9974,"ata":9975,"dem":9976,"ou":9977,"199":9978,"dé":9979,"gli":9980,"wo":9981,"one":9982,"sion":9983,"inter":9984,"dis":9985,"her":9986,"della":9987,"car":9988,"col":9989,"ite":9990,"als":9991,"ici":9992,"fi":9993,"olo":9994,"ze":9995,"اب":9996,"bl":9997,"fa":9998,"Mar":9999,"vis":10000,"ré":10001,"не":10002,"up":10003,"ви":10004,"ía":10005,"أن":10006,"да":10007,"ود":10008,"fer":10009,"ти":10010,"ste":10011,"Se":10012,"ле":10013,"whi":10014,"بر":10015,"ло":10016,"De":10017,"ang":10018,"ies":10019,"ear":10020,"Ch":10021,"ante":10022,"ann":10023,"Ar":10024,"era":10025,"ell":10026,"ction":10027,"على":10028,"use":10029,"عد":10030,"af":10031,"és":10032,"ud":10033,"ando":10034,"cas":10035,"وم":10036,"aus":10037,"17":10038,"10":10039,"zu":10040,"با":10041,"Sch":10042,"ins":10043,"auf":10044,"كان":10045,"its":10046,"were":10047,"до":10048,"dur":10049,"pla":10050,"ded":10051,"ated":10052,"ма":10053,"imp":10054,"Il":10055,"ish":10056,"sen":10057,"ري":10058,"ht":10059,"inc":10060,"wor":10061,"ire":10062,"vel":10063,"mis":10064,"our":10065,"war":10066,"ند":10067,"fü":10068,"وال":10069,"cam":10070,"ition":10071,"tri":10072,"ль":10073,"15":10074,"ren":10075,"ве":10076,"لل":10077,"wur":10078,"ina":10079,"ese":10080,"wn":10081,"ben":10082,"به":10083,"Ro":10084,"ll":10085,"ong":10086,"ort":10087,"ada":10088,"das":10089,"tur":10090,"alle":10091,"vol":10092,"ble":10093,"ди":10094,"ien":10095,"hn":10096,"مع":10097,"ris":10098,"إل":10099,"ми":10100,"which":10101,"form":10102,"ques":10103,"се":10104,"wer":10105,"wh":10106,"iz":10107,"cia":10108,"الح":10109,"ph":10110,"El":10111,"alla":10112,"eine":10113,"الق":10114,"ای":10115,"can":10116,"ari":10117,"يا":10118,"Un":10119,"sur":10120,"té":10121,"fic":10122,"je":10123,"He":10124,"av":10125,"ges":10126,"itu":10127,"vers":10128,"Ne":10129,"16":10130,"ater":10131,"هم":10132,"ier":10133,"ob":10134,"نا":10135,"12":10136,"ary":10137,"pol":10138,"يد":10139,"reg":10140,"dans":10141,"198":10142,"land":10143,"ain":10144,"out":10145,"194":10146,"ally":10147,"ess":10148,"parti":10149,"الس":10150,"يل":10151,"cre":10152,"bu":10153,"وس":10154,"ric":10155,"ori":10156,"ger":10157,"Co":10158,"ton":10159,"از":10160,"gan":10161,"don":10162,"Be":10163,"ales":10164,"ding":10165,"197":10166,"gra":10167,"mber":10168,"ations":10169,"وق":10170,"cent":10171,"إلى":10172,"Par":10173,"but":10174,"ot":10175,"has":10176,"است":10177,"cer":10178,"para":10179,"لك":10180,"mente":10181,"от":10182,"bre":10183,"not":10184,"де":10185,"pour":10186,"ée":10187,"ba":10188,"sp":10189,"had":10190,"ty":10191,"urs":10192,".​":10193,"مر":10194,"ene":10195,"ind":10196,"od":10197,"II":10198,"fu":10199,"cht":10200,"oc":10201,"يم":10202,"الب":10203,"شر":10204,"fir":10205,"Con":10206,"تر":10207,"سب":10208,"196":10209,"ave":10210,"الج":10211,"port":10212,"ito":10213,"wurde":10214,"also":10215,"non":10216,"iti":10217,"الإ":10218,"Die":10219,"ischen":10220,"ento":10221,"ме":10222,"met":10223,"gro":10224,"ved":10225,"elle":10226,"age":10227,"sich":10228,"Ge":10229,"leg":10230,"13":10231,"14":10232,"ak":10233,"amente":10234,"tes":10235,"como":10236,"tin":10237,"000":10238,"tu":10239,"ice":10240,"ائ":10241,"ors":10242,"fo":10243,"ame":10244,"cul":10245,"تم":10246,"fr":10247,"حد":10248,"ord":10249,"ero":10250,"وب":10251,"lie":10252,"come":10253,"emp":10254,"pen":10255,"че":10256,"fil":10257,"ise":10258,"bas":10259,"195":10260,"می":10261,"mes":10262,"ost":10263,"stru":10264,"soci":10265,"ves":10266,"jo":10267,"ance":10268,"produ":10269,"vor":10270,"their":10271,"ai":10272,"sol":10273,"für":10274,"Ver":10275,"ced":10276,"ino":10277,"пе":10278,"temp":10279,"art":10280,"sig":10281,"chi":10282,"cal":10283,"ok":10284,"мо":10285,"مل":10286,"ele":10287,"ux":10288,"part":10289,"..":10290,"anti":10291,"ча":10292,"ні":10293,"Ja":10294,"وج":10295,"lar":10296,"Pro":10297,"وت":10298,"dell":10299,"zz":10300,"ру":10301,"low":10302,"Er":10303,"си":10304,"pas":10305,"lich":10306,"ста":10307,"rie":10308,"It":10309,"uld":10310,"Fran":10311,"رب":10312,"cap":10313,"vent":10314,"11":10315,"193":10316,"عام":10317,"led":10318,"عة":10319,"Th":10320,"ня":10321,"про":10322,"én":10323,"ft":10324,"uni":10325,"mil":10326,"ita":10327,"first":10328,"br":10329,"mbre":10330,"بل":10331,"esta":10332,"сь":10333,"year":10334,"ono":10335,"وي":10336,"dei":10337,"الن":10338,"فر":10339,"Ho":10340,"spe":10341,"ás":10342,"udi":10343,"vil":10344,"amp":10345,"الد":10346,"ational":10347,"aux":10348,"mat":10349,"uro":10350,"ner":10351,"ses":10352,"الك":10353,"ità":10354,"sie":10355,"ms":10356,"let":10357,"bor":10358,"mus":10359,"dos":10360,"قد":10361,"لم":10362,"ry":10363,"lan":10364,"ree":10365,"ля":10366,"So":10367,"ві":10368,"val":10369,"ugh":10370,"work":10371,"ont":10372,"اف":10373,"ast":10374,"sy":10375,"bei":10376,"int":10377,"mu":10378,"عن":10379,"ку":10380,"fol":10381,"ign":10382,"sus":10383,"ся":10384,"enti":10385,"hab":10386,"have":10387,"ци":10388,"tos":10389,"ack":10390,"Au":10391,"ana":10392,"än":10393,"ence":10394,"sc":10395,"об":10396,"who":10397,"pon":10398,"ère":10399,"ga":10400,"ical":10401,"Car":10402,"cti":10403,"ны":10404,"حت":10405,"inclu":10406,"able":10407,"over":10408,"this":10409,"tel":10410,"dire":10411,"سا":10412,"iones":10413,"25":10414,"па":10415,"ern":10416,"person":10417,"medi":10418,"red":10419,"parte":10420,"bes":10421,"га":10422,"30":10423,"cip":10424,"bur":10425,"cos":10426,"ски":10427,"indi":10428,"bar":10429,"gio":10430,"ool":10431,"igh":10432,"blic":10433,"set":10434,"لي":10435,"plus":10436,"bis":10437,"hen":10438,"aff":10439,"entre":10440,"ili":10441,"هذ":10442,"\".":10443,"über":10444,"off":10445,"serv":10446,"ér":10447,"under":10448,"سم":10449,"hl":10450,"olog":10451,"been":10452,"Jo":10453,"وع":10454,"sho":10455,"og":10456,"isti":10457,"التي":10458,"ates":10459,"Uni":10460,"са":10461,"ani":10462,"play":10463,"nach":10464,"سي":10465,"ens":10466,"ros":10467,"tern":10468,"ments":10469,"uti":10470,"Me":10471,"бо":10472,"sh":10473,"On":10474,"San":10475,"att":10476,"two":10477,"zi":10478,"ès":10479,"fue":10480,"при":10481,"eder":10482,"Ma":10483,"No":10484,"Mo":10485,"ents":10486,"fam":10487,"avec":10488,"ados":10489,"bet":10490,"hip":10491,"time":10492,"ick":10493,"ته":10494,"كن":10495,"mas":10496,"secon":10497,"gel":10498,"ose":10499,"сто":10500,"ario":10501,"dist":10502,"ory":10503,"way":10504,"into":10505,"из":10506,"ura":10507,"های":10508,"ده":10509,"ité":10510,"new":10511,"Com":10512,"Qu":10513,"As":10514,"чи":10515,"الش":10516,"ust":10517,"any":10518,"dad":10519,"oper":10520,"му":10521,"сти":10522,"cri":10523,"كل":10524,"auch":10525,"جم":10526,"after":10527,"mun":10528,"пре":10529,"خل":10530,"الر":10531,"unter":10532,"uc":10533,"سر":10534,"بد":10535,"cial":10536,"ть":10537,"فا":10538,"ًا":10539,"dal":10540,"New":10541,"ungen":10542,"tain":10543,"cur":10544,"Li":10545,"حي":10546,"ів":10547,"they":10548,"со":10549,"añ":10550,"ini":10551,"же":10552,"سل":10553,"eld":10554,"هر":10555,"iter":10556,"ско":10557,"Or":10558,"sein":10559,"vie":10560,"sub":10561,"sti":10562,"أو":10563,"suc":10564,"ین":10565,"other":10566,"sul":10567,"main":10568,"fig":10569,"present":10570,"که":10571,"بي":10572,"get":10573,"24":10574,"ld":10575,"anni":10576,"fac":10577,"due":10578,"delle":10579,"For":10580,"قة":10581,"مت":10582,"enn":10583,"الف":10584,"lin":10585,"ird":10586,"pp":10587,"zo":10588,"fen":10589,"orig":10590,"organ":10591,"stitu":10592,"Su":10593,"suo":10594,"Bo":10595,"Nel":10596,"inf":10597,"Te":10598,"prin":10599,"ista":10600,"مد":10601,"бу":10602,"ras":10603,"ées":10604,"più":10605,"quel":10606,"الخ":10607,"الذ":10608,"ер":10609,"trans":10610,"으로":10611,"ane":10612,"iste":10613,"zioni":10614,"Aus":10615,"ду":10616,"50":10617,"fon":10618,"diff":10619,"rei":10620,"ath":10621,"endo":10622,"sel":10623,"ün":10624,"anno":10625,"anche":10626,"ці":10627,"Es":10628,"cess":10629,"رو":10630,"schaf":10631,"Der":10632,"sin":10633,"اء":10634,"ase":10635,"mag":10636,"ctor":10637,"pul":10638,"iden":10639,"dio":10640,"num":10641,"cep":10642,"21":10643,"isch":10644,"mor":10645,"ys":10646,"gran":10647,"more":10648,"bil":10649,"ذلك":10650,"ler":10651,"Gu":10652,"gener":10653,"would":10654,"Per":10655,"лі":10656,"durch":10657,"بن":10658,"Col":10659,"rig":10660,"vision":10661,"más":10662,"str":10663,"ту":10664,"tic":10665,"\",":10666,"sono":10667,"ward":10668,"2010":10669,"bro":10670,"Di":10671,"nella":10672,"lig":10673,"tiv":10674,"пи":10675,"ult":10676,"ette":10677,"film":10678,"ais":10679,"ния":10680,"ico":10681,"crit":10682,"alt":10683,"بين":10684,"ister":10685,"she":10686,"cted":10687,"alb":10688,"ited":10689,"الث":10690,"ks":10691,"einer":10692,"used":10693,"nor":10694,"det":10695,"ador":10696,"hat":10697,"wie":10698,"23":10699,"almente":10700,"Jahr":10701,"ik":10702,"tig":10703,"قل":10704,"صل":10705,"tras":10706,"دي":10707,"nam":10708,"char":10709,"rel":10710,"에서":10711,"bel":10712,"ep":10713,"بع":10714,"الط":10715,"كانت":10716,"án":10717,"يع":10718,"itt":10719,"mé":10720,"vin":10721,"public":10722,"Nor":10723,"Les":10724,"ban":10725,"most":10726,"We":10727,"2011":10728,"old":10729,"Mon":10730,"خر":10731,"some":10732,"وان":10733,"ische":10734,"gram":10735,"sont":10736,"lus":10737,"دار":10738,"سی":10739,"été":10740,"bli":10741,"zur":10742,"الي":10743,"contro":10744,"28":10745,"hist":10746,"ungs":10747,"such":10748,"cis":10749,"thro":10750,"хо":10751,"الا":10752,"eff":10753,"ants":10754,"contin":10755,"ative":10756,"ambi":10757,"ute":10758,"aut":10759,"atta":10760,"وه":10761,"lor":10762,"Bar":10763,"26":10764,"inn":10765,"2012":10766,"atur":10767,"clas":10768,"ron":10769,"دا":10770,"mission":10771,"این":10772,"Da":10773,"fes":10774,"2008":10775,"Euro":10776,"ving":10777,"eng":10778,"may":10779,"loc":10780,"seg":10781,"ние":10782,"Gr":10783,"band":10784,"mal":10785,"して":10786,"til":10787,"stand":10788,"22":10789,"سن":10790,"ide":10791,"2014":10792,"sing":10793,"ight":10794,"190":10795,"Ber":10796,"خت":10797,"سة":10798,"Wil":10799,"consi":10800,"ор":10801,"27":10802,"مح":10803,"tho":10804,"when":10805,"□□":10806,"كت":10807,"一个":10808,"ason":10809,"ats":10810,"To":10811,"tto":10812,"зи":10813,"政府":10814,"الص":10815,"سبة":10816,"بعد":10817,"ну":10818,"قي":10819,"ione":10820,"مان":10821,"اه":10822,".\"":10823,"via":10824,"ja":10825,"Ab":10826,"antes":10827,"され":10828,"ille":10829,"came":10830,"Im":10831,"гра":10832,"Amer":10833,"sua":10834,"رد":10835,"elt":10836,"2009":10837,"した":10838,"ür":10839,"ър":10840,"Her":10841,"werden":10842,"buil":10843,"ior":10844,"At":10845,"zum":10846,"ör":10847,"Ra":10848,"uo":10849,"اً":10850,"him":10851,"Is":10852,"later":10853,"ws":10854,"vic":10855,"line":10856,"dic":10857,"мі":10858,"fore":10859,"rup":10860,"Am":10861,"eron":10862,"ily":10863,"2013":10864,"cour":10865,"عت":10866,"中国":10867,"again":10868,"Dur":10869,"ating":10870,"رف":10871,"years":10872,"Ju":10873,"ished":10874,"fran":10875,"وز":10876,"ener":10877,"velop":10878,"cha":10879,"Af":10880,"ds":10881,"uno":10882,"лу":10883,"2015":10884,"рі":10885,"pass":10886,"lub":10887,"nicht":10888,"import":10889,"Lu":10890,"Univers":10891,"gar":10892,"hre":10893,"ps":10894,"van":10895,"tions":10896,"where":10897,"tit":10898,"Cor":10899,"only":10900,"ala":10901,"origin":10902,"ши":10903,"Lo":10904,"ned":10905,"John":10906,"bra":10907,"rele":10908,"cy":10909,"ück":10910,"sup":10911,"ful":10912,"29":10913,"king":10914,"2007":10915,"dent":10916,"би":10917,"Mit":10918,"wa":10919,"then":10920,"ween":10921,"مة":10922,"ken":10923,"este":10924,"ión":10925,"premi":10926,"schaft":10927,"US":10928,"aron":10929,"cho":10930,"40":10931,"Man":10932,"الل":10933,"شد":10934,"كر":10935,"ature":10936,"constru":10937,"princip":10938,"إن":10939,"alis":10940,"there":10941,"ters":10942,"dies":10943,"cir":10944,"يت":10945,"primer":10946,"ena":10947,"ling":10948,"school":10949,"ased":10950,"during":10951,"ос":10952,"chan":10953,"einem":10954,"ions":10955,"This":10956,"cel":10957,"cio":10958,"comme":10959,"entr":10960,"vari":10961,"dr":10962,"Ste":10963,"ya":10964,"».":10965,"189":10966,"pré":10967,"ork":10968,"خد":10969,"gre":10970,"kno":10971,"آن":10972,"mos":10973,"net":10974,"than":10975,"zen":10976,"Pol":10977,"），":10978,"Des":10979,"ги":10980,"cher":10981,"dass":10982,"ба":10983,"ación":10984,"iten":10985,"coun":10986,"ities":10987,"Po":10988,"fur":10989,"made":10990,"kt":10991,"った":10992,"اص":10993,"forma":10994,"pun":10995,"حر":10996,"amento":10997,"وأ":10998,"2006":10999,"Ad":11000,"about":11001,"ного":11002,"cui":11003,"جل":11004,"ional":11005,"2016":11006,"day":11007,"المت":11008,"раз":11009,"ска":11010,"tal":11011,"Ger":11012,"well":11013,"ons":11014,"aliz":11015,"between":11016,"ثر":11017,"cons":11018,"ég":11019,"cle":11020,"sten":11021,"жи":11022,"very":11023,"Sp":11024,"قر":11025,"ley":11026,"ches":11027,"ara":11028,"tan":11029,"ting":11030,"War":11031,"ital":11032,"Fe":11033,"غير":11034,"my":11035,"tut":11036,"mento":11037,"Ze":11038,"cat":11039,"pes":11040,"Do":11041,"cla":11042,"long":11043,"wird":11044,"igen":11045,"ön":11046,"ely":11047,"mais":11048,"many":11049,"Ex":11050,"är":11051,"program":11052,"if":11053,"اط":11054,"یک":11055,"pet":11056,"ings":11057,"jor":11058,"cen":11059,"Ph":11060,"iso":11061,"contra":11062,"popul":11063,"entes":11064,"َّ":11065,"60":11066,"bert":11067,"éta":11068,"أي":11069,"100":11070,"mol":11071,"ар":11072,"ert":11073,"prima":11074,"ona":11075,"did":11076,"ulti":11077,"einen":11078,"mand":11079,"star":11080,"segu":11081,"guer":11082,"كي":11083,"اله":11084,"Chr":11085,"بار":11086,"وی":11087,"tour":11088,"sta":11089,"اج":11090,"لة":11091,"ora":11092,"stud":11093,"rich":11094,"sia":11095,"burg":11096,"eren":11097,"mm":11098,"lui":11099,"tura":11100,"Nach":11101,"eter":11102,"2000":11103,"cin":11104,"sind":11105,"ild":11106,"album":11107,"ät":11108,"dition":11109,"lat":11110,"rag":11111,"ju":11112,"бы":11113,"minist":11114,"Ges":11115,"abil":11116,"han":11117,"vir":11118,"する":11119,"bat":11120,"هذا":11121,"Je":11122,"ادة":11123,"studi":11124,"respon":11125,"هذه":11126,"cto":11127,"ile":11128,"وفي":11129,"يات":11130,"fun":11131,"съ":11132,"使用":11133,"تع":11134,"ture":11135,"piel":11136,"three":11137,"он":11138,"Los":11139,"ress":11140,"تص":11141,"2017":11142,"المن":11143,"place":11144,"jour":11145,"air":11146,"recor":11147,"tar":11148,"uto":11149,"188":11150,"Char":11151,"colo":11152,"contr":11153,"Ein":11154,"second":11155,"pte":11156,"dia":11157,"bus":11158,"ан":11159,"wurden":11160,"ster":11161,"2005":11162,"esti":11163,"Sh":11164,"team":11165,"being":11166,"gover":11167,"sor":11168,"onn":11169,"super":11170,"كون":11171,"idad":11172,"rap":11173,"season":11174,"commun":11175,"ambién":11176,"comple":11177,"speci":11178,"hal":11179,"teil":11180,"187":11181,"member":11182,"dar":11183,"continu":11184,"far":11185,"iss":11186,"Ser":11187,"عم":11188,"lead":11189,"бе":11190,"consider":11191,"Wor":11192,"يس":11193,"high":11194,"side":11195,"etz":11196,"sk":11197,"führ":11198,"encia":11199,"تح":11200,"uch":11201,"برا":11202,"美国":11203,"became":11204,"fut":11205,"wever":11206,"Sta":11207,"Apr":11208,"dalla":11209,"ican":11210,"adas":11211,"sou":11212,"med":11213,"pat":11214,"lichen":11215,"ures":11216,"لف":11217,"وف":11218,"York":11219,"exp":11220,"Das":11221,"oni":11222,"dern":11223,"four":11224,"Aug":11225,"dam":11226,"km":11227,"ual":11228,"durante":11229,"back":11230,"خص":11231,"itz":11232,"اني":11233,"seine":11234,"deux":11235,"ді":11236,"appe":11237,"ning":11238,"пра":11239,"pel":11240,"ator":11241,"Br":11242,"ще":11243,"他们":11244,"termin":11245,"put":11246,"oder":11247,"them":11248,"ет":11249,"てい":11250,"state":11251,"propri":11252,"fre":11253,"national":11254,"开始":11255,"ury":11256,"cr":11257,"ство":11258,"Ri":11259,"ham":11260,"ше":11261,"第一":11262,"Har":11263,"ko":11264,"Gi":11265,"She":11266,"group":11267,"through":11268,"مث":11269,"polit":11270,"cts":11271,"كة":11272,"hel":11273,"يش":11274,"بح":11275,"الذي":11276,"ous":11277,"own":11278,"...":11279,"including":11280,"calle":11281,"pt":11282,"zwe":11283,"against":11284,"أك":11285,"perio":11286,"dro":11287,"вы":11288,"conom":11289,"بود":11290,"sé":11291,"dy":11292,"»,":11293,"will":11294,"ones":11295,"degli":11296,"可以":11297,"United":11298,"try":11299,"position":11300,"III":11301,"labor":11302,"ames":11303,"while":11304,"ciones":11305,"follow":11306,"日本":11307,"ker":11308,"رض":11309,"cause":11310,"aba":11311,"Can":11312,"ball":11313,"пі":11314,"tet":11315,"Pri":11316,"vas":11317,"Jan":11318,"sal":11319,"aro":11320,"دی":11321,"urch":11322,"лен":11323,"pub":11324,"وسط":11325,"cei":11326,"Reg":11327,"31":11328,"ople":11329,"це":11330,"Auf":11331,"dopo":11332,"zw":11333,"تش":11334,"公司":11335,"تن":11336,"both":11337,"هي":11338,"pare":11339,"erte":11340,"uel":11341,"ある":11342,"ava":11343,"cus":11344,"ний":11345,"colle":11346,"care":11347,"حيث":11348,"emb":11349,"tore":11350,"었다":11351,"rent":11352,"enza":11353,"gs":11354,"香港":11355,"vit":11356,"bal":11357,"Eng":11358,"мен":11359,"بة":11360,"mig":11361,"ines":11362,"الأم":11363,"tele":11364,"arri":11365,"adt":11366,"اري":11367,"هد":11368,"”。":11369,"”，":11370,"вер":11371,"May":11372,"oria":11373,"2004":11374,"fund":11375,"lis":11376,"Coun":11377,"writ":11378,"hom":11379,"develop":11380,"ian":11381,"هو":11382,"ils":11383,"utsch":11384,"2018":11385,"After":11386,"School":11387,"pic":11388,"lio":11389,"186":11390,"mill":11391,"ßen":11392,"Pre":11393,"gun":11394,"nell":11395,"milit":11396,"tt":11397,"ря":11398,"ried":11399,"arch":11400,"open":11401,"عدد":11402,"ني":11403,"tica":11404,"aul":11405,"الو":11406,"ka":11407,"dig":11408,"situ":11409,"cono":11410,"stes":11411,"pend":11412,"tell":11413,"club":11414,"before":11415,"ule":11416,"these":11417,"succes":11418,"vide":11419,"known":11420,"pra":11421,"tive":11422,"conf":11423,"hum":11424,"syste":11425,"Land":11426,"طة":11427,"rest":11428,"yo":11429,"rid":11430,"berg":11431,"قبل":11432,"liam":11433,"inde":11434,"Gre":11435,"wä":11436,"test":11437,"él":11438,"صر":11439,"كم":11440,"ye":11441,"alement":11442,"Si":11443,"Sy":11444,"né":11445,"ían":11446,"viene":11447,"enter":11448,"pal":11449,"called":11450,"лю":11451,"Sou":11452,"hu":11453,"شت":11454,"نی":11455,"ême":11456,"Tra":11457,"جن":11458,"以及":11459,"یر":11460,"uer":11461,"وك":11462,"علي":11463,"venne":11464,"graph":11465,"Ha":11466,"су":11467,"Vor":11468,"hm":11469,"0年":11470,"кі":11471,"versi":11472,"ison":11473,"lle":11474,"inten":11475,"oli":11476,"ires":11477,"На":11478,"Pr":11479,"design":11480,"кра":11481,"appear":11482,"lung":11483,"部分":11484,"）。":11485,"adre":11486,"World":11487,"Mus":11488,"жа":11489,"volu":11490,"Go":11491,"ctions":11492,"lic":11493,"jun":11494,"liche":11495,"ident":11496,"nal":11497,"lock":11498,"anz":11499,"них":11500,"ينة":11501,"atti":11502,"semb":11503,"camp":11504,"centr":11505,"inst":11506,"Min":11507,"alia":11508,"omen":11509,"ub":11510,"life":11511,"tag":11512,"number":11513,"بلغ":11514,"National":11515,"hy":11516,"uve":11517,"пу":11518,"ists":11519,"ics":11520,"ديد":11521,"sever":11522,"Brit":11523,"世界":11524,"하였":11525,"大学":11526,"Cas":11527,"recei":11528,"研究":11529,"Rus":11530,"fica":11531,"رة":11532,"puis":11533,"пере":11534,"сько":11535,"though":11536,"Bro":11537,"solo":11538,"进行":11539,"pero":11540,"años":11541,"organiz":11542,"يج":11543,"tech":11544,"Comp":11545,"Fo":11546,"arti":11547,"atten":11548,"enz":11549,"University":11550,"sche":11551,"stato":11552,"version":11553,"مار":11554,"now":11555,"nes":11556,"成为":11557,"zza":11558,"Fil":11559,"reich":11560,"dere":11561,"vier":11562,"aller":11563,"gle":11564,"nuo":11565,"حة":11566,"ond":11567,"aten":11568,"elf":11569,"kann":11570,"2003":11571,"від":11572,"اع":11573,"cción":11574,"blished":11575,"ihr":11576,"azione":11577,"less":11578,"تق":11579,"compos":11580,"fait":11581,"win":11582,"Septe":11583,"没有":11584,"cro":11585,"سال":11586,"found":11587,"مق":11588,"aria":11589,"bru":11590,"cette":11591,"nment":11592,"udad":11593,"Europe":11594,"lug":11595,"mark":11596,"tempor":11597,"Mor":11598,"Mil":11599,"Pres":11600,"vano":11601,"espe":11602,"했다":11603,"Ba":11604,"بت":11605,"sobre":11606,"aver":11607,"Gro":11608,"包括":11609,"2001":11610,"August":11611,"ages":11612,"people":11613,"iniz":11614,"American":11615,"September":11616,"80":11617,"West":11618,"зна":11619,"مس":11620,"äu":11621,"essere":11622,"law":11623,"see":11624,"بی":11625,"atto":11626,"اق":11627,"illa":11628,"también":11629,"عمل":11630,"City":11631,"dec":11632,"itali":11633,"och":11634,"until":11635,"appro":11636,"fra":11637,"По":11638,"grand":11639,"released":11640,"ship":11641,"auto":11642,"All":11643,"0s":11644,"amb":11645,"nombre":11646,"tres":11647,"2002":11648,"ву":11649,"show":11650,"ied":11651,"фи":11652,"stre":11653,"ught":11654,"gior":11655,"même":11656,"ama":11657,"9年":11658,"bbe":11659,"ago":11660,"Janu":11661,"35":11662,"Tor":11663,"طل":11664,"tribu":11665,"щи":11666,"fall":11667,"الغ":11668,"book":11669,"خلال":11670,"uses":11671,"stell":11672,"April":11673,"stat":11674,"وقد":11675,"local":11676,"انية":11677,"وية":11678,"lex":11679,"认为":11680,"ient":11681,"nur":11682,"sci":11683,"сле":11684,"Pa":11685,"ets":11686,"trad":11687,"から":11688,"same":11689,"أس":11690,"roman":11691,"ague":11692,"run":11693,"القر":11694,"Por":11695,"lia":11696,"formation":11697,"自己":11698,"area":11699,"gt":11700,"être":11701,"وات":11702,"house":11703,"بعض":11704,"kom":11705,"plan":11706,"aciones":11707,"profes":11708,"nue":11709,"تج":11710,"حدة":11711,"Bu":11712,"Gener":11713,"Gra":11714,"His":11715,"Zeit":11716,"sive":11717,"NA":11718,"Pe":11719,"تا":11720,"其中":11721,"يرة":11722,"Hen":11723,"equi":11724,"المع":11725,"ún":11726,"lla":11727,"pé":11728,"сть":11729,"Geor":11730,"Hist":11731,"jus":11732,"يز":11733,"lack":11734,"gegen":11735,"noch":11736,"aber":11737,"Vi":11738,"lot":11739,"even":11740,"otro":11741,"ذا":11742,"ща":11743,"beg":11744,"zeit":11745,"enne":11746,"anza":11747,"lag":11748,"retur":11749,"Wi":11750,"alc":11751,"pués":11752,"gest":11753,"quali":11754,"يق":11755,"asi":11756,"وح":11757,"其他":11758,"45":11759,"فق":11760,"第二":11761,"donde":11762,"افة":11763,"hol":11764,"music":11765,"early":11766,"dre":11767,"deci":11768,"دة":11769,"ders":11770,"ран":11771,"gesch":11772,"utili":11773,"зо":11774,"كما":11775,"ular":11776,"aug":11777,"voir":11778,"حتى":11779,"Nove":11780,"Ros":11781,"Sal":11782,"وض":11783,"prés":11784,"جه":11785,"人民":11786,"Kon":11787,"له":11788,"Sain":11789,"gent":11790,"actu":11791,"ارة":11792,"sto":11793,"ème":11794,"сте":11795,"ولة":11796,"ната":11797,"año":11798,"identi":11799,"ett":11800,"event":11801,"مش":11802,"کرد":11803,"mehr":11804,"series":11805,"ey":11806,"eno":11807,"ende":11808,"المد":11809,"mann":11810,"Rich":11811,"äch":11812,"possi":11813,"bin":11814,"cé":11815,"like":11816,"bt":11817,"prote":11818,"спо":11819,"isse":11820,"head":11821,"building":11822,"こと":11823,"nom":11824,"vidu":11825,"185":11826,"8年":11827,"Na":11828,"descri":11829,"States":11830,"hmen":11831,"ial":11832,"لت":11833,"рез":11834,"Est":11835,"hin":11836,"国家":11837,"lay":11838,"leur":11839,"gy":11840,"tent":11841,"نظ":11842,"loro":11843,"äl":11844,"Sie":11845,"ged":11846,"ville":11847,"гу":11848,"فس":11849,"主要":11850,"indus":11851,"cil":11852,"الات":11853,"ной":11854,"November":11855,"кон":11856,"Stre":11857,"edi":11858,"vre":11859,"poin":11860,"much":11861,"70":11862,"عشر":11863,"cias":11864,"miento":11865,"cture":11866,"Cap":11867,"ney":11868,"dove":11869,"Bur":11870,"Intern":11871,"amo":11872,"cover":11873,"began":11874,"several":11875,"اس":11876,"하는":11877,"atz":11878,"ché":11879,"ciudad":11880,"agn":11881,"Unter":11882,"وجود":11883,"influ":11884,"sue":11885,"yle":11886,"ден":11887,"tico":11888,"Rom":11889,"name":11890,"的一":11891,"bile":11892,"tw":11893,"Mich":11894,"ван":11895,"ман":11896,"serie":11897,"fort":11898,"ín":11899,"major":11900,"bio":11901,"ety":11902,"Ed":11903,"Sa":11904,"bau":11905,"ری":11906,"They":11907,"tru":11908,"أنه":11909,"Tr":11910,"city":11911,"els":11912,"ريق":11913,"grande":11914,"--":11915,"Mc":11916,"defin":11917,"kes":11918,"diese":11919,"зе":11920,"said":11921,"offici":11922,"Ter":11923,"工作":11924,"seiner":11925,"وص":11926,"world":11927,"مثل":11928,"وار":11929,"والم":11930,"لی":11931,"ولا":11932,"ке":11933,"ki":11934,"بش":11935,"arro":11936,"view":11937,"vamente":11938,"ña":11939,"Lou":11940,"arbe":11941,"bed":11942,"territ":11943,"app":11944,"انی":11945,"activ":11946,"base":11947,"could":11948,"6年":11949,"France":11950,"success":11951,"Was":11952,"nen":11953,"tant":11954,"있다":11955,"tout":11956,"William":11957,"eing":11958,"incre":11959,"signi":11960,"او":11961,"عند":11962,"ref":11963,"cit":11964,"nei":11965,"pur":11966,"sm":11967,"arly":11968,"limit":11969,"social":11970,"因此":11971,"ola":11972,"point":11973,"5年":11974,"Mal":11975,"amien":11976,"final":11977,"individu":11978,"العل":11979,"що":11980,"سط":11981,"台湾":11982,"ctive":11983,"BC":11984,"scor":11985,"clos":11986,"game":11987,"mater":11988,"However":11989,"نسبة":11990,"نت":11991,"由于":11992,"ross":11993,"Dies":11994,"atore":11995,"comun":11996,"бі":11997,"anim":11998,"لات":11999,"ald":12000,"osi":12001,"univers":12002,"teur":12003,"Mas":12004,"ры":12005,"تحت":12006,"7年":12007,"ange":12008,"Sco":12009,"uf":12010,"ually":12011,"lage":12012,"اری":12013,"3年":12014,"Fin":12015,"unt":12016,"etro":12017,"тра":12018,"يف":12019,"caus":12020,"ef":12021,"eg":12022,"uver":12023,"ismo":12024,"hatte":12025,"xt":12026,"acional":12027,"zie":12028,"along":12029,"sous":12030,"4年":12031,"90":12032,"Mad":12033,"South":12034,"primo":12035,"ている":12036,"Ac":12037,"Fre":12038,"fri":12039,"vom":12040,"child":12041,"down":12042,"nelle":12043,"2年":12044,"TV":12045,"best":12046,"yal":12047,"ناء":12048,"hasta":12049,"pay":12050,"var":12051,"questo":12052,"government":12053,"انت":12054,"dor":12055,"hand":12056,"mentre":12057,"нов":12058,"episo":12059,"offic":12060,"terior":12061,"ните":12062,"March":12063,"nation":12064,"بط":12065,"sowie":12066,"face":12067,"Cam":12068,"ido":12069,"dra":12070,"quent":12071,"Fa":12072,"verso":12073,"former":12074,"rict":12075,".,":12076,"Mi":12077,"jed":12078,"spa":12079,"acc":12080,"ministr":12081,"IV":12082,"ua":12083,"anci":12084,"ander":12085,"ford":12086,"ique":12087,"arm":12088,"home":12089,"exper":12090,"guerra":12091,"Jean":12092,"system":12093,"500":12094,"可能":12095,"oltre":12096,"differ":12097,"aggi":12098,"gén":12099,"أم":12100,"الية":12101,"ват":12102,"Du":12103,"act":12104,"family":12105,"地区":12106,"intro":12107,"quad":12108,"vid":12109,"hor":12110,"خط":12111,"zzo":12112,"Jap":12113,"زی":12114,"apr":12115,"keit":12116,"Saint":12117,"ek":12118,"allow":12119,"quat":12120,"ports":12121,"نام":12122,"والأ":12123,"Kar":12124,"zio":12125,"large":12126,"البر":12127,"desde":12128,"citt":12129,"sent":12130,"west":12131,"مج":12132,"）、":12133,"stra":12134,"graf":12135,"Sin":12136,"ماع":12137,"32":12138,"dall":12139,"رق":12140,"他的":12141,"power":12142,"Las":12143,"fine":12144,"oso":12145,"qual":12146,"because":12147,"proble":12148,"خرى":12149,"result":12150,"bien":12151,"grad":12152,"There":12153,"zwischen":12154,"ят":12155,"教育":12156,"وش":12157,"fem":12158,"ных":12159,"duc":12160,"geb":12161,"len":12162,"За":12163,"هن":12164,"38":12165,"inte":12166,"cra":12167,"因为":12168,"当时":12169,"esp":12170,"ließ":12171,"control":12172,"1年":12173,"exten":12174,"Febru":12175,"الز":12176,"вой":12177,"field":12178,"wards":12179,"واد":12180,"ctr":12181,"حق":12182,"North":12183,"Ce":12184,"cli":12185,"ined":12186,"ject":12187,"educ":12188,"était":12189,"вре":12190,"reli":12191,"mai":12192,"اند":12193,"bere":12194,"weiter":12195,"había":12196,"ix":12197,"Ма":12198,"学校":12199,"esto":12200,"order":12201,"نس":12202,"waren":12203,"Bes":12204,"Chi":12205,"King":12206,"ped":12207,"گی":12208,"town":12209,"occu":12210,"cuent":12211,"فت":12212,"发展":12213,"184":12214,"под":12215,"cré":12216,"하고":12217,"atro":12218,"amer":12219,"propos":12220,"agen":12221,"won":12222,"中的":12223,"top":12224,"dont":12225,"general":12226,"autor":12227,"180":12228,"century":12229,"XV":12230,"lit":12231,"uly":12232,"راء":12233,"ères":12234,"：“":12235,"rac":12236,"geh":12237,"하였다":12238,"داد":12239,"lement":12240,"Bau":12241,"lang":12242,"ril":12243,"wieder":12244,"された":12245,"وط":12246,"tivo":12247,"poi":12248,"ха":12249,"하여":12250,"rec":12251,"isten":12252,"Hol":12253,"mid":12254,"acter":12255,"based":12256,"played":12257,"wen":12258,"同时":12259,"uso":12260,"يمكن":12261,"original":12262,"计划":12263,"contre":12264,"term":12265,"Tri":12266,"late":12267,"ores":12268,"fahr":12269,"By":12270,"each":12271,"pie":12272,"particip":12273,"sulla":12274,"econom":12275,"xim":12276,"经济":12277,"agli":12278,"blica":12279,"où":12280,"promo":12281,"oro":12282,"ъл":12283,"中央":12284,"concer":12285,"Ca":12286,"bri":12287,"popular":12288,"hon":12289,"英国":12290,"après":12291,"34":12292,"36":12293,"кла":12294,"文化":12295,"Stadt":12296,"Jahre":12297,"six":12298,"General":12299,"wing":12300,"تل":12301,"ello":12302,"Wo":12303,"ple":12304,"。”":12305,"bles":12306,"har":12307,"である":12308,"cks":12309,"rico":12310,"года":12311,"ards":12312,"bon":12313,"grup":12314,"nas":12315,"real":12316,"prop":12317,"tanto":12318,"sco":12319,"ism":12320,"ella":12321,"Pal":12322,"invol":12323,"autres":12324,"الة":12325,"gew":12326,"company":12327,"posi":12328,"ology":12329,"since":12330,"effe":12331,"site":12332,"として":12333,"には":12334,"tir":12335,"Ke":12336,"ías":12337,"quale":12338,"2019":12339,"model":12340,"istas":12341,"ция":12342,"قا":12343,"sour":12344,"support":12345,"cion":12346,"政治":12347,"电影":12348,"Mer":12349,"ked":12350,"took":12351,"тив":12352,"مست":12353,"والت":12354,"中心":12355,"рия":12356,"priv":12357,"formed":12358,"сво":12359,"tiene":12360,"ارت":12361,"Ur":12362,"ком":12363,"eines":12364,"received":12365,"vest":12366,"شده":12367,"فة":12368,"associ":12369,"ться":12370,"Res":12371,"después":12372,"1999":12373,"Colle":12374,"sui":12375,"death":12376,"refer":12377,"domin":12378,"January":12379,"July":12380,"siè":12381,"ße":12382,"äter":12383,"ин":12384,"dian":12385,"still":12386,"Ti":12387,"тя":12388,"cost":12389,"Lon":12390,"iness":12391,"ammen":12392,"total":12393,"ció":12394,"Spe":12395,"iert":12396,"تأ":12397,"يو":12398,"provin":12399,"ник":12400,"erst":12401,"ported":12402,"Dece":12403,"natur":12404,"upe":12405,"جر":12406,"حل":12407,"dieser":12408,"أكثر":12409,"фе":12410,"کن":12411,"表示":12412,"left":12413,"pue":12414,"ца":12415,"December":12416,"pan":12417,"Ка":12418,"liber":12419,"سلام":12420,"Mos":12421,"lors":12422,"한다":12423,"students":12424,"Gesch":12425,"33":12426,"之后":12427,"الأول":12428,"fino":12429,"earch":12430,"read":12431,"nement":12432,"сі":12433,"san":12434,"action":12435,"provi":12436,"toria":12437,"zwei":12438,"around":12439,"دو":12440,"alors":12441,"като":12442,"12月":12443,"light":12444,"mic":12445,"oth":12446,"社会":12447,"годи":12448,"она":12449,"يط":12450,"lé":12451,"vice":12452,"ръ":12453,"osa":12454,"jedoch":12455,"65":12456,"Kir":12457,"uta":12458,"sum":12459,"utz":12460,"Inter":12461,"jet":12462,"sex":12463,"az":12464,"بال":12465,"ومن":12466,"altri":12467,"tie":12468,"British":12469,"class":12470,"built":12471,"8月":12472,"دور":12473,"prob":12474,"voc":12475,"June":12476,"Vol":12477,"дно":12478,"دان":12479,"sotto":12480,"single":12481,"برای":12482,"Ci":12483,"Tur":12484,"لغ":12485,"vement":12486,"ground":12487,"Paul":12488,"року":12489,"10月":12490,"bajo":12491,"During":12492,"9月":12493,"كب":12494,"represent":12495,"ices":12496,"suoi":12497,"bia":12498,"épo":12499,"代表":12500,"enen":12501,"remain":12502,"aussi":12503,"stein":12504,"Park":12505,"ого":12506,"عب":12507,"conc":12508,"خدام":12509,"Octo":12510,"gas":12511,"три":12512,"نج":12513,"aggio":12514,"last":12515,"Art":12516,"stesso":12517,"Bas":12518,"地方":12519,"ites":12520,"Pu":12521,"فع":12522,"되었다":12523,"이다":12524,"coup":12525,"1990":12526,"what":12527,"7月":12528,"فض":12529,"loy":12530,"water":12531,"publi":12532,"jer":12533,"tz":12534,"level":12535,"appar":12536,"zionale":12537,"Bel":12538,"通过":12539,"atori":12540,"1997":12541,"production":12542,"organis":12543,"4月":12544,"times":12545,"politi":12546,"right":12547,"members":12548,"industri":12549,"bit":12550,"lä":12551,"ues":12552,"أول":12553,"يه":12554,"those":12555,"ولكن":12556,"alidad":12557,"cording":12558,"1998":12559,"October":12560,"Bun":12561,"siste":12562,"بق":12563,"thern":12564,"5月":12565,"hos":12566,"cole":12567,"media":12568,"Bre":12569,"CA":12570,"вен":12571,"ئة":12572,"支持":12573,"cast":12574,"premier":12575,"match":12576,"ак":12577,"系统":12578,"Film":12579,"amen":12580,"اريخ":12581,"gui":12582,"named":12583,"lti":12584,"ness":12585,"37":12586,"для":12587,"نة":12588,"پی":12589,"Air":12590,"Ko":12591,"euro":12592,"amm":12593,"lier":12594,"сту":12595,"سبب":12596,"Austr":12597,"Imp":12598,"vant":12599,"وكان":12600,"using":12601,"età":12602,"стра":12603,"mayor":12604,"amiento":12605,"جز":12606,"所有":12607,"Val":12608,"fé":12609,"realiz":12610,"simil":12611,"service":12612,"يين":12613,"الفر":12614,"iller":12615,"وقت":12616,"1月":12617,"Fer":12618,"station":12619,"cuando":12620,"change":12621,"ін":12622,"cident":12623,"abo":12624,"الأسر":12625,"ordin":12626,"Bl":12627,"ihre":12628,"ío":12629,"大的":12630,"ars":12631,"suite":12632,"ства":12633,"أيض":12634,"viron":12635,"فل":12636,"chang":12637,"mental":12638,"ampions":12639,"atter":12640,"table":12641,"стро":12642,"dai":12643,"icht":12644,"ainsi":12645,"dol":12646,"تي":12647,"senti":12648,"born":12649,"following":12650,"3月":12651,"Cal":12652,"اض":12653,"گر":12654,"委员":12655,"sac":12656,"undo":12657,"One":12658,"zus":12659,"въ":12660,"anos":12661,"acqu":12662,"ichte":12663,"claim":12664,"introdu":12665,"SA":12666,"ribu":12667,"ные":12668,"career":12669,"Ni":12670,"cut":12671,"يك":12672,"conse":12673,"semp":12674,"suff":12675,"رائ":12676,"Pi":12677,"ony":12678,"plic":12679,"held":12680,"에는":12681,"Mag":12682,"cito":12683,"ades":12684,"المر":12685,"fas":12686,"人的":12687,"ares":12688,"effet":12689,"techn":12690,"High":12691,"أص":12692,"طور":12693,"到了":12694,"arono":12695,"Gar":12696,"post":12697,"hunder":12698,"خاص":12699,"يون":12700,"lands":12701,"otros":12702,"reci":12703,"sione":12704,"useum":12705,"льно":12706,"sold":12707,"également":12708,"flo":12709,"women":12710,"fied":12711,"Che":12712,"verse":12713,"League":12714,"glich":12715,"یت":12716,"near":12717,"Don":12718,"alth":12719,"1996":12720,"Paris":12721,"primera":12722,"When":12723,"stor":12724,"style":12725,"viol":12726,"ков":12727,"75":12728,"kil":12729,"eta":12730,"make":12731,"interpre":12732,"خدم":12733,"6月":12734,"شهر":12735,"ید":12736,"another":12737,"тел":12738,"Bor":12739,"Emp":12740,"Jack":12741,"ioni":12742,"dence":12743,"tempo":12744,"Ben":12745,"Dist":12746,"gab":12747,"zia":12748,"ences":12749,"London":12750,"Wer":12751,"کار":12752,"aly":12753,"commer":12754,"case":12755,"volta":12756,"million":12757,"città":12758,"Ban":12759,"Fra":12760,"fs":12761,"ls":12762,"vé":12763,"wir":12764,"已经":12765,"esse":12766,"cual":12767,"قام":12768,"Italia":12769,"上的":12770,"واق":12771,"ís":12772,"عض":12773,"提供":12774,"العالم":12775,"ischer":12776,"kön":12777,"lleg":12778,"Vic":12779,"unque":12780,"habit":12781,"39":12782,"ño":12783,"مه":12784,"られ":12785,"作为":12786,"Wh":12787,"gru":12788,"ті":12789,"では":12790,"inves":12791,"addition":12792,"nis":12793,"lación":12794,"dió":12795,"cours":12796,"Charles":12797,"signific":12798,"rus":12799,"вя":12800,"كوم":12801,"чно":12802,"kon":12803,"гі":12804,"要求":12805,"initi":12806,"anto":12807,"auth":12808,"nomin":12809,"Gran":12810,"cris":12811,"pit":12812,"thing":12813,"Louis":12814,"Fol":12815,"事件":12816,"tier":12817,"proces":12818,"how":12819,"роз":12820,"成立":12821,"permet":12822,"dot":12823,"alizz":12824,"ред":12825,"zeich":12826,"fan":12827,"ties":12828,"rio":12829,"hrend":12830,"vely":12831,"пред":12832,"dit":12833,"attra":12834,"году":12835,"bst":12836,"这些":12837,"weise":12838,"Deutsch":12839,"haus":12840,"كز":12841,"یه":12842,"quando":12843,"condu":12844,"moved":12845,"exist":12846,"color":12847,"mismo":12848,"през":12849,"الأمري":12850,"11月":12851,"ге":12852,"بات":12853,"nu":12854,"quar":12855,"constitu":12856,"راد":12857,"biet":12858,"Jos":12859,"Red":12860,"ima":12861,"чен":12862,"مص":12863,"によ":12864,"国民":12865,"影响":12866,"esa":12867,"song":12868,"River":12869,"inizi":12870,"一些":12871,"pris":12872,"uri":12873,"fois":12874,"Jahrhunder":12875,"konn":12876,"öff":12877,"mani":12878,"cret":12879,"Santa":12880,"300":12881,"Son":12882,"ns":12883,"stag":12884,"пер":12885,"profession":12886,"انه":12887,"сті":12888,"Fam":12889,"ait":12890,"mie":12891,"nia":12892,"conta":12893,"rice":12894,"video":12895,"жен":12896,"фі":12897,"شود":12898,"docu":12899,"fici":12900,"1995":12901,"ськи":12902,"érica":12903,"successi":12904,"small":12905,"Pat":12906,"Zu":12907,"pir":12908,"cont":12909,"derni":12910,"schied":12911,"weit":12912,"Soci":12913,"方面":12914,"deut":12915,"itar":12916,"within":12917,"trois":12918,"Bi":12919,"Bet":12920,"Dis":12921,"blo":12922,"igi":12923,"David":12924,"Men":12925,"folg":12926,"ского":12927,"ць":12928,"1994":12929,"secondo":12930,"القرن":12931,"sian":12932,"ah":12933,"战争":12934,"often":12935,"Elle":12936,"Cu":12937,"къ":12938,"重要":12939,"fueron":12940,"gos":12941,"rat":12942,"ßer":12943,"chte":12944,"lear":12945,"المست":12946,"ición":12947,"بية":12948,"صف":12949,"طف":12950,"ظم":12951,"يتم":12952,"共和":12953,"decis":12954,"elo":12955,"peut":12956,"ونسبة":12957,"ورة":12958,"House":12959,"furono":12960,"FC":12961,"just":12962,"ша":12963,"ران":12964,"bier":12965,"Studi":12966,"Fl":12967,"فن":12968,"später":12969,"conoci":12970,"Japan":12971,"My":12972,"brit":12973,"ging":12974,"presiden":12975,"vista":12976,"questa":12977,"Frank":12978,"Port":12979,"among":12980,"civil":12981,"ابة":12982,"casa":12983,")،":12984,"cada":12985,"hof":12986,"mate":12987,"اش":12988,"Secon":12989,"included":12990,"German":12991,"その":12992,"road":12993,"forman":12994,"ctu":12995,"العام":12996,"five":12997,"fron":12998,"Fir":12999,"امن":13000,"unded":13001,"construction":13002,"Ru":13003,"gres":13004,"once":13005,"dici":13006,"conserv":13007,"omas":13008,"molto":13009,"اح":13010,"って":13011,"neu":13012,"وجد":13013,"Fu":13014,"Mu":13015,"دول":13016,".​​":13017,"ской":13018,"wel":13019,"وكانت":13020,"不同":13021,"esi":13022,"amin":13023,"ناك":13024,"aveva":13025,"مال":13026,"ربية":13027,"hing":13028,"とな":13029,"quer":13030,"vez":13031,"ادي":13032,"нски":13033,"ئي":13034,"دون":13035,"ances":13036,"respe":13037,"وهو":13038,"wan":13039,"wed":13040,"бли":13041,"allo":13042,"dice":13043,"State":13044,"Jose":13045,"Über":13046,"法国":13047,"erano":13048,"Anton":13049,"1980":13050,"1945":13051,"tradition":13052,"different":13053,"defen":13054,"bahn":13055,"halten":13056,"ying":13057,"ثير":13058,"include":13059,"CI":13060,"Nav":13061,"pil":13062,"اث":13063,"بها":13064,"نش":13065,"总统":13066,"arse":13067,"alter":13068,"ativa":13069,"Jahren":13070,"Ta":13071,"din":13072,"gol":13073,"历史":13074,"ami":13075,"سنة":13076,"simp":13077,"memb":13078,"core":13079,"colon":13080,"بشكل":13081,"Sen":13082,"iff":13083,"sil":13084,"으며":13085,"ateg":13086,"pose":13087,"العمل":13088,"ologi":13089,"Sto":13090,"unk":13091,"imento":13092,"utilis":13093,"的人":13094,"cog":13095,"osto":13096,"してい":13097,"زب":13098,"toire":13099,"nove":13100,"1991":13101,"1970":13102,"ثم":13103,"الآ":13104,"take":13105,"44":13106,"قط":13107,"kehr":13108,"court":13109,"population":13110,"Um":13111,"üd":13112,"кре":13113,"dente":13114,"February":13115,"Pas":13116,"round":13117,"Dar":13118,"この":13119,"المح":13120,"vita":13121,"مي":13122,"redu":13123,"seit":13124,"train":13125,"George":13126,"Den":13127,"every":13128,"öl":13129,"出现":13130,"国际":13131,"force":13132,"انون":13133,"fond":13134,"volution":13135,"International":13136,"Bra":13137,"Bay":13138,"sed":13139,"Ко":13140,"дру":13141,"مؤ":13142,"ented":13143,"Ham":13144,"SS":13145,"letz":13146,"zurück":13147,"Bal":13148,"Cro":13149,"Sk":13150,"cine":13151,"zug":13152,"atura":13153,"1920":13154,"está":13155,"يلة":13156,"embar":13157,"RA":13158,"ida":13159,"istes":13160,"allen":13161,"راض":13162,"adores":13163,"instru":13164,"peu":13165,"cora":13166,"wood":13167,"ختلف":13168,"след":13169,"requi":13170,"trat":13171,"Angel":13172,"Robert":13173,"announ":13174,"Sil":13175,"Stra":13176,"Person":13177,"County":13178,"روس":13179,"ately":13180,"1992":13181,"Durante":13182,"Welt":13183,"cl":13184,"یل":13185,"など":13186,"问题":13187,"belie":13188,"Cour":13189,"ــ":13190,"获得":13191,"lavor":13192,"died":13193,"elles":13194,"role":13195,"tere":13196,"ieurs":13197,"quien":13198,"month":13199,"Peter":13200,"sele":13201,"bour":13202,"يمة":13203,"cular":13204,"première":13205,"Hall":13206,"hard":13207,"pap":13208,"wes":13209,"region":13210,"جميع":13211,"Kre":13212,"éle":13213,"espa":13214,"regi":13215,"administr":13216,"heim":13217,"Leben":13218,"فوق":13219,"وعة":13220,"contribu":13221,"served":13222,"America":13223,"Bus":13224,"Hau":13225,"bol":13226,"ihn":13227,"sos":13228,"кто":13229,"room":13230,"cele":13231,"вали":13232,"obje":13233,"signed":13234,"Francis":13235,"famil":13236,"cept":13237,"Bos":13238,"同年":13239,"alli":13240,"الشر":13241,"todo":13242,"rieb":13243,"inning":13244,"College":13245,"cing":13246,"lish":13247,"rote":13248,"عداد":13249,"human":13250,"48":13251,"ui":13252,"chos":13253,"vient":13254,"sign":13255,"□□□□":13256,"Lin":13257,"نية":13258,"conten":13259,"demás":13260,"179":13261,"Oper":13262,"jos":13263,"会议":13264,"音乐":13265,"itet":13266,"المس":13267,"compet":13268,"Club":13269,"environ":13270,"deutsch":13271,"common":13272,"années":13273,"went":13274,"جت":13275,"كس":13276,"时期":13277,"正式":13278,"ativo":13279,"record":13280,"Kön":13281,"گاه":13282,"ورد":13283,"opera":13284,"Ober":13285,"gri":13286,"Ét":13287,"últi":13288,"غم":13289,"orio":13290,"ateur":13291,"عدة":13292,"partir":13293,"soll":13294,"television":13295,"Mun":13296,"día":13297,"geme":13298,"ване":13299,"pú":13300,"但是":13301,"ental":13302,"commen":13303,"Super":13304,"great":13305,"etzt":13306,"présent":13307,"gia":13308,"rot":13309,"forme":13310,"prof":13311,"important":13312,"الله":13313,"Dr":13314,"Kom":13315,"од":13316,"了一":13317,"elli":13318,"partie":13319,"عاماً":13320,"director":13321,"Off":13322,"kam":13323,"这个":13324,"الاست":13325,"فيها":13326,"uego":13327,"published":13328,"السل":13329,"Street":13330,"Mis":13331,"zar":13332,"éri":13333,"ал":13334,"技术":13335,"utes":13336,"uela":13337,"corpor":13338,"capit":13339,"Bio":13340,"Cali":13341,"Gio":13342,"bach":13343,"usti":13344,"father":13345,"Phili":13346,"cru":13347,"ння":13348,"》，":13349,"ités":13350,"besch":13351,"cs":13352,"тро":13353,"公里":13354,"成功":13355,"division":13356,"rench":13357,"siglo":13358,"established":13359,"munici":13360,"seguito":13361,"فإن":13362,"نفس":13363,"sug":13364,"estudi":13365,"expres":13366,"Union":13367,"occas":13368,"Juan":13369,"business":13370,"junto":13371,"siècle":13372,"ampionship":13373,"Alex":13374,"ov":13375,"دم":13376,"عبد":13377,"上海":13378,"世纪":13379,"offer":13380,"Arbe":13381,"чески":13382,"così":13383,"quella":13384,"luss":13385,"Bundes":13386,"ige":13387,"تت":13388,"خود":13389,"así":13390,"nome":13391,"carri":13392,"fication":13393,"ный":13394,"history":13395,"kle":13396,"mati":13397,"isen":13398,"edad":13399,"quindi":13400,"uten":13401,"aged":13402,"placed":13403,"став":13404,"Cla":13405,"fel":13406,"yer":13407,"جد":13408,"شار":13409,"期间":13410,"stata":13411,"iger":13412,"children":13413,"équi":13414,"وى":13415,"avant":13416,"periodo":13417,"development":13418,"55":13419,"سه":13420,"eros":13421,"next":13422,"marzo":13423,"certain":13424,"With":13425,"Fr":13426,"组织":13427,"tex":13428,"dial":13429,"modo":13430,"ager":13431,"franç":13432,"Hill":13433,"drei":13434,"کت":13435,"建立":13436,"etta":13437,"conven":13438,"become":13439,"groupe":13440,"friend":13441,"gradu":13442,"dri":13443,"mir":13444,"ثة":13445,"شي":13446,"heit":13447,"front":13448,"ways":13449,"You":13450,"zone":13451,"ised":13452,"Martin":13453,"rég":13454,"ellen":13455,"génér":13456,"ec":13457,"gono":13458,"ming":13459,"нь":13460,"管理":13461,"gend":13462,"Bei":13463,"works":13464,"arious":13465,"47":13466,"Sci":13467,"Wa":13468,"vig":13469,"research":13470,"1993":13471,"muy":13472,"Associ":13473,"المدينة":13474,"König":13475,"Mat":13476,"вър":13477,"زي":13478,"发现":13479,"49":13480,"BS":13481,"OS":13482,"sans":13483,"حول":13484,"كية":13485,"یا":13486,"“.":13487,"ersten":13488,"Thomas":13489,"ции":13490,"character":13491,"Fi":13492,"ête":13493,"لاح":13494,"versidad":13495,"José":13496,"Pier":13497,"cell":13498,"hanno":13499,"padre":13500,"جام":13501,"هٔ":13502,"diale":13503,"prend":13504,"之一":13505,"edit":13506,"poten":13507,"modern":13508,"род":13509,"quello":13510,"feder":13511,"pin":13512,"you":13513,"تلك":13514,"sei":13515,"150":13516,"ترة":13517,"langu":13518,"2月":13519,"تها":13520,"متوسط":13521,"located":13522,"Sur":13523,"النا":13524,"ases":13525,"conver":13526,"histor":13527,"FA":13528,"ret":13529,"however":13530,"zación":13531,"partment":13532,"Teil":13533,"French":13534,"спе":13535,"学院":13536,"atic":13537,"board":13538,"collabor":13539,"caso":13540,"inci":13541,"eli":13542,"resta":13543,"international":13544,"regist":13545,"otto":13546,"temps":13547,"64":13548,"Dans":13549,"James":13550,"wrote":13551,"üs":13552,"سات":13553,"dedic":13554,"sieme":13555,"seinen":13556,"relations":13557,"Nord":13558,"Tran":13559,"Wol":13560,"pho":13561,"grün":13562,"continued":13563,"Sti":13564,"XI":13565,"aire":13566,"gin":13567,"им":13568,"inen":13569,"inté":13570,"third":13571,"acti":13572,"aban":13573,"hier":13574,"bene":13575,"الدول":13576,"current":13577,"jug":13578,"reach":13579,"These":13580,"institu":13581,"separ":13582,"acer":13583,");":13584,"amment":13585,"dello":13586,"sud":13587,"feature":13588,"Argent":13589,"campa":13590,"Canada":13591,"Henry":13592,"Spiel":13593,"fos":13594,"nung":13595,"ror":13596,"оло":13597,"کر":13598,"terra":13599,"许多":13600,"arios":13601,"Han":13602,"bom":13603,"вто":13604,"debut":13605,"poco":13606,"range":13607,"trav":13608,"posto":13609,"委员会":13610,"Ir":13611,"Ok":13612,"طقة":13613,"راف":13614,"علم":13615,"sions":13616,"favor":13617,"Juni":13618,"фор":13619,"رس":13620,"chts":13621,"lado":13622,"tage":13623,"Island":13624,"country":13625,"ського":13626,"Cat":13627,"dan":13628,"tas":13629,"فية":13630,"given":13631,"тер":13632,"emple":13633,"Mac":13634,"yn":13635,"وث":13636,"需要":13637,"sido":13638,"так":13639,"centro":13640,"half":13641,"pubblic":13642,"Tre":13643,"glo":13644,"games":13645,"sar":13646,"زار":13647,"ense":13648,"ched":13649,"distribu":13650,"classi":13651,"punto":13652,"قرار":13653,"ridge":13654,"especi":13655,"Ali":13656,"CD":13657,"eje":13658,"lass":13659,"tori":13660,"Ende":13661,"English":13662,"education":13663,"ring":13664,"что":13665,"جة":13666,"eri":13667,"tipo":13668,"pers":13669,"without":13670,"cke":13671,"ماء":13672,"178":13673,"Europa":13674,"Feder":13675,"ئيس":13676,"عي":13677,"第三":13678,"divers":13679,"vious":13680,"period":13681,"opened":13682,"Ele":13683,"nord":13684,"صور":13685,"ظهر":13686,"全国":13687,"algun":13688,"compar":13689,"dings":13690,"بدأ":13691,"zona":13692,"ét":13693,"кри":13694,"слу":13695,"ты":13696,"чни":13697,"ables":13698,"gene":13699,"short":13700,"points":13701,"iva":13702,"民主":13703,"航空":13704,"ester":13705,"leurs":13706,"costru":13707,"тов":13708,"التر":13709,"قدم":13710,"الخام":13711,"Guer":13712,"President":13713,"Bahn":13714,"42":13715,"various":13716,"是一":13717,"chies":13718,"trava":13719,"ppe":13720,"secolo":13721,"нии":13722,"امل":13723,"impro":13724,"guerre":13725,"nar":13726,"أد":13727,"最后":13728,"пол":13729,"Als":13730,"bres":13731,"革命":13732,"Mark":13733,"sett":13734,"announced":13735,"Dire":13736,"scu":13737,"完成":13738,"asse":13739,"days":13740,"examp":13741,"European":13742,"evi":13743,"fis":13744,"hö":13745,"时间":13746,"tiemp":13747,"radio":13748,"circa":13749,"سية":13750,"とい":13751,"etwa":13752,"nou":13753,"culture":13754,"attle":13755,"avait":13756,"young":13757,"author":13758,"Kais":13759,"cant":13760,"后来":13761,"quest":13762,"اده":13763,"finale":13764,"أنها":13765,"Rock":13766,"1960":13767,"semble":13768,"нд":13769,"جان":13770,"学生":13771,"ität":13772,"neg":13773,"nico":13774,"Hor":13775,"والتي":13776,"agosto":13777,"hib":13778,"Maria":13779,"Royal":13780,"south":13781,"England":13782,"novembre":13783,"Sam":13784,"vos":13785,"يُ":13786,"esc":13787,"attemp":13788,"الض":13789,"otball":13790,"الذين":13791,"يوم":13792,"中國":13793,"游戏":13794,"设计":13795,"issen":13796,"кото":13797,"finan":13798,"cultur":13799,"special":13800,"Dopo":13801,"führt":13802,"ihm":13803,"multi":13804,"تد":13805,"لق":13806,"dou":13807,"المص":13808,"endant":13809,"direct":13810,"ції":13811,"Ren":13812,"hold":13813,"мя":13814,"сла":13815,"ذكر":13816,"seinem":13817,"kommen":13818,"شی":13819,"cop":13820,"راق":13821,"sempre":13822,"CO":13823,"بالإ":13824,"مجم":13825,"ria":13826,"sey":13827,"tax":13828,"meet":13829,"positi":13830,"plusieurs":13831,"north":13832,"під":13833,"Hu":13834,"date":13835,"aband":13836,"ull":13837,"haben":13838,"المتحدة":13839,"Sar":13840,"Tex":13841,"Tour":13842,"hau":13843,"نم":13844,"主义":13845,"vere":13846,"très":13847,"400":13848,"ktion":13849,"ей":13850,"modi":13851,"ків":13852,"том":13853,"лек":13854,"seconda":13855,"Isra":13856,"Juli":13857,"nouvel":13858,"Os":13859,"bran":13860,"nos":13861,"phi":13862,"يكون":13863,"부터":13864,"dete":13865,"rea":13866,"Institu":13867,"body":13868,"العائ":13869,"sistema":13870,"Grup":13871,"rin":13872,"having":13873,"estival":13874,"Ag":13875,"Tim":13876,"ael":13877,"أخرى":13878,"عا":13879,"ardo":13880,"performan":13881,"extra":13882,"candid":13883,"ception":13884,"الثامن":13885,"ability":13886,"desarro":13887,"нача":13888,"combat":13889,"tained":13890,"был":13891,"mö":13892,"zed":13893,"であ":13894,"вав":13895,"ستان":13896,"polí":13897,"1989":13898,"indic":13899,"Grund":13900,"causa":13901,"хи":13902,"ない":13903,"encuent":13904,"nouve":13905,"tutti":13906,"Califor":13907,"Festival":13908,"كا":13909,"ologie":13910,"Grand":13911,"alcuni":13912,"zer":13913,"اول":13914,"لدي":13915,"todos":13916,"rier":13917,"destin":13918,"primar":13919,"Produ":13920,"Bru":13921,"Que":13922,"Tit":13923,"mut":13924,"pite":13925,"ът":13926,"رات":13927,"قی":13928,"issi":13929,"Hand":13930,"avoir":13931,"“,":13932,"week":13933,"tory":13934,"particol":13935,"otten":13936,"services":13937,"Camp":13938,"Ob":13939,"hts":13940,"wick":13941,"حية":13942,"هناك":13943,"生活":13944,"isce":13945,"1944":13946,"started":13947,"puede":13948,"Museum":13949,"pala":13950,"リー":13951,"ingen":13952,"schließ":13953,"това":13954,"glia":13955,"type":13956,"zzi":13957,"Division":13958,"entral":13959,"Vir":13960,"عات":13961,"提出":13962,"few":13963,"Scott":13964,"Dom":13965,"lí":13966,"lei":13967,"presso":13968,"PA":13969,"dann":13970,"صول":13971,"كات":13972,"中华":13973,"就是":13974,"diri":13975,"political":13976,"migr":13977,"jusqu":13978,"document":13979,"(\"":13980,"aci":13981,"cm":13982,"nun":13983,"pital":13984,"étu":13985,"位于":13986,"宣布":13987,"amt":13988,"ums":13989,"loss":13990,"1987":13991,"Geme":13992,"1950":13993,"data":13994,"má":13995,"sat":13996,"قص":13997,"similar":13998,"gir":13999,"□■":14000,"决定":14001,"rock":14002,"momento":14003,"porta":14004,"grund":14005,"MA":14006,"eben":14007,"free":14008,"شخص":14009,"وة":14010,"issu":14011,"tom":14012,"ров":14013,"assist":14014,"لكل":14015,"البي":14016,"gé":14017,"сло":14018,"لها":14019,"然而":14020,"ries":14021,"log":14022,"gence":14023,"itions":14024,"ската":14025,"46":14026,"Sim":14027,"mort":14028,"uff":14029,"لد":14030,"track":14031,"Anti":14032,"дин":14033,"personal":14034,"وهي":14035,"bierno":14036,"Cur":14037,"عية":14038,"为了":14039,"determin":14040,"teri":14041,"dom":14042,"1940":14043,"jours":14044,"History":14045,"Whi":14046,"ек":14047,"年的":14048,"agement":14049,"scri":14050,"ittle":14051,"investig":14052,"éx":14053,"сно":14054,"يب":14055,"conne":14056,"condition":14057,"aca":14058,"Leg":14059,"Star":14060,"Roma":14061,"sette":14062,"Green":14063,"0年代":14064,"gruppo":14065,"Act":14066,"jan":14067,"舰队":14068,"pped":14069,"help":14070,"كومة":14071,"konnte":14072,"Tom":14073,"fte":14074,"ène":14075,"През":14076,"行政":14077,"anda":14078,"geben":14079,"practi":14080,"Fried":14081,"ny":14082,"thé":14083,"autre":14084,"العمر":14085,"Road":14086,"وجه":14087,"llam":14088,"bili":14089,"cita":14090,"ecu":14091,"دست":14092,"غل":14093,"نه":14094,"teach":14095,"start":14096,"erste":14097,"bido":14098,"acht":14099,"further":14100,",​":14101,"East":14102,"Vene":14103,"halb":14104,"ji":14105,"mur":14106,"الإسلام":14107,"وبلغ":14108,"histori":14109,"Association":14110,"call":14111,"пла":14112,"أسر":14113,"ميل":14114,"پس":14115,"statt":14116,"zahl":14117,"mont":14118,"visión":14119,"mise":14120,"break":14121,"facil":14122,"Cop":14123,"cum":14124,"iled":14125,"mio":14126,"wall":14127,"虽然":14128,"information":14129,"ancora":14130,"esso":14131,"rif":14132,"sible":14133,"coming":14134,"وقع":14135,"attack":14136,"presidente":14137,"Ka":14138,"ila":14139,"也是":14140,"选举":14141,"quelle":14142,"ном":14143,"الجن":14144,"IS":14145,"fal":14146,"reported":14147,"icio":14148,"denti":14149,"senza":14150,"1988":14151,"importante":14152,"nuovo":14153,"Kin":14154,"受到":14155,"存在":14156,"대한":14157,"enton":14158,"gether":14159,"ابل":14160,"phy":14161,"successful":14162,"Mai":14163,"》、":14164,"command":14165,"1979":14166,"syn":14167,"Richard":14168,"tale":14169,"бра":14170,"أما":14171,"سكان":14172,"联合":14173,"있는":14174,"inner":14175,"essa":14176,"lazione":14177,"sident":14178,"caratter":14179,"استخدام":14180,"Fern":14181,"fus":14182,"hne":14183,"أحد":14184,"مسا":14185,"produced":14186,"scrit":14187,"ös":14188,"рт":14189,"dien":14190,"does":14191,"кой":14192,"cadem":14193,"findet":14194,"faire":14195,"pendent":14196,"Prin":14197,"краї":14198,"dus":14199,"squad":14200,"жда":14201,"rius":14202,"Krie":14203,"Ty":14204,"night":14205,"سيا":14206,"وإ":14207,"church":14208,"tee":14209,"mano":14210,"good":14211,"Some":14212,"strong":14213,"Cer":14214,"uv":14215,"iner":14216,"andere":14217,"corso":14218,"العديد":14219,"Bern":14220,"wit":14221,"行动":14222,"elim":14223,"porte":14224,"عنوان":14225,"Von":14226,"cab":14227,"حين":14228,"ators":14229,"isto":14230,"story":14231,"ultur":14232,"ارج":14233,"già":14234,"nah":14235,"working":14236,"مدينة":14237,"xi":14238,"城市":14239,"运动":14240,"qued":14241,"etto":14242,"proget":14243,"اته":14244,"può":14245,"Alb":14246,"الحرب":14247,"محمد":14248,".)":14249,"Ga":14250,"Sha":14251,"vali":14252,"Со":14253,"зва":14254,"лся":14255,"이라":14256,"dimen":14257,"etti":14258,"proper":14259,"neo":14260,"Regi":14261,"1939":14262,"generale":14263,"mad":14264,"任何":14265,"最终":14266,"最高":14267,"自由":14268,"reti":14269,"ership":14270,"الأر":14271,"fire":14272,"legal":14273,"ходи":14274,"segn":14275,"lugar":14276,"described":14277,"Michael":14278,"California":14279,"фа":14280,"genann":14281,"عندما":14282,"craft":14283,"Joseph":14284,"While":14285,"ram":14286,"有一":14287,"esper":14288,"rail":14289,"live":14290,"dessen":14291,"covered":14292,"Cong":14293,"cere":14294,"whe":14295,"heute":14296,"unda":14297,"blish":14298,"ausge":14299,"2008年":14300,"Berlin":14301,"returned":14302,"Gover":14303,"rend":14304,"فقد":14305,"北京":14306,"非常":14307,"making":14308,"never":14309,"hacia":14310,"1941":14311,"numero":14312,"release":14313,"military":14314,"Diese":14315,"fand":14316,"sit":14317,"жу":14318,"уча":14319,"يست":14320,"ため":14321,"之间":14322,"发生":14323,"控制":14324,"机车":14325,"mocr":14326,"previous":14327,"falls":14328,"bir":14329,"ias":14330,"или":14331,"آخر":14332,"شا":14333,"عليم":14334,"gibt":14335,"ierte":14336,"ائل":14337,"dose":14338,"tagon":14339,"Roman":14340,"tiempo":14341,"Für":14342,"Lab":14343,"되어":14344,"ром":14345,"visit":14346,"central":14347,"76":14348,"Far":14349,"出版":14350,"altro":14351,"teurs":14352,"راب":14353,"طفال":14354,"Rol":14355,"dalle":14356,"län":14357,"sport":14358,"тре":14359,"enten":14360,"movi":14361,"ious":14362,"1985":14363,"tuvo":14364,"appeared":14365,"Kore":14366,"Pet":14367,"Sel":14368,"Sol":14369,"ggi":14370,"ок":14371,"工程":14372,"铁路":14373,"defe":14374,"retro":14375,"stri":14376,"tains":14377,"estra":14378,"stead":14379,"gestell":14380,"rick":14381,"1971":14382,"worked":14383,"telle":14384,"frances":14385,"considered":14386,"година":14387,"Valle":14388,"celle":14389,"جمع":14390,"مما":14391,"enf":14392,"eser":14393,"entlich":14394,"منها":14395,"pren":14396,"1986":14397,"full":14398,"raggi":14399,"idi":14400,"krie":14401,"nature":14402,"зу":14403,"طر":14404,"作品":14405,"方式":14406,"是在":14407,"hims":14408,"wei":14409,"Tech":14410,"mel":14411,"ption":14412,"ем":14413,"utto":14414,"над":14415,"estro":14416,"راه":14417,"1972":14418,"1973":14419,"ihrer":14420,"grupo":14421,"himself":14422,"Dor":14423,"Shi":14424,"enze":14425,"perman":14426,"China":14427,"werk":14428,"ایی":14429,"Company":14430,"Wasser":14431,"الثامنة":14432,"43":14433,"99":14434,"fä":14435,"mato":14436,"arsi":14437,"anderen":14438,"rique":14439,"vio":14440,"bió":14441,"können":14442,"Antonio":14443,"53":14444,"mt":14445,"plo":14446,"ют":14447,"ink":14448,"tec":14449,"bekann":14450,"най":14451,"sage":14452,"2012年":14453,"Christi":14454,"embargo":14455,"41":14456,"kur":14457,"гла":14458,"его":14459,"ثمان":14460,"forte":14461,"però":14462,"process":14463,"trag":14464,"الجز":14465,"мер":14466,"pens":14467,"should":14468,"اطق":14469,"equipo":14470,"66":14471,"Hö":14472,"建筑":14473,"moder":14474,"notamment":14475,"spir":14476,"bereits":14477,"という":14478,"Black":14479,"TA":14480,"Tro":14481,"fab":14482,"цен":14483,"شع":14484,"主席":14485,"chap":14486,"quant":14487,"ckey":14488,"nahm":14489,"دارد":14490,"blico":14491,"tutta":14492,"community":14493,"archite":14494,"Str":14495,"hé":14496,"enta":14497,"conos":14498,"ief":14499,"mittel":14500,"fico":14501,"année":14502,"letter":14503,"Espa":14504,"Minister":14505,"Pala":14506,"Play":14507,"fatto":14508,"То":14509,"أح":14510,"اعت":14511,"سع":14512,"نها":14513,"وير":14514,"政策":14515,"race":14516,"والي":14517,"1943":14518,"estaba":14519,"must":14520,"pointed":14521,"quently":14522,"bs":14523,"gl":14524,"ième":14525,"よう":14526,"altre":14527,"rey":14528,"necess":14529,"ника":14530,"complet":14531,"featur":14532,"studio":14533,"Council":14534,"عليه":14535,"Ak":14536,"Zus":14537,"cch":14538,"もの":14539,"vidad":14540,"declar":14541,"office":14542,"Giov":14543,"Mex":14544,"Mann":14545,"نما":14546,"活动":14547,"海军":14548,"ним":14549,"gouver":14550,"2014年":14551,"Ré":14552,"dle":14553,"にな":14554,"情况":14555,"together":14556,"rimon":14557,"sure":14558,"traba":14559,"eller":14560,"gaz":14561,"According":14562,"Cette":14563,"apare":14564,"hig":14565,"list":14566,"ral":14567,"أب":14568,"进入":14569,"adap":14570,"tener":14571,"Seg":14572,"DS":14573,"Som":14574,"ize":14575,"shi":14576,"加入":14577,"参加":14578,"deg":14579,"lam":14580,"дер":14581,"principal":14582,"experien":14583,"stagione":14584,"ór":14585,"тво":14586,"立法":14587,"onto":14588,"الان":14589,"accor":14590,"pied":14591,"disco":14592,"persona":14593,"gehör":14594,"Kirche":14595,"example":14596,"But":14597,"ade":14598,"ús":14599,"عادة":14600,"所以":14601,"atte":14602,"actions":14603,"mondiale":14604,"ficio":14605,"proprio":14606,"religi":14607,"51":14608,"Jer":14609,"ei":14610,"rile":14611,"accomp":14612,"combin":14613,"1969":14614,"capital":14615,"shows":14616,"complete":14617,"techni":14618,"nuevo":14619,"88":14620,"Bis":14621,"Dan":14622,"Mid":14623,"Winter":14624,"كري":14625,"根据":14626,"ically":14627,"1919":14628,"المؤ":14629,"glio":14630,"Cy":14631,"Una":14632,"Ви":14633,"Па":14634,"огра":14635,"artic":14636,"ilos":14637,"ams":14638,"vida":14639,"bero":14640,"Recor":14641,"1981":14642,"joined":14643,"1930":14644,"Jackson":14645,"国民党":14646,"接受":14647,"remp":14648,"stän":14649,"need":14650,"Real":14651,"Christ":14652,"future":14653,"Bri":14654,"Pl":14655,"Се":14656,"حو":14657,"ضمن":14658,"举行":14659,"에게":14660,"anal":14661,"lau":14662,"dium":14663,"difer":14664,"1917":14665,"Law":14666,"beiden":14667,"روف":14668,"自己的":14669,"الخامسة":14670,"Gal":14671,"زة":14672,"这一":14673,"depuis":14674,"realizz":14675,"adop":14676,"noti":14677,"weg":14678,"visi":14679,"Chic":14680,"word":14681,"episode":14682,"From":14683,"Nacional":14684,"Penn":14685,"nero":14686,"الفي":14687,"unde":14688,"divent":14689,"américa":14690,"pou":14691,"mith":14692,"married":14693,"ным":14694,"istic":14695,"possible":14696,"AM":14697,"Dal":14698,"Lan":14699,"Mur":14700,"fang":14701,"Ра":14702,"إس":14703,"تكون":14704,"طريق":14705,"的大":14706,"اما":14707,"ينية":14708,"minister":14709,"لاب":14710,"البحر":14711,"حدث":14712,"electr":14713,"mostr":14714,"نیز":14715,"ху":14716,"إلا":14717,"关系":14718,"واج":14719,"risto":14720,"Party":14721,"مرة":14722,"others":14723,"zusammen":14724,"spo":14725,"Во":14726,"гру":14727,"шо":14728,"قية":14729,"ural":14730,"ules":14731,"التج":14732,"broad":14733,"الهند":14734,"прав":14735,"gleich":14736,"Geschichte":14737,"56":14738,"Lat":14739,"Pan":14740,"име":14741,"أث":14742,"chten":14743,"ciò":14744,"created":14745,"Itali":14746,"افت":14747,"beson":14748,"Universidad":14749,"morte":14750,"一直":14751,"sea":14752,"Andre":14753,"esemp":14754,"1975":14755,"1965":14756,"1967":14757,"Van":14758,"غي":14759,"mejor":14760,"som":14761,"nazionale":14762,"regular":14763,"recorded":14764,"Court":14765,"abandon":14766,"58":14767,"Eine":14768,"أف":14769,"”（":14770,"制作":14771,"isation":14772,"beim":14773,"servi":14774,"тель":14775,"plant":14776,"Alle":14777,"vilup":14778,"ogni":14779,"selbst":14780,"2010年":14781,"während":14782,"57":14783,"Lig":14784,"Pla":14785,"vac":14786,"вся":14787,"alk":14788,"beau":14789,"pob":14790,"hielt":14791,"ller":14792,"syl":14793,"return":14794,"campaign":14795,"ez":14796,"sof":14797,"vra":14798,"ثلا":14799,"خلا":14800,"درا":14801,"ضافة":14802,"》（":14803,"resul":14804,"unden":14805,"році":14806,"guar":14807,"box":14808,"Republic":14809,"interest":14810,"firm":14811,"1968":14812,"frat":14813,"frica":14814,"structure":14815,"medio":14816,"petto":14817,"District":14818,"hington":14819,"Bill":14820,"kre":14821,"罗斯":14822,"青年":14823,"confer":14824,"across":14825,"appen":14826,"India":14827,"wide":14828,"dévelop":14829,"الحر":14830,"ایران":14831,"posizione":14832,"Pho":14833,"gang":14834,"企业":14835,"军队":14836,"参与":14837,"taken":14838,"party":14839,"lesia":14840,"wohl":14841,"Church":14842,"pendant":14843,"market":14844,"Washington":14845,"العائلات":14846,"entonces":14847,"Plan":14848,"spiel":14849,"wat":14850,"اخت":14851,"enth":14852,"although":14853,"meister":14854,"areas":14855,"cad":14856,"rad":14857,"spr":14858,"зда":14859,"ця":14860,"نين":14861,"immer":14862,"polic":14863,"partici":14864,"1974":14865,"district":14866,"َّة":14867,"عمال":14868,"ducation":14869,"ilosop":14870,"Cup":14871,"aunque":14872,"nit":14873,"tí":14874,"üt":14875,"قال":14876,"ラン":14877,"ール":14878,"工业":14879,"coli":14880,"quanto":14881,"لاً":14882,"title":14883,"Pierre":14884,"Band":14885,"Block":14886,"Hy":14887,"Haus":14888,"dort":14889,"deb":14890,"dov":14891,"moins":14892,"lost":14893,"saw":14894,"1984":14895,"capac":14896,"figures":14897,"relati":14898,"Mitgli":14899,"tutto":14900,"Francisco":14901,",\"":14902,"Mär":14903,"Sus":14904,"Wes":14905,"rä":14906,"ço":14907,"essen":14908,"isme":14909,"sehr":14910,"poder":14911,"début":14912,"tries":14913,"developed":14914,"territorio":14915,"Fort":14916,"Hel":14917,"bell":14918,"cô":14919,"fle":14920,"rist":14921,"Ми":14922,"يخ":14923,"主義":14924,"并且":14925,"org":14926,"tober":14927,"tique":14928,"icas":14929,"terre":14930,"permit":14931,"1942":14932,"ological":14933,"Famil":14934,"Best":14935,"Lor":14936,"Mill":14937,"Plat":14938,"يح":14939,"いて":14940,"新闻":14941,"独立":14942,"auer":14943,"cula":14944,"вод":14945,"ابق":14946,"species":14947,"Pour":14948,"foc":14949,"male":14950,"mals":14951,"Та":14952,"另外":14953,"自然":14954,"decor":14955,"vece":14956,"move":14957,"estado":14958,"agne":14959,"ارات":14960,"prä":14961,"And":14962,"1982":14963,"دانش":14964,"الأمريكي":14965,"ume":14966,"هل":14967,"هور":14968,"recog":14969,"ingles":14970,"lied":14971,"trop":14972,"key":14973,"orient":14974,"1976":14975,"setz":14976,"الرغم":14977,"Henri":14978,"diesem":14979,"Oktober":14980,"78":14981,"Ale":14982,"Gold":14983,"También":14984,"UK":14985,"dat":14986,"hann":14987,"ños":14988,"حاد":14989,"زر":14990,"一般":14991,"山东":14992,"cken":14993,"واحد":14994,"mondo":14995,"interven":14996,"solu":14997,"médi":14998,"2011年":14999,"chiesa":15000,"Cre":15001,"Eli":15002,"Met":15003,"Tu":15004,"eas":15005,"svilup":15006,"والع":15007,"来的":15008,"eran":15009,"schen":15010,"dise":15011,"ierung":15012,"Commission":15013,"idea":15014,"ていた":15015,"pays":15016,"Kaiser":15017,"Este":15018,"ace":15019,"sell":15020,"vale":15021,"وما":15022,"کند":15023,"۱۹":15024,"neut":15025,"nehmen":15026,"علوم":15027,"menti":15028,"bot":15029,"Although":15030,"nie":15031,"刘备":15032,"atre":15033,"коман":15034,"famig":15035,"schools":15036,"rappresent":15037,"Music":15038,"Australia":15039,"》、《":15040,"1日":15041,"69":15042,"CE":15043,"Cent":15044,"Spa":15045,"Villa":15046,"feld":15047,"また":15048,"德国":15049,"altern":15050,"lav":15051,"sigui":15052,"pole":15053,"commission":15054,"questi":15055,"Rail":15056,"followed":15057,"клю":15058,"хі":15059,"ئية":15060,"بم":15061,"بسبب":15062,"حس":15063,"پر":15064,"人口":15065,"合作":15066,"1914":15067,"mother":15068,"venue":15069,"Reich":15070,"Frances":15071,"attac":15072,"termine":15073,"BA":15074,"Une":15075,"تز":15076,"طي":15077,"alg":15078,"costitu":15079,"inger":15080,"soit":15081,"web":15082,"Mary":15083,"liegt":15084,"employ":15085,"designed":15086,"Del":15087,"Dani":15088,"dung":15089,"jou":15090,"لند":15091,"نوع":15092,"적으로":15093,"eden":15094,"tene":15095,"omet":15096,"meno":15097,"interno":15098,"cambi":15099,"phys":15100,"figur":15101,"respons":15102,"Argentina":15103,"nouveau":15104,"Early":15105,"Other":15106,"Wir":15107,"mul":15108,"yl":15109,"До":15110,"чу":15111,"رج":15112,"قدر":15113,"完全":15114,"我们":15115,"enos":15116,"hout":15117,"вет":15118,"الدولة":15119,"study":15120,"Russian":15121,"DA":15122,"DV":15123,"clo":15124,"ichen":15125,"kte":15126,"فه":15127,"——":15128,"内容":15129,"invece":15130,"secu":15131,"igt":15132,"واست":15133,"izz":15134,"aires":15135,"ampion":15136,"Auch":15137,"Ces":15138,"ísti":15139,"ється":15140,"的是":15141,"encore":15142,"arte":15143,"quo":15144,"supp":15145,"porto":15146,"gobierno":15147,"Army":15148,"iendo":15149,"founded":15150,"lieu":15151,"Francia":15152,"self":15153,"idades":15154,"grandes":15155,"provided":15156,"Kur":15157,"lica":15158,"liter":15159,"تی":15160,"军事":15161,"lagen":15162,"applic":15163,"ommen":15164,"wife":15165,"рай":15166,"кар":15167,"mix":15168,"يدة":15169,"1964":15170,"village":15171,"ход":15172,"utilizz":15173,"augh":15174,"Haupt":15175,"Chicago":15176,"bill":15177,"có":15178,"ضد":15179,"insieme":15180,"cido":15181,"negli":15182,"нови":15183,"correspon":15184,"grö":15185,"1977":15186,"maggio":15187,"FI":15188,"Gil":15189,"Gli":15190,"Win":15191,"تُ":15192,"جا":15193,"inform":15194,"estos":15195,"aster":15196,"tiva":15197,"conna":15198,"voy":15199,"transfer":15200,"писа":15201,"occup":15202,"featured":15203,"Cana":15204,"uz":15205,"کش":15206,"之前":15207,"交通":15208,"archi":15209,"itung":15210,"roi":15211,"estre":15212,"mande":15213,"того":15214,"ومع":15215,"ربع":15216,"тур":15217,"Great":15218,"Frau":15219,"elimin":15220,"Bere":15221,"madre":15222,"ólo":15223,"此外":15224,"造成":15225,"erung":15226,"nego":15227,"ная":15228,"oman":15229,"comb":15230,"keine":15231,"glie":15232,"Championship":15233,"materi":15234,"Aut":15235,"Cir":15236,"Lad":15237,"все":15238,"жно":15239,"ذات":15240,"지만":15241,"novel":15242,"aga":15243,"وري":15244,"país":15245,"crimin":15246,"الخاص":15247,"Après":15248,"White":15249,"している":15250,"Day":15251,"Vo":15252,"aper":15253,"otras":15254,"wand":15255,"مون":15256,"الوقت":15257,"consu":15258,"radi":15259,"lies":15260,"forces":15261,"انيا":15262,"cuer":15263,"figure":15264,"lines":15265,"52":15266,"59":15267,"Award":15268,"Central":15269,"kan":15270,"вла":15271,"同性":15272,"这种":15273,"unst":15274,"stadt":15275,"commit":15276,"باشد":15277,"tività":15278,"вання":15279,"Fahr":15280,"God":15281,"Lie":15282,"away":15283,"iche":15284,"jar":15285,"jud":15286,"ген":15287,"وبا":15288,"ター":15289,"ered":15290,"incorpor":15291,"stu":15292,"ffe":15293,"prison":15294,"oppos":15295,"1962":15296,"USA":15297,"remained":15298,"zog":15299,"گرف":15300,"不是":15301,"只有":15302,"电视":15303,"siendo":15304,"tron":15305,"ughout":15306,"sero":15307,"preced":15308,"1946":15309,"curity":15310,"був":15311,"temporada":15312,"grafia":15313,"français":15314,"restaur":15315,"دين":15316,"دخل":15317,"كار":15318,"服务":15319,"inos":15320,"isl":15321,"tedes":15322,"beh":15323,"active":15324,"appointed":15325,"sons":15326,"près":15327,"press":15328,"origine":15329,"ется":15330,"Premi":15331,"espè":15332,"1000":15333,"Academ":15334,"fast":15335,"إذا":15336,"erk":15337,"amenti":15338,"suit":15339,"hop":15340,"idos":15341,"rence":15342,"police":15343,"1978":15344,"1956":15345,"maggi":15346,"graphie":15347,"Kap":15348,"ctos":15349,"categ":15350,"ян":15351,"ён":15352,"بأن":15353,"例如":15354,"conqu":15355,"rach":15356,"acces":15357,"illus":15358,"було":15359,"leading":15360,"ولايات":15361,"Non":15362,"Op":15363,"Pap":15364,"Pop":15365,"ضر":15366,"مدر":15367,"甚至":15368,"inici":15369,"thod":15370,"tous":15371,"section":15372,"abile":15373,"mana":15374,"Stand":15375,"лов":15376,"campo":15377,"testi":15378,"licher":15379,"written":15380,"Syste":15381,"quatre":15382,"واقع":15383,"Jes":15384,"cles":15385,"عرض":15386,"称为":15387,"적인":15388,"ellos":15389,"moun":15390,"hay":15391,"лед":15392,"ized":15393,"tér":15394,"1948":15395,"ennes":15396,"bility":15397,"орга":15398,"ють":15399,"ذي":15400,"مختلف":15401,"保护":15402,"而且":15403,"cola":15404,"usually":15405,"project":15406,"فيه":15407,"tional":15408,"кои":15409,"нова":15410,"тери":15411,"finished":15412,"prepar":15413,"beste":15414,"Radio":15415,"celui":15416,"damit":15417,"دولار":15418,"Cos":15419,"Sir":15420,"bos":15421,"nac":15422,"vet":15423,"walt":15424,"ätig":15425,"ев":15426,"حا":15427,"印度":15428,"帝国":15429,"除了":15430,"argu":15431,"stated":15432,"comenz":15433,"Arch":15434,"donc":15435,"centre":15436,"1966":15437,"frü":15438,"produzione":15439,"diffic":15440,"successo":15441,"März":15442,"CS":15443,"Cel":15444,"Hi":15445,"فار":15446,"نق":15447,"大量":15448,"aring":15449,"attribu":15450,"tou":15451,"etc":15452,"perché":15453,"berto":15454,"exc":15455,"compañ":15456,"grado":15457,"ление":15458,"Schwe":15459,"される":15460,"نظام":15461,"77":15462,"Hil":15463,"LA":15464,"MS":15465,"née":15466,"psy":15467,"zas":15468,"ôle":15469,"ето":15470,"得到":15471,"斯特":15472,"onia":15473,"itor":15474,"entras":15475,"conte":15476,"contempor":15477,"look":15478,"actor":15479,"achie":15480,"rés":15481,"البل":15482,"quattro":15483,"ready":15484,"Jahrhundert":15485,"Giovanni":15486,"sylvan":15487,"Ear":15488,"Justi":15489,"gig":15490,"gave":15491,"بالم":15492,"موس":15493,"۱۳":15494,"增加":15495,"希望":15496,"系列":15497,"通常":15498,"seven":15499,"ray":15500,"1918":15501,"chez":15502,"ugno":15503,"goal":15504,"дов":15505,"temper":15506,"فاع":15507,"----":15508,"XIX":15509,"Pos":15510,"apo":15511,"hres":15512,"nacional":15513,"tard":15514,"соб":15515,"фу":15516,"طبي":15517,"武器":15518,"，“":15519,"orte":15520,"orie":15521,"seen":15522,"resist":15523,"منذ":15524,"раб":15525,"кий":15526,"стан":15527,"pubblica":15528,"llev":15529,"ächst":15530,"800":15531,"kel":15532,"حجم":15533,"ضع":15534,"ظر":15535,"кан":15536,"election":15537,"personas":15538,"\")":15539,"Mont":15540,"Sud":15541,"ذه":15542,"sede":15543,"mains":15544,"prise":15545,"sera":15546,"vole":15547,"got":15548,"bibli":15549,"mientras":15550,"course":15551,"official":15552,"Mr":15553,"Out":15554,"Vere":15555,"Vers":15556,"fla":15557,"fest":15558,"nat":15559,"uvre":15560,"سان":15561,"ويل":15562,"われ":15563,"他在":15564,"ersch":15565,"ancia":15566,"isa":15567,"forts":15568,"denom":15569,"wich":15570,"коло":15571,"serve":15572,"discus":15573,"1947":15574,"السيا":15575,"schafts":15576,"bank":15577,"molti":15578,"communic":15579,"First":15580,"months":15581,"équipe":15582,"performance":15583,"98":15584,"Mün":15585,"Rel":15586,"hän":15587,"sare":15588,"ّة":15589,"继续":15590,"divi":15591,"added":15592,"ствен":15593,"hlen":15594,"Berg":15595,"politique":15596,"daugh":15597,"kra":15598,"kauf":15599,"mundo":15600,"tung":15601,"فی":15602,"美元":15603,"重新":15604,"stone":15605,"proven":15606,"zazione":15607,"54":15608,"開始":15609,"eso":15610,"deten":15611,"elen":15612,"quin":15613,"states":15614,"deri":15615,"maine":15616,"note":15617,"proje":15618,"тем":15619,"llen":15620,"student":15621,"ماعية":15622,"natural":15623,"67":15624,"Ram":15625,"Wal":15626,"ky":15627,"scul":15628,"tation":15629,"تعداد":15630,"民国":15631,"inj":15632,"1921":15633,"mod":15634,"ferro":15635,"worden":15636,"avre":15637,"Center":15638,"Mel":15639,"XX":15640,"ера":15641,"زية":15642,"غة":15643,"قب":15644,"两个":15645,"利用":15646,"导致":15647,"拥有":15648,"dido":15649,"sep":15650,"entemente":15651,"راً":15652,"corre":15653,"president":15654,"white":15655,"Provin":15656,"rights":15657,"Groß":15658,"language":15659,"SR":15660,"采用":15661,"primi":15662,"réalis":15663,"fuer":15664,"Carlo":15665,"Durch":15666,"2015年":15667,"ultimo":15668,"ської":15669,"Imper":15670,"Med":15671,"Tras":15672,"uter":15673,"قت":15674,"担任":15675,"esen":15676,"almost":15677,"ينا":15678,"علام":15679,"monde":15680,"ieren":15681,"Geb":15682,"affe":15683,"engine":15684,"Span":15685,"Chris":15686,"specific":15687,"justi":15688,"فقط":15689,"Daniel":15690,"Esta":15691,"Mol":15692,"gere":15693,"yen":15694,"яв":15695,"スト":15696,"生产":15697,"invest":15698,"onic":15699,"dest":15700,"destro":15701,"стве":15702,"ними":15703,"ربعة":15704,"سمة":15705,"Johann":15706,"athol":15707,"east":15708,"أخ":15709,"أع":15710,"كور":15711,"不能":15712,"protagon":15713,"1963":15714,"player":15715,"disting":15716,"الثاني":15717,"2013年":15718,"Ig":15719,"fl":15720,"mass":15721,"tta":15722,"باب":15723,"شري":15724,"これ":15725,"另一":15726,"对于":15727,"指出":15728,"版本":15729,"하게":15730,"alto":15731,"quasi":15732,"storia":15733,"ably":15734,"comm":15735,"lassen":15736,"giugno":15737,"Department":15738,"السكان":15739,"1958":15740,"Nella":15741,"وضع":15742,"material":15743,"Israel":15744,"Hum":15745,"Yo":15746,"cato":15747,"fit":15748,"jó":15749,"kin":15750,"llo":15751,"rate":15752,"érie":15753,"encontr":15754,"stage":15755,"rather":15756,"audi":15757,"dens":15758,"Indian":15759,"genommen":15760,"expe":15761,"finden":15762,"Carol":15763,"250":15764,"migli":15765,"رائيل":15766,"zeichnet":15767,"68":15768,"Dre":15769,"EP":15770,"Zwe":15771,"hit":15772,"бри":15773,"分别":15774,"ering":15775,"unächst":15776,"magaz":15777,"ارية":15778,"тан":15779,"лин":15780,"ابن":15781,"1983":15782,"chiam":15783,"пар":15784,"fight":15785,"داخل":15786,"sterreich":15787,"integr":15788,"72":15789,"emer":15790,"flu":15791,"jes":15792,"Са":15793,"بما":15794,"前往":15795,"波兰":15796,"1900":15797,"рен":15798,"полу":15799,"nello":15800,"forms":15801,"дей":15802,"1955":15803,"ній":15804,"scene":15805,"historia":15806,"Herr":15807,"الوط":15808,"ält":15809,"settembre":15810,"Ap":15811,"Big":15812,"Fund":15813,"eded":15814,"rug":15815,"tschaft":15816,"زا":15817,"issue":15818,"tradi":15819,"bian":15820,"upon":15821,"Auto":15822,"numer":15823,"ulture":15824,"writing":15825,"rimonio":15826,"Tele":15827,"block":15828,"mä":15829,"zon":15830,"дна":15831,"قائ":15832,"inoltre":15833,"alo":15834,"asing":15835,"tian":15836,"semi":15837,"mach":15838,"nov":15839,"saison":15840,"ادی":15841,"как":15842,"cting":15843,"films":15844,"miles":15845,"estable":15846,"Commun":15847,"tarde":15848,"leader":15849,"celebr":15850,"sylvania":15851,"CC":15852,"DR":15853,"بالت":15854,"تست":15855,"نقل":15856,"中共":15857,"科学":15858,"超过":15859,"cier":15860,"160":15861,"1953":15862,"princi":15863,"maggior":15864,"ълга":15865,"لديها":15866,"Tar":15867,"rê":15868,"сре":15869,"کی":15870,"不过":15871,"目前":15872,"直接":15873,"联盟":15874,"된다":15875,"alte":15876,"mean":15877,"access":15878,"provide":15879,"execu":15880,"мат":15881,"ياً":15882,"1938":15883,"entire":15884,"originally":15885,"2005年":15886,"luglio":15887,"Viet":15888,"España":15889,"hacer":15890,"تاريخ":15891,"大会":15892,"小时":15893,"libro":15894,"1923":15895,"expl":15896,"pian":15897,"gua":15898,"ريقة":15899,"inclus":15900,"ساء":15901,"players":15902,"ikan":15903,"2007年":15904,"groups":15905,"availa":15906,"Second":15907,"particolare":15908,"120":15909,"Cha":15910,"Flor":15911,"Gol":15912,"rado":15913,"squ":15914,"تخ":15915,"توان":15916,"طول":15917,"legen":15918,"tazione":15919,"appel":15920,"المث":15921,"ائر":15922,"1954":15923,"villa":15924,"haber":15925,"gestellt":15926,"either":15927,"Pennsylvania":15928,"Ara":15929,"Bol":15930,"Sant":15931,"big":15932,"black":15933,"бро":15934,"هود":15935,"ِّ":15936,"民族":15937,"艺术":15938,"까지":15939,"되었":15940,"면서":15941,"inal":15942,"verb":15943,"verschied":15944,"mois":15945,"ffen":15946,"ateurs":15947,"comes":15948,"الأش":15949,"reek":15950,"famili":15951,"2009年":15952,"nuova":15953,"nú":15954,"职业":15955,"percent":15956,"poca":15957,"agua":15958,"Indi":15959,"mbol":15960,"mile":15961,"ней":15962,"дар":15963,"استف":15964,"1959":15965,"giov":15966,"folgte":15967,"DVD":15968,"600":15969,"Dam":15970,"Hay":15971,"gue":15972,"أور":15973,"اهر":15974,"زمان":15975,"形成":15976,"首次":15977,"unnel":15978,"ands":15979,"reso":15980,"agu":15981,"déc":15982,"lowing":15983,"ربي":15984,"consist":15985,"الأولى":15986,"algunos":15987,"Records":15988,"ku":15989,"nuc":15990,"Ро":15991,"ды":15992,"开发":15993,"irs":15994,"ної":15995,"extre":15996,"ruolo":15997,"لاء":15998,"Rome":15999}