{"[UNK]":0,"[PAD]":1,"[BOS]":2,"[EOS]":3,"!":4,"\"":5,"#":6,"$":7,"%":8,"&":9,"'":10,"(":11,")":12,"*":13,"+":14,",":15,"-":16,".":17,"/":18,"0":19,"1":20,"2":21,"3":22,"4":23,"5":24,"6":25,"7":26,"8":27,"9":28,":":29,";":30,"<":31,"=":32,">":33,"?":34,"@":35,"A":36,"B":37,"C":38,"D":39,"E":40,"F":41,"G":42,"H":43,"I":44,"J":45,"K":46,"L":47,"M":48,"N":49,"O":50,"P":51,"Q":52,"R":53,"S":54,"T":55,"U":56,"V":57,"W":58,"X":59,"Y":60,"Z":61,"[":62,"\\":63,"]":64,"^":65,"_":66,"`":67,"a":68,"b":69,"c":70,"d":71,"e":72,"f":73,"g":74,"h":75,"i":76,"j":77,"k":78,"l":79,"m":80,"n":81,"o":82,"p":83,"q":84,"r":85,"s":86,"t":87,"u":88,"v":89,"w":90,"x":91,"y":92,"z":93,"{":94,"|":95,"}":96,"~":97,"£":98,"¥":99,"§":100,"«":101,"°":102,"±":103,"²":104,"³":105,"´":106,"µ":107,"·":108,"¹":109,"º":110,"»":111,"½":112,"¾":113,"À":114,"Á":115,"Ä":116,"Å":117,"Æ":118,"Ç":119,"É":120,"Í":121,"Î":122,"Ó":123,"Ö":124,"×":125,"Ø":126,"Ú":127,"Ü":128,"Þ":129,"ß":130,"à":131,"á":132,"â":133,"ã":134,"ä":135,"å":136,"æ":137,"ç":138,"è":139,"é":140,"ê":141,"ë":142,"ì":143,"í":144,"î":145,"ï":146,"ð":147,"ñ":148,"ò":149,"ó":150,"ô":151,"õ":152,"ö":153,"ø":154,"ù":155,"ú":156,"û":157,"ü":158,"ý":159,"þ":160,"ÿ":161,"Ā":162,"ā":163,"ă":164,"ą":165,"Ć":166,"ć":167,"Č":168,"č":169,"Đ":170,"đ":171,"ē":172,"ĕ":173,"ę":174,"ě":175,"ğ":176,"ġ":177,"ħ":178,"ĩ":179,"ī":180,"İ":181,"ı":182,"Ł":183,"ł":184,"ń":185,"ņ":186,"ŋ":187,"Ō":188,"ō":189,"ő":190,"œ":191,"ř":192,"Ś":193,"ś":194,"Ş":195,"ş":196,"Š":197,"š":198,"ũ":199,"ū":200,"ŭ":201,"ů":202,"ű":203,"ź":204,"Ż":205,"ż":206,"Ž":207,"ž":208,"Ɖ":209,"ƒ":210,"ơ":211,"ư":212,"Ʋ":213,"ǀ":214,"ǁ":215,"ǃ":216,"ǎ":217,"ǔ":218,"ǫ":219,"ș":220,"ț":221,"ɐ":222,"ɒ":223,"ɔ":224,"ɖ":225,"ə":226,"ɛ":227,"ɡ":228,"ɣ":229,"ɨ":230,"ɪ":231,"ʃ":232,"ʊ":233,"ʌ":234,"ʒ":235,"ʲ":236,"ʾ":237,"ʿ":238,"ˈ":239,"ˌ":240,"ː":241,"́":242,"̃":243,"̄":244,"̅":245,"̿":246,"͵":247,"Ά":248,"Α":249,"Δ":250,"Θ":251,"Λ":252,"Π":253,"Ρ":254,"Σ":255,"Υ":256,"Ψ":257,"Ω":258,"ά":259,"έ":260,"ή":261,"ί":262,"α":263,"β":264,"γ":265,"δ":266,"ε":267,"ζ":268,"η":269,"θ":270,"ι":271,"κ":272,"λ":273,"μ":274,"ν":275,"ξ":276,"ο":277,"π":278,"ρ":279,"ς":280,"σ":281,"τ":282,"υ":283,"φ":284,"χ":285,"ψ":286,"ω":287,"ό":288,"ύ":289,"ϝ":290,"ϥ":291,"ϩ":292,"ϯ":293,"А":294,"Б":295,"В":296,"Г":297,"Д":298,"З":299,"И":300,"К":301,"Л":302,"М":303,"Н":304,"О":305,"П":306,"Р":307,"С":308,"Т":309,"У":310,"Ф":311,"Ц":312,"Ч":313,"Ш":314,"Я":315,"а":316,"б":317,"в":318,"г":319,"д":320,"е":321,"ж":322,"з":323,"и":324,"й":325,"к":326,"л":327,"м":328,"н":329,"о":330,"п":331,"р":332,"с":333,"т":334,"у":335,"ф":336,"х":337,"ц":338,"ч":339,"ш":340,"щ":341,"ы":342,"ь":343,"я":344,"ё":345,"і":346,"ј":347,"Գ":348,"Ս":349,"ա":350,"գ":351,"ե":352,"ի":353,"ձ":354,"ն":355,"ո":356,"տ":357,"ր":358,"ց":359,"ւ":360,"ְ":361,"ֲ":362,"ִ":363,"ֵ":364,"ַ":365,"ָ":366,"ּ":367,"ׁ":368,"א":369,"ב":370,"ד":371,"ה":372,"ו":373,"ז":374,"ח":375,"ט":376,"י":377,"כ":378,"ל":379,"ם":380,"מ":381,"ן":382,"נ":383,"ס":384,"ע":385,"ף":386,"פ":387,"צ":388,"ר":389,"ש":390,"ת":391,"آ":392,"أ":393,"ؤ":394,"ئ":395,"ا":396,"ب":397,"ة":398,"ت":399,"ح":400,"خ":401,"د":402,"ر":403,"س":404,"ش":405,"ض":406,"ط":407,"ع":408,"ف":409,"ق":410,"ك":411,"ل":412,"م":413,"ن":414,"و":415,"ي":416,"َ":417,"ِ":418,"ْ":419,"گ":420,"ھ":421,"ं":422,"उ":423,"क":424,"ग":425,"ज":426,"त":427,"द":428,"न":429,"म":430,"य":431,"र":432,"ल":433,"ळ":434,"व":435,"श":436,"स":437,"ह":438,"ा":439,"ि":440,"ी":441,"े":442,"ै":443,"ो":444,"्":445,"ং":446,"ই":447,"এ":448,"জ":449,"ত":450,"দ":451,"ন":452,"ব":453,"র":454,"ি":455,"্":456,"ਂ":457,"ਅ":458,"ਆ":459,"ਇ":460,"ਉ":461,"ਕ":462,"ਖ":463,"ਗ":464,"ਘ":465,"ਚ":466,"ਛ":467,"ਜ":468,"ਠ":469,"ਣ":470,"ਤ":471,"ਥ":472,"ਦ":473,"ਨ":474,"ਪ":475,"ਬ":476,"ਭ":477,"ਰ":478,"ਲ":479,"ਵ":480,"ਸ":481,"ਹ":482,"਼":483,"ਾ":484,"ਿ":485,"ੀ":486,"ੁ":487,"ੂ":488,"ੇ":489,"ੈ":490,"ੋ":491,"੍":492,"ੰ":493,"ੱ":494,"க":495,"த":496,"ம":497,"ல":498,"ோ":499,"்":500,"ก":501,"ง":502,"ซ":503,"ญ":504,"ด":505,"ต":506,"ท":507,"น":508,"ม":509,"ย":510,"ล":511,"ว":512,"ห":513,"อ":514,"ะ":515,"ั":516,"า":517,"เ":518,"โ":519,"ใ":520,"ไ":521,"่":522,"་":523,"ཀ":524,"ག":525,"ང":526,"ན":527,"བ":528,"ཚ":529,"ཞ":530,"ར":531,"ཥ":532,"ི":533,"ེ":534,"ོ":535,"ྗ":536,"ྟ":537,"ྡ":538,"ྨ":539,"ᴬ":540,"ᵒ":541,"ᵥ":542,"ḍ":543,"Ḡ":544,"Ḥ":545,"ḥ":546,"ṁ":547,"Ṇ":548,"ṇ":549,"ṡ":550,"ṣ":551,"ṭ":552,"ả":553,"ế":554,"ị":555,"ọ":556,"ố":557,"ồ":558,"ờ":559,"ứ":560,"ừ":561,"ự":562,"ỹ":563,"ἀ":564,"ἁ":565,"ἄ":566,"ἶ":567,"Ἰ":568,"ὁ":569,"ὐ":570,"ὲ":571,"ὴ":572,"ὸ":573,"ὼ":574,"ᾶ":575,"ῆ":576,"ῖ":577,"ῦ":578,"ῳ":579,"​":580,"‌":581,"‍":582,"‎":583,"‐":584,"‑":585,"–":586,"—":587,"‖":588,"‘":589,"’":590,"“":591,"”":592,"„":593,"‟":594,"•":595,"…":596,"′":597,"″":598,"⁄":599,"⁰":600,"⁴":601,"⁵":602,"⁶":603,"⁷":604,"⁸":605,"⁹":606,"⁺":607,"⁻":608,"ⁿ":609,"₀":610,"₁":611,"₂":612,"₃":613,"₄":614,"₅":615,"₆":616,"₇":617,"₈":618,"₋":619,"ₑ":620,"ₓ":621,"ₕ":622,"ₙ":623,"ₚ":624,"₣":625,"₤":626,"₧":627,"₨":628,"€":629,"₹":630,"ℓ":631,"⅔":632,"⅛":633,"↑":634,"→":635,"∆":636,"∈":637,"−":638,"∘":639,"∧":640,"≈":641,"≠":642,"≤":643,"≥":644,"⊗":645,"⋅":646,"◌":647,"⟨":648,"⟩":649,"ⲁ":650,"ⲃ":651,"ⲏ":652,"ⲓ":653,"ⲙ":654,"ⲛ":655,"ⲡ":656,"ⲣ":657,"ⲧ":658,"ⲩ":659,"ⲱ":660,"《":661,"》":662,"『":663,"』":664,"〜":665,"あ":666,"い":667,"う":668,"か":669,"が":670,"き":671,"く":672,"ぐ":673,"け":674,"こ":675,"さ":676,"じ":677,"す":678,"せ":679,"た":680,"だ":681,"ち":682,"っ":683,"つ":684,"て":685,"で":686,"と":687,"な":688,"に":689,"ぬ":690,"ね":691,"の":692,"は":693,"ま":694,"み":695,"め":696,"も":697,"ゃ":698,"よ":699,"ら":700,"る":701,"を":702,"ア":703,"ィ":704,"イ":705,"ウ":706,"カ":707,"ク":708,"グ":709,"サ":710,"ス":711,"ダ":712,"ツ":713,"テ":714,"デ":715,"ト":716,"ナ":717,"バ":718,"フ":719,"ブ":720,"ベ":721,"ホ":722,"メ":723,"ラ":724,"ル":725,"ロ":726,"ン":727,"・":728,"ー":729,"一":730,"万":731,"三":732,"下":733,"不":734,"中":735,"之":736,"九":737,"书":738,"事":739,"二":740,"于":741,"五":742,"井":743,"亨":744,"京":745,"亭":746,"人":747,"令":748,"休":749,"会":750,"住":751,"何":752,"佶":753,"例":754,"侍":755,"便":756,"係":757,"俊":758,"倉":759,"僕":760,"僵":761,"償":762,"先":763,"光":764,"兒":765,"兔":766,"公":767,"共":768,"养":769,"刑":770,"別":771,"利":772,"刹":773,"則":774,"劇":775,"力":776,"加":777,"动":778,"劳":779,"勝":780,"化":781,"午":782,"华":783,"南":784,"卢":785,"厚":786,"及":787,"反":788,"司":789,"合":790,"同":791,"名":792,"君":793,"吾":794,"命":795,"和":796,"品":797,"善":798,"嘉":799,"国":800,"國":801,"在":802,"地":803,"坡":804,"城":805,"場":806,"塔":807,"塞":808,"壽":809,"多":810,"夜":811,"大":812,"夷":813,"奖":814,"奭":815,"女":816,"好":817,"如":818,"妙":819,"妻":820,"姑":821,"姦":822,"姻":823,"娼":824,"婚":825,"子":826,"孟":827,"孤":828,"学":829,"孫":830,"學":831,"宇":832,"安":833,"宏":834,"宙":835,"宝":836,"家":837,"宿":838,"寺":839,"寿":840,"對":841,"小":842,"尸":843,"尿":844,"居":845,"屋":846,"屍":847,"屑":848,"展":849,"山":850,"岐":851,"崇":852,"嶋":853,"嶽":854,"川":855,"州":856,"巫":857,"市":858,"布":859,"幢":860,"広":861,"底":862,"庭":863,"弾":864,"彌":865,"当":866,"彬":867,"彰":868,"御":869,"徳":870,"応":871,"忝":872,"恩":873,"愛":874,"慰":875,"慶":876,"手":877,"承":878,"抗":879,"持":880,"授":881,"援":882,"改":883,"政":884,"教":885,"新":886,"斷":887,"既":888,"日":889,"普":890,"智":891,"暴":892,"書":893,"會":894,"望":895,"朝":896,"本":897,"朱":898,"李":899,"杰":900,"東":901,"林":902,"柏":903,"柳":904,"校":905,"桂":906,"桃":907,"案":908,"梅":909,"條":910,"楫":911,"業":912,"楽":913,"榮":914,"槐":915,"模":916,"權":917,"歌":918,"正":919,"死":920,"殿":921,"民":922,"気":923,"水":924,"江":925,"泉":926,"法":927,"洲":928,"派":929,"浅":930,"渙":931,"港":932,"湯":933,"湾":934,"漸":935,"点":936,"炼":937,"無":938,"熜":939,"版":940,"特":941,"狼":942,"猛":943,"王":944,"瑕":945,"瑞":946,"生":947,"甲":948,"申":949,"男":950,"疑":951,"痛":952,"癖":953,"的":954,"皇":955,"盛":956,"省":957,"真":958,"瞳":959,"矢":960,"矩":961,"石":962,"破":963,"祖":964,"神":965,"禅":966,"福":967,"科":968,"突":969,"窟":970,"竜":971,"笑":972,"等":973,"粲":974,"素":975,"繇":976,"绝":977,"美":978,"習":979,"翔":980,"聖":981,"聯":982,"肇":983,"育":984,"臨":985,"至":986,"興":987,"花":988,"荊":989,"董":990,"蒲":991,"蔣":992,"血":993,"衍":994,"術":995,"衛":996,"袖":997,"補":998,"裴":999,"覚":1000,"覧":1001,"觀":1002,"言":1003,"記":1004,"詮":1005,"語":1006,"說":1007,"謐":1008,"議":1009,"读":1010,"象":1011,"賈":1012,"赛":1013,"趙":1014,"輿":1015,"运":1016,"速":1017,"遂":1018,"邪":1019,"邵":1020,"郎":1021,"郭":1022,"都":1023,"酒":1024,"醉":1025,"金":1026,"鎌":1027,"锻":1028,"長":1029,"长":1030,"門":1031,"關":1032,"院":1033,"集":1034,"雞":1035,"零":1036,"靈":1037,"靖":1038,"韓":1039,"頠":1040,"顔":1041,"食":1042,"餘":1043,"香":1044,"馬":1045,"高":1046,"鮮":1047,"鲜":1048,"鳧":1049,"鳳":1050,"鷖":1051,"鸞":1052,"黎":1053,"가":1054,"게":1055,"계":1056,"고":1057,"곤":1058,"공":1059,"과":1060,"교":1061,"구":1062,"국":1063,"극":1064,"근":1065,"기":1066,"긴":1067,"끌":1068,"남":1069,"내":1070,"너":1071,"노":1072,"눈":1073,"는":1074,"다":1075,"달":1076,"당":1077,"도":1078,"동":1079,"두":1080,"들":1081,"듯":1082,"라":1083,"래":1084,"럼":1085,"리":1086,"마":1087,"만":1088,"못":1089,"문":1090,"물":1091,"미":1092,"민":1093,"바":1094,"받":1095,"밤":1096,"백":1097,"보":1098,"빛":1099,"뼈":1100,"사":1101,"산":1102,"성":1103,"세":1104,"소":1105,"수":1106,"시":1107,"아":1108,"않":1109,"어":1110,"에":1111,"여":1112,"연":1113,"옷":1114,"우":1115,"원":1116,"을":1117,"음":1118,"의":1119,"이":1120,"자":1121,"잔":1122,"잘":1123,"전":1124,"주":1125,"죽":1126,"지":1127,"책":1128,"처":1129,"친":1130,"침":1131,"피":1132,"하":1133,"학":1134,"한":1135,"합":1136,"했":1137,"활":1138,"회":1139,"︤":1140,"︥":1141,"︦":1142,"：":1143,"th":1144,"in":1145,"er":1146,"an":1147,"the":1148,"on":1149,"ed":1150,"or":1151,"en":1152,"at":1153,"es":1154,"ar":1155,"al":1156,"as":1157,"is":1158,"and":1159,"of":1160,"to":1161,"ing":1162,"re":1163,"it":1164,"ic":1165,"ou":1166,"ion":1167,"st":1168,"le":1169,"ro":1170,"he":1171,"ent":1172,"il":1173,"ch":1174,"se":1175,"ad":1176,"am":1177,"om":1178,"for":1179,"ac":1180,"ol":1181,"el":1182,"ur":1183,"was":1184,"be":1185,"ter":1186,"ly":1187,"id":1188,"iv":1189,"ir":1190,"ation":1191,"The":1192,"im":1193,"ig":1194,"un":1195,"wh":1196,"ow":1197,"ith":1198,"ct":1199,"ce":1200,"with":1201,"ers":1202,"con":1203,"ag":1204,"ay":1205,"de":1206,"tr":1207,"us":1208,"em":1209,"19":1210,"ver":1211,"ot":1212,"20":1213,"by":1214,"ul":1215,"that":1216,"ut":1217,"ap":1218,"et":1219,"ere":1220,"res":1221,"ab":1222,"his":1223,"In":1224,"pro":1225,"op":1226,"com":1227,"ain":1228,"su":1229,"oun":1230,"pl":1231,"all":1232,"av":1233,"est":1234,"rom":1235,"ne":1236,"oc":1237,"art":1238,"um":1239,"are":1240,"from":1241,"ies":1242,"pe":1243,"cl":1244,"ity":1245,"ex":1246,"ther":1247,"ate":1248,"ts":1249,"if":1250,"os":1251,"ill":1252,"sh":1253,"te":1254,"od":1255,"ich":1256,"igh":1257,"ear":1258,"ber":1259,"ud":1260,"ment":1261,"als":1262,"ess":1263,"ak":1264,"ld":1265,"qu":1266,"ip":1267,"ard":1268,"per":1269,"were":1270,"ist":1271,"end":1272,"ish":1273,"gr":1274,"ated":1275,"ive":1276,"man":1277,"our":1278,"ial":1279,"pr":1280,"ian":1281,"which":1282,"201":1283,"ia":1284,"ary":1285,"ge":1286,"por":1287,"gh":1288,"ong":1289,"ant":1290,"one":1291,"ov":1292,"act":1293,"over":1294,"ame":1295,"wor":1296,"ie":1297,"af":1298,"out":1299,"tw":1300,"00":1301,"ass":1302,"ound":1303,"ost":1304,"du":1305,"ack":1306,"St":1307,"ast":1308,"had":1309,"str":1310,"Ch":1311,"not":1312,"but":1313,"ine":1314,"ical":1315,"der":1316,"bl":1317,"her":1318,"ave":1319,"cor":1320,"aw":1321,"ough":1322,"200":1323,"comp":1324,"its":1325,"ction":1326,"also":1327,"ell":1328,"ous":1329,"up":1330,"cr":1331,"He":1332,"fir":1333,"form":1334,"ted":1335,"ition":1336,"part":1337,"age":1338,"their":1339,"has":1340,"18":1341,"ach":1342,"own":1343,"bo":1344,"iz":1345,"au":1346,"ign":1347,"br":1348,"other":1349,"fe":1350,"ide":1351,"ould":1352,"ser":1353,"dis":1354,"ome":1355,"first":1356,"ke":1357,"ence":1358,"ore":1359,"ure":1360,"year":1361,"og":1362,"tim":1363,"who":1364,"land":1365,"ater":1366,"ice":1367,"ran":1368,"me":1369,"ight":1370,"ev":1371,"pres":1372,"have":1373,"work":1374,"ok":1375,"ib":1376,"ally":1377,"cont":1378,"cho":1379,"ans":1380,"ree":1381,"Un":1382,"off":1383,"ire":1384,"ens":1385,"ied":1386,"ents":1387,"this":1388,"),":1389,"dr":1390,"ep":1391,"mer":1392,"cre":1393,"att":1394,"ace":1395,"Th":1396,"ations":1397,"Al":1398,"ile":1399,"ding":1400,"ade":1401,"arr":1402,"port":1403,"ory":1404,"fin":1405,"been":1406,"uring":1407,"ue":1408,"two":1409,"ty":1410,"ite":1411,"pos":1412,"chool":1413,"cent":1414,"incl":1415,"able":1416,"ust":1417,"comm":1418,"play":1419,"inter":1420,"ates":1421,"ph":1422,"An":1423,"Ar":1424,"low":1425,"sp":1426,"It":1427,"new":1428,"fer":1429,"ail":1430,"ever":1431,"amp":1432,"after":1433,"old":1434,"ang":1435,"ced":1436,"rit":1437,"they":1438,"ark":1439,"li":1440,"des":1441,"po":1442,"ult":1443,"ions":1444,"any":1445,"col":1446,"ational":1447,"ased":1448,"min":1449,"ely":1450,").":1451,"time":1452,"int":1453,"co":1454,"ubl":1455,"Ne":1456,"we":1457,"ob":1458,"ict":1459,"pre":1460,"199":1461,"air":1462,"ces":1463,"ann":1464,"ors":1465,"fl":1466,"bec":1467,"ve":1468,"On":1469,"would":1470,"into":1471,"she":1472,"ood":1473,"fr":1474,"ited":1475,"urn":1476,"iss":1477,"him":1478,"spe":1479,"ind":1480,"ance":1481,"sy":1482,"bu":1483,"cess":1484,"ase":1485,"way":1486,"can":1487,"reg":1488,"stud":1489,"more":1490,"vel":1491,"used":1492,"loc":1493,"ath":1494,"includ":1495,"ons":1496,"ele":1497,"most":1498,"ember":1499,"serv":1500,"med":1501,"main":1502,"gan":1503,"De":1504,"Re":1505,"sel":1506,"cted":1507,"Com":1508,"ra":1509,"ck":1510,"ick":1511,"As":1512,"when":1513,"ters":1514,"vis":1515,"Mar":1516,"under":1517,"pt":1518,"io":1519,"ake":1520,"cond":1521,"only":1522,"ose":1523,"oy":1524,"mon":1525,"led":1526,"rough":1527,"tain":1528,"coun":1529,"rel":1530,"day":1531,"buil":1532,"produ":1533,"ious":1534,"cur":1535,"ident":1536,"again":1537,"prov":1538,"years":1539,"such":1540,"ished":1541,"ton":1542,"ug":1543,"ship":1544,"ating":1545,"een":1546,"some":1547,"pol":1548,"Wh":1549,"par":1550,"kn":1551,"New":1552,"ub":1553,"fore":1554,"where":1555,"sc":1556,"ten":1557,"Le":1558,"use":1559,"je":1560,"les":1561,"do":1562,"gen":1563,"so":1564,"sub":1565,"ivers":1566,"then":1567,"fil":1568,"red":1569,"publ":1570,"tern":1571,"ife":1572,"En":1573,"rele":1574,"ah":1575,"during":1576,"there":1577,"mov":1578,"school":1579,"row":1580,"son":1581,"This":1582,".\"":1583,"outh":1584,"ities":1585,"them":1586,"ret":1587,"Sh":1588,"ason":1589,"than":1590,"For":1591,"made":1592,"lar":1593,"high":1594,"betw":1595,"between":1596,"ily":1597,"ular":1598,"inv":1599,"through":1600,"ful":1601,"about":1602,"ward":1603,"oup":1604,"ollow":1605,"later":1606,"ouse":1607,"go":1608,"Con":1609,"ican":1610,"call":1611,"many":1612,"\".":1613,"sup":1614,"198":1615,"found":1616,"ings":1617,"ins":1618,"no":1619,"reat":1620,"cial":1621,"ics":1622,"197":1623,"aid":1624,"overn":1625,"ual":1626,"cer":1627,"ement":1628,"10":1629,"Amer":1630,"three":1631,"eng":1632,"ort":1633,"000":1634,"inn":1635,"Se":1636,"ived":1637,"well":1638,"oh":1639,"17":1640,"being":1641,"ific":1642,"ds":1643,"ered":1644,"ma":1645,"Af":1646,"iet":1647,"cons":1648,"ince":1649,"unt":1650,"set":1651,"ative":1652,"ix":1653,"char":1654,"became":1655,"owever":1656,"try":1657,"uary":1658,"16":1659,"num":1660,"ury":1661,"olog":1662,"nam":1663,"stru":1664,"eral":1665,"add":1666,"team":1667,"ef":1668,"ks":1669,"iel":1670,"15":1671,"Br":1672,"though":1673,"show":1674,"196":1675,"cap":1676,"including":1677,"against":1678,"second":1679,"gl":1680,"ale":1681,"trans":1682,"ms":1683,"season":1684,"bor":1685,"ject":1686,"lead":1687,"fam":1688,"appe":1689,"sign":1690,"follow":1691,"sur":1692,"velop":1693,"while":1694,"leg":1695,"sing":1696,"hel":1697,"ese":1698,"At":1699,"band":1700,"back":1701,"Col":1702,"both":1703,"Nor":1704,"cy":1705,"oper":1706,"stem":1707,"rece":1708,"ext":1709,"recor":1710,"pop":1711,"ople":1712,"soc":1713,"gu":1714,"develop":1715,"present":1716,"She":1717,"ros":1718,"iversity":1719,"before":1720,"mat":1721,"iew":1722,"known":1723,"After":1724,"Wor":1725,"igin":1726,"Is":1727,"erson":1728,"uc":1729,"hy":1730,"ized":1731,"cour":1732,"let":1733,"lin":1734,"called":1735,"open":1736,"\",":1737,"these":1738,"men":1739,"ley":1740,"ior":1741,"Sc":1742,"four":1743,"Pr":1744,"will":1745,"0s":1746,"ause":1747,"Joh":1748,"group":1749,"appear":1750,"Tr":1751,"ended":1752,"United":1753,"ash":1754,"12":1755,"Cl":1756,"ise":1757,"govern":1758,"II":1759,"ond":1760,"miss":1761,"iver":1762,"ry":1763,"come":1764,"Ro":1765,"ists":1766,"gram":1767,"emb":1768,"Coun":1769,"rol":1770,"az":1771,"road":1772,"my":1773,"ures":1774,"tri":1775,"ctor":1776,"hist":1777,"ually":1778,"mod":1779,"John":1780,"origin":1781,"offic":1782,"ven":1783,"School":1784,"ments":1785,"self":1786,"sever":1787,"film":1788,"life":1789,"writ":1790,"ik":1791,"contin":1792,"urch":1793,"195":1794,"ped":1795,"dif":1796,"Gr":1797,"mus":1798,"people":1799,"feat":1800,"Be":1801,"suc":1802,"ress":1803,"War":1804,"Pro":1805,"until":1806,"released":1807,"get":1808,"ional":1809,"194":1810,"dire":1811,"lo":1812,"law":1813,"ft":1814,"ower":1815,"long":1816,"bum":1817,"now":1818,"top":1819,"war":1820,"nor":1821,"line":1822,"fun":1823,"design":1824,"inst":1825,"view":1826,"system":1827,"requ":1828,"uro":1829,"public":1830,"same":1831,"ames":1832,"number":1833,"ism":1834,"Fran":1835,"head":1836,"Ph":1837,"state":1838,"ting":1839,"sm":1840,"ier":1841,"dec":1842,"cover":1843,"return":1844,"13":1845,"ility":1846,"early":1847,"may":1848,"mark":1849,"var":1850,"bel":1851,"cut":1852,"aking":1853,"house":1854,"enn":1855,"May":1856,"did":1857,"uss":1858,"stand":1859,"pass":1860,"organ":1861,"ren":1862,"ather":1863,"ys":1864,"jo":1865,"dep":1866,"start":1867,"ives":1868,"University":1869,"vers":1870,"album":1871,"omen":1872,"ane":1873,"American":1874,"oth":1875,"ently":1876,"like":1877,"uch":1878,"tow":1879,"itut":1880,"building":1881,"book":1882,"ible":1883,"care":1884,"ock":1885,"ided":1886,"ved":1887,"car":1888,"several":1889,"read":1890,"series":1891,"US":1892,"began":1893,"Jun":1894,"World":1895,"Or":1896,"remain":1897,"Car":1898,"peri":1899,"success":1900,"States":1901,"ired":1902,"ica":1903,"press":1904,"They":1905,"ball":1906,"said":1907,"ork":1908,"Ad":1909,"partic":1910,"Euro":1911,"national":1912,"Brit":1913,"rest":1914,"jor":1915,"ina":1916,"arch":1917,"vent":1918,"could":1919,"ices":1920,"mot":1921,"city":1922,"istr":1923,"ague":1924,"song":1925,"ured":1926,"ural":1927,"However":1928,"plac":1929,"ord":1930,"Can":1931,"14":1932,"ross":1933,"program":1934,"mil":1935,"chil":1936,"ime":1937,"camp":1938,"ient":1939,"run":1940,"spec":1941,"oot":1942,"abl":1943,"aim":1944,"ister":1945,"world":1946,"commun":1947,"grap":1948,"His":1949,"Bl":1950,"government":1951,"ble":1952,"along":1953,"Jan":1954,"game":1955,"chan":1956,"ically":1957,"name":1958,"embers":1959,"els":1960,"place":1961,"Ju":1962,"sl":1963,"ital":1964,"iving":1965,"..":1966,"25":1967,"side":1968,"colle":1969,"fect":1970,"record":1971,"family":1972,"very":1973,"allow":1974,"ek":1975,"less":1976,"ask":1977,"chn":1978,"sim":1979,"Ind":1980,"30":1981,"ax":1982,"down":1983,"class":1984,"11":1985,"mill":1986,"resp":1987,"ling":1988,"position":1989,"City":1990,"because":1991,"March":1992,"Co":1993,"near":1994,"Sp":1995,"ger":1996,"ept":1997,"cas":1998,"sk":1999,"each":2000,"differ":2001,"continu":2002,"fic":2003,"gest":2004,"comple":2005,"Europe":2006,"bus":2007,"iam":2008,"vision":2009,"music":2010,"ude":2011,"ning":2012,"bre":2013,"ised":2014,"ield":2015,"members":2016,"Ac":2017,"century":2018,"establ":2019,"There":2020,"National":2021,"Pl":2022,"lear":2023,"tribut":2024,"order":2025,"Ex":2026,"mber":2027,"ont":2028,"area":2029,"ern":2030,"played":2031,"York":2032,"ision":2033,"fact":2034,"based":2035,"mit":2036,"ages":2037,"major":2038,"South":2039,"fac":2040,"ants":2041,"Aug":2042,"ban":2043,"won":2044,"aving":2045,"ported":2046,"met":2047,"Pe":2048,"ians":2049,"home":2050,"power":2051,"local":2052,"since":2053,"Sept":2054,"ple":2055,"company":2056,"small":2057,"ium":2058,"cast":2059,"took":2060,"September":2061,"ner":2062,"town":2063,"August":2064,"2011":2065,"Apr":2066,"formed":2067,"cept":2068,"received":2069,"ator":2070,"April":2071,"former":2072,"Nov":2073,"Fe":2074,"July":2075,"ulation":2076,"January":2077,"iation":2078,"ival":2079,"even":2080,"All":2081,"charac":2082,"just":2083,"Oc":2084,"death":2085,"person":2086,"students":2087,"polit":2088,"left":2089,"prof":2090,"poin":2091,"cember":2092,"December":2093,"tit":2094,"van":2095,"ove":2096,"earch":2097,"Au":2098,"put":2099,"2010":2100,"ves":2101,"around":2102,"ief":2103,"ined":2104,"Ger":2105,"Cent":2106,"tal":2107,"built":2108,"Bo":2109,"During":2110,"ately":2111,"June":2112,"che":2113,"club":2114,"ality":2115,"Char":2116,"Will":2117,"ize":2118,"iness":2119,"ights":2120,"test":2121,"still":2122,"descr":2123,"incre":2124,"educ":2125,"2012":2126,"ged":2127,"ney":2128,"consid":2129,"ai":2130,"tober":2131,"mission":2132,"October":2133,"those":2134,"support":2135,"ars":2136,"arm":2137,"what":2138,"El":2139,"train":2140,"due":2141,"By":2142,"named":2143,"gy":2144,"ales":2145,"ird":2146,"ches":2147,"Pres":2148,"last":2149,"activ":2150,"water":2151,"level":2152,"scor":2153,"ground":2154,"ially":2155,"50":2156,"Man":2157,"bro":2158,"ides":2159,"ctions":2160,"ron":2161,"bur":2162,"following":2163,"depend":2164,"ology":2165,"claim":2166,"cording":2167,"career":2168,"ene":2169,"tract":2170,"large":2171,"tle":2172,"held":2173,"using":2174,"ards":2175,"hum":2176,"marr":2177,"dom":2178,"Par":2179,"tele":2180,"king":2181,"lab":2182,"women":2183,"constru":2184,"def":2185,"November":2186,"hip":2187,"24":2188,"iven":2189,"ought":2190,"Pol":2191,"193":2192,"another":2193,"val":2194,"poss":2195,"British":2196,"Bar":2197,"Ser":2198,"ien":2199,"Ge":2200,"den":2201,"ric":2202,"sequ":2203,"thern":2204,"Cor":2205,"hand":2206,"aged":2207,"ets":2208,"2014":2209,"ham":2210,"iety":2211,"2009":2212,"When":2213,"crit":2214,"addition":2215,"We":2216,"2015":2217,"moved":2218,"single":2219,"different":2220,"ca":2221,"gre":2222,"sol":2223,"thor":2224,"make":2225,"grad":2226,"oman":2227,"issu":2228,"ified":2229,"hal":2230,"ery":2231,"ford":2232,"event":2233,"ison":2234,"million":2235,"ats":2236,"augh":2237,"lit":2238,"oss":2239,"six":2240,"ched":2241,"within":2242,"control":2243,"sum":2244,"point":2245,"indu":2246,"Russ":2247,"2008":2248,"lim":2249,"member":2250,"ris":2251,"ref":2252,"2013":2253,"la":2254,"stitut":2255,"ports":2256,"ott":2257,"pect":2258,"techn":2259,"wards":2260,"pat":2261,"turn":2262,"ony":2263,"often":2264,"inc":2265,"alth":2266,"among":2267,"que":2268,"included":2269,"born":2270,"Gu":2271,"And":2272,"room":2273,"five":2274,"ense":2275,"akes":2276,"aul":2277,"field":2278,"hol":2279,"Me":2280,"dren":2281,"21":2282,"app":2283,"mid":2284,"North":2285,"BC":2286,"mar":2287,"appro":2288,"Gen":2289,"Mc":2290,"ines":2291,"Ear":2292,"mag":2293,"ument":2294,"key":2295,"ization":2296,"original":2297,"Fl":2298,"Park":2299,"formation":2300,"King":2301,"list":2302,"trad":2303,"sold":2304,"conom":2305,"track":2306,"Her":2307,"High":2308,"2007":2309,"ode":2310,"round":2311,"ploy":2312,"curr":2313,"TV":2314,"late":2315,"net":2316,"ste":2317,"Canad":2318,"iend":2319,"bruary":2320,"February":2321,"Am":2322,"Cal":2323,"exp":2324,"William":2325,"pur":2326,"role":2327,"West":2328,"Te":2329,"vol":2330,"emp":2331,"One":2332,"vir":2333,"nex":2334,"announ":2335,"sent":2336,"ampion":2337,"invol":2338,"describ":2339,"ience":2340,"kill":2341,"sit":2342,"month":2343,"period":2344,"mun":2345,"flu":2346,"post":2347,"ament":2348,"Sy":2349,"every":2350,"went":2351,"ively":2352,"Hist":2353,"chang":2354,"urther":2355,"served":2356,"ler":2357,"rad":2358,"import":2359,"ody":2360,"Sw":2361,"ral":2362,"ature":2363,"itary":2364,"attack":2365,"final":2366,"much":2367,"itions":2368,"include":2369,"beg":2370,"need":2371,"reet":2372,"compet":2373,"Li":2374,"2016":2375,"rist":2376,"aster":2377,"cil":2378,"site":2379,"posed":2380,"div":2381,"2006":2382,"expl":2383,"published":2384,"ondon":2385,"tem":2386,"imes":2387,"Ste":2388,"aft":2389,"father":2390,"take":2391,"bert":2392,"research":2393,"inning":2394,"established":2395,"result":2396,"epis":2397,"placed":2398,"Em":2399,"dist":2400,"popular":2401,"23":2402,"effect":2403,"2017":2404,"children":2405,"great":2406,"history":2407,"Min":2408,"project":2409,"Mon":2410,"carr":2411,"Ed":2412,"refer":2413,"cture":2414,"28":2415,"equ":2416,"sty":2417,"Eng":2418,"London":2419,"right":2420,"become":2421,"invest":2422,"business":2423,"ability":2424,"friend":2425,"died":2426,"dem":2427,"ull":2428,"President":2429,"ae":2430,"hold":2431,"ps":2432,"pain":2433,"host":2434,"service":2435,"next":2436,"short":2437,"station":2438,"distr":2439,"development":2440,"reach":2441,"stat":2442,"Austr":2443,"however":2444,"profess":2445,"action":2446,"ness":2447,"wro":2448,"wrote":2449,"County":2450,"continued":2451,"26":2452,"rec":2453,"State":2454,"km":2455,"Colle":2456,"character":2457,"House":2458,"bar":2459,"Of":2460,"Part":2461,"init":2462,"apan":2463,"uck":2464,"27":2465,"Air":2466,"aud":2467,"bas":2468,"ways":2469,"change":2470,"works":2471,"With":2472,"rench":2473,"Cap":2474,"Japan":2475,"rown":2476,"thing":2477,"angu":2478,"country":2479,"French":2480,"Mus":2481,"ying":2482,"third":2483,"comb":2484,"few":2485,"gener":2486,"television":2487,"ges":2488,"see":2489,"opened":2490,"Dr":2491,"case":2492,"given":2493,"wood":2494,"education":2495,"win":2496,"without":2497,"190":2498,"These":2499,"del":2500,"west":2501,"real":2502,"author":2503,"Phil":2504,"various":2505,"22":2506,"came":2507,"games":2508,"idge":2509,"League":2510,"Des":2511,"vious":2512,"half":2513,"announced":2514,"Jack":2515,"located":2516,"pract":2517,"ena":2518,"Intern":2519,"youn":2520,"church":2521,"special":2522,"non":2523,"ained":2524,"ensive":2525,"south":2526,"production":2527,"aver":2528,"Geor":2529,"prote":2530,"vot":2531,"cult":2532,"ox":2533,"ering":2534,"ilar":2535,"graph":2536,"aff":2537,"ones":2538,"north":2539,"fem":2540,"ination":2541,"represent":2542,"189":2543,"meet":2544,"econom":2545,"To":2546,"bi":2547,"ivid":2548,"having":2549,"term":2550,"ays":2551,"lands":2552,"Soc":2553,"process":2554,"Dav":2555,"ences":2556,"2018":2557,"interest":2558,"San":2559,"di":2560,"board":2561,"Afr":2562,"social":2563,"ution":2564,"elect":2565,"European":2566,"days":2567,"rodu":2568,"started":2569,"cop":2570,"fort":2571,"ago":2572,"tra":2573,"ample":2574,"Engl":2575,"ampionship":2576,"ned":2577,"2005":2578,"political":2579,"English":2580,"best":2581,"ending":2582,"Hall":2583,"rac":2584,"29":2585,"ank":2586,"acc":2587,"appl":2588,"fed":2589,"ues":2590,"100":2591,"adem":2592,"irc":2593,"ipt":2594,"langu":2595,"rock":2596,"particip":2597,"cts":2598,"Art":2599,"CA":2600,"vide":2601,"foot":2602,"histor":2603,"osed":2604,"Reg":2605,"should":2606,"Christ":2607,"cret":2608,"Su":2609,"gun":2610,"forman":2611,"avy":2612,"aken":2613,"introdu":2614,"help":2615,"Cour":2616,"population":2617,"further":2618,"teach":2619,"Gre":2620,"Med":2621,"har":2622,"total":2623,"Austral":2624,"atic":2625,"ared":2626,"reported":2627,"promot":2628,"suf":2629,"Act":2630,"sex":2631,"force":2632,"ush":2633,"disc":2634,"iol":2635,"iated":2636,"mi":2637,"ata":2638,"ials":2639,"successful":2640,"Ber":2641,"coming":2642,"week":2643,"produced":2644,"employ":2645,"proper":2646,"prim":2647,"draw":2648,"Cr":2649,"College":2650,"ivil":2651,"acqu":2652,"ministr":2653,"individ":2654,"iate":2655,"influ":2656,"court":2657,"gradu":2658,"idence":2659,"ung":2660,"gether":2661,"anti":2662,"188":2663,"does":2664,"important":2665,"No":2666,"hous":2667,"roy":2668,"anted":2669,"ogn":2670,"working":2671,"While":2672,"described":2673,"40":2674,"Je":2675,"omb":2676,"free":2677,"ama":2678,"ably":2679,"sug":2680,"beh":2681,"returned":2682,"others":2683,"good":2684,"trav":2685,"release":2686,"covered":2687,"vice":2688,"partment":2689,"previous":2690,"Comp":2691,"nal":2692,"military":2693,"dam":2694,"whe":2695,"direct":2696,"human":2697,"story":2698,"typ":2699,"ublic":2700,"version":2701,"History":2702,"style":2703,"body":2704,"yn":2705,"grow":2706,"wall":2707,"ators":2708,"award":2709,"worked":2710,"considered":2711,"making":2712,"oto":2713,"rew":2714,"2000":2715,"never":2716,"River":2717,"ington":2718,"appeared":2719,"industr":2720,"aign":2721,"estern":2722,"ours":2723,"similar":2724,"Res":2725,"eas":2726,"ls":2727,"president":2728,"himself":2729,"Sch":2730,"anc":2731,"conne":2732,"ored":2733,"Mor":2734,"ains":2735,"particular":2736,"tock":2737,"common":2738,"must":2739,"full":2740,"belie":2741,"community":2742,"England":2743,"Har":2744,"tar":2745,"ication":2746,"agre":2747,"face":2748,"concer":2749,"sure":2750,"Street":2751,"general":2752,"viron":2753,"cost":2754,"ecut":2755,"rail":2756,"und":2757,"manag":2758,"region":2759,"aut":2760,"pecial":2761,"performan":2762,"pointed":2763,"General":2764,"According":2765,"Val":2766,"assoc":2767,"media":2768,"signed":2769,"Pal":2770,"acy":2771,"bet":2772,"together":2773,"ither":2774,"ership":2775,"aper":2776,"ountain":2777,"tee":2778,"Assoc":2779,"useum":2780,"Paul":2781,"ze":2782,"strong":2783,"lock":2784,"modern":2785,"Str":2786,"light":2787,"mater":2788,"pite":2789,"example":2790,"osp":2791,"America":2792,"Road":2793,"hib":2794,"compan":2795,"attle":2796,"Ke":2797,"ink":2798,"atter":2799,"iment":2800,"episode":2801,"video":2802,"ano":2803,"rop":2804,"joined":2805,"oe":2806,"termin":2807,"match":2808,"married":2809,"Ma":2810,"how":2811,"squ":2812,"187":2813,"lect":2814,"created":2815,"International":2816,"Fr":2817,"broad":2818,"itive":2819,"legal":2820,"uk":2821,"Some":2822,"hon":2823,"shows":2824,"campaign":2825,"recorded":2826,"German":2827,"construction":2828,"60":2829,"From":2830,"Per":2831,"itch":2832,"pen":2833,"elt":2834,"vironment":2835,"Mill":2836,"Rich":2837,"Tw":2838,"rul":2839,"close":2840,"cle":2841,"got":2842,"thod":2843,"atch":2844,"outs":2845,"suggest":2846,"although":2847,"word":2848,"labor":2849,"across":2850,"office":2851,"Do":2852,"Wil":2853,"ties":2854,"ances":2855,"tom":2856,"priv":2857,"ension":2858,"phys":2859,"vill":2860,"away":2861,"services":2862,"oyal":2863,"Rep":2864,"hom":2865,"aly":2866,"Stud":2867,"Kore":2868,"lost":2869,"wide":2870,"ape":2871,"party":2872,"Scott":2873,"Distr":2874,"exist":2875,"Mich":2876,"fire":2877,"sw":2878,"ishing":2879,"Council":2880,"market":2881,"hard":2882,"tax":2883,"decl":2884,"uses":2885,"title":2886,"dest":2887,"ising":2888,"ams":2889,"unn":2890,"Although":2891,"respons":2892,",\"":2893,"Div":2894,"fig":2895,"tries":2896,"craft":2897,"developed":2898,"Dan":2899,"ded":2900,"stor":2901,"lex":2902,"access":2903,"debut":2904,"schools":2905,"followed":2906,"dependent":2907,"East":2908,"taken":2909,"mother":2910,"mult":2911,"sour":2912,"ett":2913,"ops":2914,"redu":2915,"district":2916,"District":2917,"Hen":2918,"ri":2919,"adv":2920,"species":2921,"Mil":2922,"nov":2923,"Court":2924,"times":2925,"range":2926,"command":2927,"recogn":2928,"nia":2929,"proble":2930,"istic":2931,"study":2932,"Bur":2933,"La":2934,"fall":2935,"pay":2936,"provided":2937,"founded":2938,"Govern":2939,"night":2940,"Hol":2941,"Hill":2942,"tor":2943,"wife":2944,"you":2945,"ster":2946,"2019":2947,"front":2948,"featured":2949,"Jackson":2950,"My":2951,"Mart":2952,"NA":2953,"Red":2954,"saw":2955,"tour":2956,"defin":2957,"ount":2958,"estival":2959,"France":2960,"Russian":2961,"pan":2962,"uel":2963,"Im":2964,"fail":2965,"cript":2966,"186":2967,"Early":2968,"ana":2969,"areas":2970,"Island":2971,"Lu":2972,"iting":2973,"...":2974,"far":2975,"oor":2976,"ico":2977,"contract":2978,"ples":2979,"Union":2980,"relation":2981,"signific":2982,"remained":2983,"foc":2984,"iers":2985,"xim":2986,"ots":2987,"appointed":2988,"quar":2989,"Law":2990,"Qu":2991,"cup":2992,"ply":2993,"inal":2994,"review":2995,"leading":2996,"plan":2997,"31":2998,"Ben":2999,"Miss":3000,"fav":3001,"inj":3002,"era":3003,"once":3004,"ctive":3005,"prison":3006,"ological":3007,"designed":3008,"Tor":3009,"stated":3010,"usually":3011,"super":3012,"finished":3013,"know":3014,"written":3015,"Canada":3016,"Party":3017,"Other":3018,"cell":3019,"doc":3020,"ming":3021,"outhern":3022,"color":3023,"curity":3024,"George":3025,"live":3026,"rem":3027,"ements":3028,"assist":3029,"election":3030,"subject":3031,"ength":3032,"break":3033,"icle":3034,"berg":3035,"2004":3036,"spir":3037,"Gl":3038,"gave":3039,"ara":3040,"itor":3041,"deg":3042,"duc":3043,"international":3044,"polic":3045,"cred":3046,"syl":3047,"goal":3048,"burg":3049,"possible":3050,"iding":3051,"ceed":3052,"contribut":3053,"achie":3054,"Army":3055,"proved":3056,"Sk":3057,"dle":3058,"na":3059,"alk":3060,"ipp":3061,"ready":3062,"months":3063,"Penn":3064,"Rev":3065,"information":3066,"ential":3067,"Association":3068,"don":3069,"daugh":3070,"states":3071,"ention":3072,"seen":3073,"resul":3074,"added":3075,"institut":3076,"young":3077,"pon":3078,"ilities":3079,"avail":3080,"Ab":3081,"experi":3082,"ification":3083,"sen":3084,"seven":3085,"look":3086,"Cali":3087,"Rail":3088,"vo":3089,"itar":3090,"ille":3091,"condu":3092,"forms":3093,"rael":3094,"tradition":3095,"Que":3096,"bill":3097,"mor":3098,"icated":3099,"ships":3100,"child":3101,"Dem":3102,"Mal":3103,"points":3104,"Bel":3105,"cel":3106,"det":3107,"Califor":3108,"Rad":3109,"UK":3110,"almost":3111,"reek":3112,"Israel":3113,"But":3114,"rights":3115,"white":3116,"empt":3117,"occur":3118,"player":3119,"California":3120,"Cast":3121,"ead":3122,"ency":3123,"rather":3124,"God":3125,"Sm":3126,"execut":3127,"quest":3128,"cus":3129,"mp":3130,"engine":3131,"official":3132,"Lou":3133,"hab":3134,"2003":3135,"student":3136,"Charles":3137,"iction":3138,"language":3139,"Educ":3140,"wid":3141,"ellow":3142,"commit":3143,"provide":3144,"originally":3145,"Green":3146,"fight":3147,"race":3148,"separ":3149,"ockey":3150,"Flor":3151,"cing":3152,"entire":3153,"stitute":3154,"cal":3155,"either":3156,"jud":3157,"tre":3158,"players":3159,"writing":3160,"investig":3161,"Division":3162,"Henry":3163,"east":3164,"enced":3165,"Indian":3166,"nat":3167,"ole":3168,"Mid":3169,"bit":3170,"too":3171,"groups":3172,"hor":3173,"mis":3174,"uture":3175,"type":3176,"completed":3177,"iple":3178,"available":3179,"via":3180,"anim":3181,"asing":3182,"above":3183,"corpor":3184,"2001":3185,"playing":3186,"subsequ":3187,"eventually":3188,"average":3189,"Don":3190,"James":3191,"mem":3192,"say":3193,"ule":3194,"aries":3195,"upon":3196,"igned":3197,"decided":3198,"pers":3199,"atory":3200,"ioned":3201,"earli":3202,"oney":3203,"black":3204,"Ang":3205,"tained":3206,"involved":3207,"Company":3208,"Great":3209,"wind":3210,"tol":3211,"administr":3212,"idents":3213,"instead":3214,"India":3215,"laun":3216,"significant":3217,"cause":3218,"enter":3219,"vert":3220,"comes":3221,"active":3222,"mean":3223,"pal":3224,"thus":3225,"move":3226,"jour":3227,"pie":3228,"yl":3229,"meas":3230,"Thom":3231,"Department":3232,"RA":3233,"living":3234,"ror":3235,"airs":3236,"certain":3237,"Cup":3238,"Hu":3239,"recent":3240,"deal":3241,"aps":3242,"Church":3243,"sylvan":3244,"ns":3245,"ipal":3246,"regular":3247,"Ir":3248,"Port":3249,"Roman":3250,"ben":3251,"sus":3252,"omet":3253,"respect":3254,"cis":3255,"ergy":3256,"2002":3257,"brought":3258,"sylvania":3259,"Mark":3260,"Since":3261,"ael":3262,"mand":3263,"graphy":3264,"Fir":3265,"ique":3266,"itz":3267,"compl":3268,"scored":3269,"fol":3270,"tell":3271,"inated":3272,"teen":3273,"regard":3274,"join":3275,"songs":3276,"training":3277,"base":3278,"aint":3279,"pred":3280,"Black":3281,"respon":3282,"current":3283,"Pennsylvania":3284,"Bill":3285,"rain":3286,"environment":3287,"section":3288,"ades":3289,"ends":3290,"throughout":3291,"Bal":3292,"civil":3293,"ked":3294,"mal":3295,"stage":3296,"sey":3297,"percent":3298,"space":3299,"performance":3300,"ging":3301,"hit":3302,"lay":3303,"purch":3304,"liament":3305,"elected":3306,"capt":3307,"critic":3308,"female":3309,"Du":3310,"frequ":3311,"nd":3312,"vic":3313,"erous":3314,"Mary":3315,"nation":3316,"sound":3317,"ications":3318,"Second":3319,"cases":3320,"gress":3321,"ancial":3322,"performed":3323,"minut":3324,"situ":3325,"Mu":3326,"Mex":3327,"clear":3328,"food":3329,"qual":3330,"David":3331,"dou":3332,"gas":3333,"rap":3334,"least":3335,"ady":3336,"imp":3337,"aval":3338,"actions":3339,"consist":3340,"Education":3341,"stant":3342,"acts":3343,"185":3344,"method":3345,"Wash":3346,"eight":3347,"ope":3348,"1997":3349,"archite":3350,"stone":3351,"prob":3352,"China":3353,"brary":3354,"countries":3355,"uals":3356,"league":3357,"forces":3358,"tru":3359,"Leg":3360,"college":3361,"bir":3362,"future":3363,"police":3364,"Club":3365,"occup":3366,"count":3367,"introduced":3368,"First":3369,"Washington":3370,"500":3371,"unk":3372,"course":3373,"Er":3374,"Follow":3375,"dy":3376,"mass":3377,"viol":3378,"ference":3379,"studies":3380,"standing":3381,"Royal":3382,"sch":3383,"tro":3384,"threat":3385,"replaced":3386,"exam":3387,"events":3388,"allowed":3389,"brother":3390,"travel":3391,"oil":3392,"ateg":3393,"perform":3394,"Championship":3395,"Commission":3396,"lines":3397,"Thomas":3398,"Award":3399,"lower":3400,"Bu":3401,"Cong":3402,"Sen":3403,"treat":3404,"chann":3405,"odes":3406,"changed":3407,"Swed":3408,"behind":3409,"central":3410,"Japanese":3411,"economic":3412,"daughter":3413,"BS":3414,"Bro":3415,"commer":3416,"exper":3417,"aker":3418,"movement":3419,"transfer":3420,"miles":3421,"Australia":3422,"degree":3423,"Che":3424,"Log":3425,"Mer":3426,"ened":3427,"cru":3428,"related":3429,"inner":3430,"director":3431,"activities":3432,"approach":3433,"killed":3434,"radio":3435,"novel":3436,"Following":3437,".,":3438,"Just":3439,"bed":3440,"gin":3441,"oon":3442,"ino":3443,"aircraft":3444,"largest":3445,"ike":3446,"Iran":3447,"Lab":3448,"Los":3449,"forced":3450,"owned":3451,"box":3452,"keep":3453,"soon":3454,"surv":3455,"You":3456,"bon":3457,"mic":3458,"taking":3459,"especial":3460,"structure":3461,"model":3462,"Mag":3463,"Museum":3464,"bound":3465,"already":3466,"ands":3467,"aves":3468,"uments":3469,"closed":3470,"iff":3471,"passed":3472,"claimed":3473,"professional":3474,"especially":3475,"Ter":3476,"iage":3477,"mb":3478,"pow":3479,"atre":3480,"towards":3481,"etro":3482,"aining":3483,"183":3484,"football":3485,"If":3486,"Sim":3487,"data":3488,"mig":3489,"stop":3490,"ream":3491,"ida":3492,"parts":3493,"means":3494,"attended":3495,"Peter":3496,"ospital":3497,"Gold":3498,"ender":3499,"Festival":3500,"aj":3501,"past":3502,"woman":3503,"opt":3504,"complet":3505,"goals":3506,"complete":3507,"companies":3508,"private":3509,"Lat":3510,"SR":3511,"Sov":3512,"fan":3513,"hours":3514,"sor":3515,"instr":3516,"itself":3517,"III":3518,"suffer":3519,"Not":3520,"isters":3521,"express":3522,"photo":3523,"sett":3524,"teams":3525,"network":3526,"houses":3527,"ometimes":3528,"IA":3529,"Sam":3530,"date":3531,"oud":3532,"according":3533,"attemp":3534,"Louis":3535,"Soviet":3536,"Jer":3537,"cit":3538,"ey":3539,"lack":3540,"imate":3541,"pose":3542,"federal":3543,"80":3544,"Fin":3545,"sal":3546,"going":3547,"azine":3548,"features":3549,"beginning":3550,"Fil":3551,"bal":3552,"ij":3553,"lam":3554,"mas":3555,"ump":3556,"exhib":3557,"whose":3558,"Germany":3559,"Most":3560,"cul":3561,"cross":3562,"oz":3563,"size":3564,"Chic":3565,"financial":3566,"famil":3567,"little":3568,"reached":3569,"Ap":3570,"Cam":3571,"gir":3572,"orn":3573,"reve":3574,"sele":3575,"evidence":3576,"ictor":3577,"Recor":3578,"systems":3579,"asked":3580,"45":3581,"cat":3582,"required":3583,"cretary":3584,"Miller":3585,"outside":3586,"aring":3587,"asons":3588,"compos":3589,"lik":3590,"coast":3591,"Frank":3592,"issue":3593,"Music":3594,"Block":3595,"Later":3596,"Viet":3597,"Central":3598,"Ts":3599,"pot":3600,"ville":3601,"olution":3602,"ems":3603,"opening":3604,"increased":3605,"Sal":3606,"sat":3607,"ufact":3608,"arily":3609,"ids":3610,"distribut":3611,"Commun":3612,"writer":3613,"meeting":3614,"awarded":3615,"Angel":3616,"70":3617,"Harr":3618,"Sir":3619,"han":3620,"health":3621,"relig":3622,"Play":3623,"Jose":3624,"circ":3625,"fif":3626,"give":3627,"ston":3628,"web":3629,"1996":3630,"operations":3631,"material":3632,"Mr":3633,"scre":3634,"wa":3635,"books":3636,"Republic":3637,"document":3638,"Out":3639,"Pat":3640,"happ":3641,"anch":3642,"esh":3643,"prom":3644,"Congress":3645,"big":3646,"ild":3647,"suit":3648,"ibility":3649,"attempt":3650,"find":3651,"Academ":3652,"cand":3653,"fre":3654,"hun":3655,"rup":3656,"unit":3657,"iance":3658,"1995":3659,"1999":3660,"Francis":3661,"practice":3662,"nom":3663,"wing":3664,"ald":3665,"ula":3666,"porary":3667,"1994":3668,"icks":3669,"higher":3670,"recording":3671,"Canadian":3672,"Minister":3673,"Irish":3674,"Chicago":3675,"Alex":3676,"Dis":3677,"conver":3678,"tres":3679,"Grand":3680,"personal":3681,"Av":3682,"Ire":3683,"Mile":3684,"SA":3685,"ius":3686,"ift":3687,"syn":3688,"organization":3689,"increase":3690,"Society":3691,"Ireland":3692,"Oper":3693,"oo":3694,"sometimes":3695,"today":3696,"pring":3697,"liter":3698,"Russia":3699,"34":3700,"Mac":3701,"bour":3702,"tic":3703,"ving":3704,"secut":3705,"amed":3706,"becoming":3707,"Institute":3708,"plann":3709,"1998":3710,"Commit":3711,"characters":3712,"individual":3713,"How":3714,"Sum":3715,"gar":3716,"rot":3717,"forts":3718,"Inter":3719,"ify":3720,"floor":3721,"guitar":3722,"vention":3723,"natural":3724,"Fed":3725,"Has":3726,"Sun":3727,"Wood":3728,"river":3729,"report":3730,"manufact":3731,"create":3732,"center":3733,"Another":3734,"consider":3735,"turned":3736,"Two":3737,"35":3738,"Life":3739,"bers":3740,"coup":3741,"farm":3742,"rate":3743,"newsp":3744,"object":3745,"supported":3746,"complex":3747,"destroy":3748,"Kar":3749,"Tran":3750,"Vir":3751,"mur":3752,"pet":3753,"aled":3754,"icles":3755,"ola":3756,"diffic":3757,"changes":3758,"property":3759,"Valley":3760,"Dire":3761,"independent":3762,"African":3763,"earlier":3764,"Stock":3765,"Year":3766,"ba":3767,"mir":3768,"sport":3769,"wr":3770,"thes":3771,"fourth":3772,"industry":3773,"Bay":3774,"Gal":3775,"rich":3776,"wish":3777,"auto":3778,"commiss":3779,"coach":3780,"thought":3781,"appearance":3782,"function":3783,"Board":3784,"summer":3785,"Cur":3786,"Mur":3787,"Many":3788,"Sup":3789,"ios":3790,"length":3791,"ta":3792,"inese":3793,"news":3794,"responsible":3795,"38":3796,"fill":3797,"jun":3798,"icts":3799,"immed":3800,"whom":3801,"plant":3802,"izing":3803,"Under":3804,"includes":3805,"leader":3806,"rooms":3807,"Africa":3808,"better":3809,"commercial":3810,"(\"":3811,"CO":3812,"PA":3813,"flow":3814,"lived":3815,"184":3816,"decision":3817,"caused":3818,"Committee":3819,"money":3820,"pair":3821,"ert":3822,"lebr":3823,"security":3824,"ume":3825,"ishop":3826,"noted":3827,"ictory":3828,"ordin":3829,"collection":3830,"Span":3831,"bank":3832,"Center":3833,"Off":3834,"Bus":3835,"ff":3836,"hus":3837,"eds":3838,"celebr":3839,"pected":3840,"counter":3841,"additional":3842,"limited":3843,"holds":3844,"primary":3845,"policy":3846,"Over":3847,"mix":3848,"income":3849,"oute":3850,"apt":3851,"prior":3852,"antic":3853,"obal":3854,"location":3855,"selves":3856,"White":3857,"venue":3858,"Michael":3859,"Dev":3860,"Ham":3861,"Rock":3862,"yr":3863,"ories":3864,"stations":3865,"dead":3866,"emer":3867,"Arch":3868,"operation":3869,"standard":3870,"mitted":3871,"expand":3872,"village":3873,"Tex":3874,"barr":3875,"mm":3876,"onto":3877,"ises":3878,"defe":3879,"umb":3880,"bring":3881,"Despite":3882,"Western":3883,"might":3884,"sil":3885,"text":3886,"residents":3887,"occas":3888,"offered":3889,"interview":3890,"Robert":3891,"buildings":3892,"establish":3893,"currently":3894,"initially":3895,"particularly":3896,"schol":3897,"Tur":3898,"hood":3899,"kil":3900,"academ":3901,"quick":3902,"grand":3903,"words":3904,"remains":3905,"atives":3906,"ocr":3907,"ranch":3908,"Mileena":3909,"hot":3910,"loss":3911,"wanted":3912,"arian":3913,"army":3914,"ests":3915,"worth":3916,"wealth":3917,"ption":3918,"themselves":3919,"square":3920,"FA":3921,"proposed":3922,"feet":3923,"longer":3924,"funding":3925,"approxim":3926,"generally":3927,"Victor":3928,"Women":3929,"anth":3930,"amount":3931,"lying":3932,"cep":3933,"umn":3934,"Vietnam":3935,"65":3936,"Circ":3937,"ias":3938,"voc":3939,"winning":3940,"ester":3941,"trial":3942,"except":3943,"Richard":3944,"Camp":3945,"rid":3946,"ases":3947,"specific":3948,"titled":3949,"technology":3950,"broadcast":3951,"CC":3952,"Found":3953,"Il":3954,"job":3955,"ti":3956,"western":3957,"terms":3958,"shire":3959,"bridge":3960,"collabor":3961,"prevent":3962,"Force":3963,"larger":3964,"capital":3965,"families":3966,"Navy":3967,"done":3968,"eth":3969,"lov":3970,"bey":3971,"princ":3972,"Atl":3973,"laws":3974,"Paris":3975,"Williams":3976,"response":3977,"Spanish":3978,"husband":3979,"75":3980,"Lake":3981,"MA":3982,"Mad":3983,"Sub":3984,"Wales":3985,"ha":3986,"energy":3987,"always":3988,"itors":3989,"Def":3990,"aught":3991,"discuss":3992,"lers":3993,"lot":3994,"mad":3995,"saf":3996,"ya":3997,"olic":3998,"concl":3999,"demon":4000,"aily":4001,"parents":4002,"soldiers":4003,"candid":4004,"Lit":4005,"Spe":4006,"Up":4007,"units":4008,"artist":4009,"That":4010,"Super":4011,"guns":4012,"whether":4013,"window":4014,"latter":4015,"park":4016,"stay":4017,"university":4018,"Star":4019,"Chinese":4020,"mechan":4021,"content":4022,"crew":4023,"annual":4024,"settle":4025,"surround":4026,"culture":4027,"associated":4028,"relationship":4029,"Mexico":4030,"Logano":4031,"Pre":4032,"fast":4033,"argu":4034,"staff":4035,"sea":4036,"20th":4037,"osop":4038,"referred":4039,"habit":4040,"subsequently":4041,"Icel":4042,"Town":4043,"fit":4044,"vices":4045,"oul":4046,"entered":4047,"igital":4048,"ously":4049,"science":4050,"equip":4051,"Martin":4052,"difficult":4053,"Iceland":4054,"Post":4055,"dro":4056,"mach":4057,"psy":4058,"trade":4059,"usion":4060,"apart":4061,"spent":4062,"Group":4063,"running":4064,"issues":4065,"conf":4066,"artists":4067,"shown":4068,"products":4069,"acquired":4070,"influence":4071,"problems":4072,"Best":4073,"victory":4074,"isl":4075,"leaving":4076,"shot":4077,"iza":4078,"poor":4079,"1991":4080,"1993":4081,"marriage":4082,"constructed":4083,"Texas":4084,"Po":4085,"sports":4086,"wear":4087,"reality":4088,"chart":4089,"championship":4090,"conv":4091,"plans":4092,"1990":4093,"studio":4094,"names":4095,"90":4096,"Day":4097,"Hot":4098,"Winter":4099,"step":4100,"Arts":4101,"colon":4102,"indic":4103,"raised":4104,"films":4105,"programs":4106,"ordered":4107,"carried":4108,"penal":4109,"birth":4110,"Records":4111,"Sil":4112,"Tom":4113,"mountain":4114,"uit":4115,"uty":4116,"necess":4117,"osen":4118,"180":4119,"struct":4120,"Britain":4121,"majority":4122,"plement":4123,"competition":4124,"agreed":4125,"results":4126,"1st":4127,"Its":4128,"Sing":4129,"eks":4130,"uter":4131,"island":4132,"star":4133,"contr":4134,"highest":4135,"require":4136,"Parliament":4137,"believed":4138,"management":4139,"Korean":4140,"Daniel":4141,"Joseph":4142,"approximately":4143,"32":4144,"Ag":4145,"Mod":4146,"ring":4147,"resist":4148,"grade":4149,"conditions":4150,"Book":4151,"traditional":4152,"Academy":4153,"Hasid":4154,"Mountain":4155,"bell":4156,"log":4157,"pack":4158,"uan":4159,"ero":4160,"concept":4161,"deb":4162,"determin":4163,"previously":4164,"Florida":4165,"Big":4166,"Lo":4167,"burn":4168,"sister":4169,"attract":4170,"chap":4171,"olf":4172,"osing":4173,"scene":4174,"Fort":4175,"Social":4176,"multiple":4177,"detail":4178,"Are":4179,"Den":4180,"battle":4181,"male":4182,"rd":4183,"chief":4184,"serve":4185,"phil":4186,"Armen":4187,"prepar":4188,"1992":4189,"numerous":4190,"runs":4191,"levels":4192,"probably":4193,"Dun":4194,"Public":4195,"Saint":4196,"fle":4197,"felt":4198,"scr":4199,"wat":4200,"ander":4201,"told":4202,"reme":4203,"adium":4204,"19th":4205,"istan":4206,"weap":4207,"1980s":4208,"continue":4209,"individuals":4210,"physical":4211,"journal":4212,"benef":4213,"likely":4214,"ders":4215,"eration":4216,"astern":4217,"heavy":4218,"sets":4219,"despite":4220,"transport":4221,"Science":4222,");":4223,"BBC":4224,"Cath":4225,"Gall":4226,"Ty":4227,"batt":4228,"lives":4229,"ini":4230,"incorpor":4231,"enc":4232,"chall":4233,"older":4234,"uries":4235,"ulated":4236,"leaders":4237,"society":4238,"sources":4239,"religious":4240,"Kent":4241,"VD":4242,"gold":4243,"cting":4244,"firm":4245,"moving":4246,"fully":4247,"presented":4248,"below":4249,"susp":4250,"Ele":4251,"Rome":4252,"aur":4253,"territ":4254,"estim":4255,"neigh":4256,"quality":4257,"block":4258,"crim":4259,"brief":4260,"attention":4261,"minor":4262,"elements":4263,"mostly":4264,"sell":4265,"officially":4266,"install":4267,"critical":4268,"listed":4269,"Christian":4270,"launched":4271,"meaning":4272,"Cross":4273,"Les":4274,"Lady":4275,"Main":4276,"Oly":4277,"Person":4278,"Wal":4279,"love":4280,"path":4281,"avo":4282,"finish":4283,"Ann":4284,"failed":4285,"Virgin":4286,"Times":4287,"vement":4288,"chair":4289,"reser":4290,"overs":4291,"ansas":4292,"drug":4293,"global":4294,"claims":4295,"types":4296,"Palace":4297,"Government":4298,"administration":4299,"troops":4300,"44":4301,"hall":4302,"enem":4303,"comment":4304,"ultural":4305,"famous":4306,"extended":4307,"directed":4308,"minutes":4309,"channel":4310,"selected":4311,"2nd":4312,"33":4313,"Bank":4314,"Di":4315,"Go":4316,"Hum":4317,"Jo":4318,"iately":4319,"encour":4320,"ulations":4321,"blind":4322,"coal":4323,"Command":4324,"1960s":4325,"remaining":4326,"quarters":4327,"Southern":4328,"hockey":4329,"iations":4330,"ration":4331,"ads":4332,"ulty":4333,"prop":4334,"earned":4335,"weeks":4336,"speed":4337,"mainly":4338,"foreign":4339,"scient":4340,"increasing":4341,"issued":4342,"Angeles":4343,"Foundation":4344,"Men":4345,"bul":4346,"lie":4347,"master":4348,"yet":4349,"ental":4350,"promin":4351,"contem":4352,"finally":4353,"spect":4354,"gency":4355,"charge":4356,"Islam":4357,"metal":4358,"Research":4359,"senior":4360,"folk":4361,"screen":4362,"Back":4363,"Fat":4364,"bury":4365,"bomb":4366,"kin":4367,"icted":4368,"elop":4369,"creation":4370,"Italy":4371,"signal":4372,"Spain":4373,"iences":4374,"Radio":4375,"300":4376,"Gul":4377,"nature":4378,"altern":4379,"recomm":4380,"entit":4381,"account":4382,"agon":4383,"dry":4384,"ledge":4385,"1979":4386,"1970s":4387,"Secretary":4388,"helped":4389,"operated":4390,"score":4391,"ronic":4392,"projects":4393,"source":4394,"experience":4395,"saying":4396,"purchased":4397,"Justice":4398,"Olymp":4399,"36":4400,"49":4401,"Broad":4402,"Fred":4403,"Tele":4404,"fish":4405,"spl":4406,"yards":4407,"alleg":4408,"illy":4409,"ute":4410,"astic":4411,"attend":4412,"studied":4413,"provides":4414,"Cont":4415,"receive":4416,"variety":4417,"magazine":4418,"Railway":4419,"demonstr":4420,"Both":4421,"EU":4422,"Pac":4423,"bot":4424,"bud":4425,"ji":4426,"makes":4427,"ners":4428,"thr":4429,"itation":4430,"protest":4431,"feel":4432,"Arab":4433,"veh":4434,"jected":4435,"officials":4436,"Australian":4437,"separate":4438,"palace":4439,"Film":4440,"Bas":4441,"drop":4442,"enough":4443,"atom":4444,"escap":4445,"ari":4446,"ita":4447,"ites":4448,"urban":4449,"granted":4450,"therefore":4451,"officers":4452,"organized":4453,"Service":4454,"needed":4455,"target":4456,"Care":4457,"thers":4458,"store":4459,"share":4460,"tegr":4461,"ips":4462,"ogy":4463,"Ital":4464,"ulture":4465,"medical":4466,"ficient":4467,"activity":4468,"label":4469,"division":4470,"effects":4471,"hi":4472,"paper":4473,"southern":4474,"removed":4475,"una":4476,"shoot":4477,"peror":4478,"contains":4479,"intended":4480,"alongside":4481,"Coast":4482,"distin":4483,"friends":4484,"Well":4485,"kins":4486,"mouth":4487,"sin":4488,"ibly":4489,"appears":4490,"Carol":4491,"Smith":4492,"Love":4493,"Mo":4494,"Mont":4495,"reason":4496,"Theatre":4497,"defeat":4498,"status":4499,"citiz":4500,"quickly":4501,"Mass":4502,"Rob":4503,"Sat":4504,"iber":4505,"kind":4506,"nes":4507,"uz":4508,"ingu":4509,"ils":4510,"coll":4511,"build":4512,"holm":4513,"Syd":4514,"basis":4515,"Korea":4516,"reduced":4517,"Old":4518,"Sar":4519,"bs":4520,"mes":4521,"pa":4522,"sched":4523,"istry":4524,"leave":4525,"contro":4526,"mond":4527,"1971":4528,"capac":4529,"occurred":4530,"Sydney":4531,"Jud":4532,"Mic":4533,"Ve":4534,"cos":4535,"fellow":4536,"gle":4537,"gence":4538,"joy":4539,"iles":4540,"accep":4541,"Their":4542,"aging":4543,"ills":4544,"portun":4545,"shel":4546,"maintain":4547,"vised":4548,"1985":4549,"Northern":4550,"defense":4551,"purpose":4552,"Duke":4553,"instrument":4554,"Director":4555,"controvers":4556,"ga":4557,"ka":4558,"improv":4559,"core":4560,"izes":4561,"whole":4562,"Ali":4563,"door":4564,"efforts":4565,"Class":4566,"feature":4567,"respond":4568,"nearly":4569,"Series":4570,"temper":4571,"agreement":4572,"railway":4573,"manager":4574,"Democr":4575,"murder":4576,"Es":4577,"Os":4578,"So":4579,"ko":4580,"paid":4581,"inf":4582,"orial":4583,"aces":4584,"depart":4585,"tray":4586,"apers":4587,"ety":4588,"negot":4589,"discovered":4590,"presence":4591,"arrived":4592,"phen":4593,"load":4594,"campus":4595,"faced":4596,"spirit":4597,"transferred":4598,"entitled":4599,"Bol":4600,"EA":4601,"Free":4602,"ST":4603,"Ver":4604,"fa":4605,"ja":4606,"ping":4607,"za":4608,"anal":4609,"arran":4610,"rev":4611,"heart":4612,"iled":4613,"igan":4614,"resh":4615,"affil":4616,"composed":4617,"Alien":4618,"element":4619,"belong":4620,"Kingdom":4621,"suffered":4622,"bass":4623,"hospital":4624,"theory":4625,"seat":4626,"ols":4627,"confl":4628,"assigned":4629,"ensus":4630,"centre":4631,"1980":4632,"direction":4633,"middle":4634,"sexual":4635,"growth":4636,"honor":4637,"piece":4638,"Del":4639,"lic":4640,"nine":4641,"takes":4642,"ux":4643,"andon":4644,"tainment":4645,"produce":4646,"producer":4647,"transl":4648,"Scot":4649,"Order":4650,"vote":4651,"CB":4652,"Dam":4653,"FI":4654,"ny":4655,"rule":4656,"tried":4657,"ession":4658,"1989":4659,"roll":4660,"grew":4661,"munic":4662,"royal":4663,"defeated":4664,"academic":4665,"RO":4666,"Ram":4667,"cm":4668,"lif":4669,"oke":4670,"sense":4671,"wrest":4672,"integr":4673,"edy":4674,"forward":4675,"ura":4676,"plat":4677,"expected":4678,"anta":4679,"actor":4680,"boy":4681,"serious":4682,"letter":4683,"castle":4684,"Corps":4685,"Techn":4686,"sites":4687,"directly":4688,"growing":4689,"favor":4690,"double":4691,"Stockholm":4692,"univers":4693,"ultim":4694,"pra":4695,"acted":4696,"Chief":4697,"metres":4698,"positive":4699,"vey":4700,"1972":4701,"surface":4702,"musical":4703,"Eliza":4704,"voted":4705,"cultural":4706,"behav":4707,"rupt":4708,"Office":4709,"39":4710,"FL":4711,"Greek":4712,"Mun":4713,"Squ":4714,"Tod":4715,"bes":4716,"fix":4717,"giving":4718,"hop":4719,"lor":4720,"concent":4721,"restr":4722,"propos":4723,"opportun":4724,"article":4725,"shop":4726,"offer":4727,"Also":4728,"servation":4729,"records":4730,"northern":4731,"request":4732,"Captain":4733,"primarily":4734,"conducted":4735,"budget":4736,".”":4737,"Brown":4738,"MS":4739,"bad":4740,"gg":4741,"utr":4742,"ustr":4743,"inch":4744,"forest":4745,"Chris":4746,"bles":4747,"prec":4748,"relations":4749,"officer":4750,"asket":4751,"dependence":4752,"Corpor":4753,"oebe":4754,"focus":4755,"Middle":4756,"Far":4757,"dol":4758,"nuc":4759,"sof":4760,"actually":4761,"spread":4762,"larg":4763,"highly":4764,"ields":4765,"pression":4766,"allowing":4767,"learning":4768,"chem":4769,"tracks":4770,"Edward":4771,"graduate":4772,"typically":4773,"hundr":4774,"Italian":4775,"Bor":4776,"Bra":4777,"Civil":4778,"DVD":4779,"EP":4780,"Hay":4781,"Pen":4782,"gent":4783,"route":4784,"ani":4785,"isation":4786,"repe":4787,"advan":4788,"akers":4789,"ques":4790,"1990s":4791,"risk":4792,"injury":4793,"Barr":4794,"Jett":4795,"Pep":4796,"hour":4797,"ients":4798,"atively":4799,"heav":4800,"appar":4801,"opted":4802,"perial":4803,"elled":4804,"portion":4805,"county":4806,"1973":4807,"Phoebe":4808,"cars":4809,"demand":4810,"Keane":4811,"newspaper":4812,"55":4813,"Awards":4814,"Ken":4815,"Lord":4816,"Sur":4817,"Ur":4818,"yer":4819,"appoint":4820,"neg":4821,"affic":4822,"1987":4823,"captain":4824,"eastern":4825,"figure":4826,"favour":4827,"rapid":4828,"architect":4829,"capacity":4830,"48":4831,"Cy":4832,"Fam":4833,"Mat":4834,"vest":4835,"tourn":4836,"toward":4837,"revol":4838,"search":4839,"iron":4840,"iments":4841,"prove":4842,"Health":4843,"scen":4844,"1969":4845,"Prof":4846,"organiz":4847,"joint":4848,"starting":4849,"smaller":4850,"applied":4851,"problem":4852,"couple":4853,"Area":4854,"prominent":4855,"\")":4856,"Clar":4857,"Mot":4858,"Sol":4859,"Special":4860,"says":4861,"ato":4862,"beat":4863,"irty":4864,"etic":4865,"plays":4866,"spired":4867,"orders":4868,"Exo":4869,"Earth":4870,"divided":4871,"paint":4872,"Doctor":4873,"potential":4874,"37":4875,"Ba":4876,"Haw":4877,"Tal":4878,"Tour":4879,"slow":4880,"wel":4881,"zone":4882,"iring":4883,"union":4884,"true":4885,"acting":4886,"blue":4887,"succeed":4888,"passeng":4889,"stitution":4890,"pattern":4891,"historical":4892,"Michigan":4893,"powers":4894,"immediately":4895,"Por":4896,"cities":4897,"digital":4898,"ech":4899,"mob":4900,"pick":4901,"pitch":4902,"san":4903,"stock":4904,"deep":4905,"illery":4906,"blood":4907,"corre":4908,"regional":4909,"Histor":4910,"Jewish":4911,"resulted":4912,"Virginia":4913,"accepted":4914,"largely":4915,"3rd":4916,"Boy":4917,"Long":4918,"edge":4919,"street":4920,"secret":4921,"sust":4922,"idea":4923,"ensity":4924,"effort":4925,"secondary":4926,"1945":4927,"marked":4928,"nearby":4929,"Peters":4930,"Stroud":4931,"necessary":4932,"Armenia":4933,"Catholic":4934,"CD":4935,"Eastern":4936,"Hor":4937,"Tam":4938,"bought":4939,"museum":4940,"ses":4941,"winter":4942,"wise":4943,"ening":4944,"arrow":4945,"accept":4946,"agement":4947,"resour":4948,"managed":4949,"something":4950,"1988":4951,"legisl":4952,"System":4953,"Library":4954,"resulting":4955,"ynast":4956,"rules":4957,"advoc":4958,"destroyed":4959,"philosop":4960,"Wel":4961,"ease":4962,"script":4963,"ona":4964,"onze":4965,"starr":4966,"ador":4967,"implement":4968,"aga":4969,"ifying":4970,"hero":4971,"brand":4972,"library":4973,"News":4974,"Show":4975,"Among":4976,"districts":4977,"accident":4978,"suggested":4979,"respectively":4980,"captured":4981,"situation":4982,"Sweden":4983,"fantry":4984,"girl":4985,"Supreme":4986,"estimated":4987,"Bet":4988,"Creek":4989,"Mel":4990,"Vill":4991,"nic":4992,"pil":4993,"rated":4994,"sons":4995,"stream":4996,"estic":4997,"berts":4998,"cry":4999,"1986":5000,"leadership":5001,"People":5002,"Media":5003,"walls":5004,"fighting":5005,"Bost":5006,"Battle":5007,"Jim":5008,"Jour":5009,"SP":5010,"bow":5011,"ees":5012,"native":5013,"rise":5014,"wed":5015,"edom":5016,"immig":5017,"ctic":5018,"agric":5019,"proceed":5020,"affe":5021,"strug":5022,"ranked":5023,"flight":5024,"product":5025,"scale":5026,"Enter":5027,"Blue":5028,"episodes":5029,"damage":5030,"unnel":5031,"figures":5032,"executive":5033,"victim":5034,"psych":5035,"HL":5036,"Sever":5037,"moun":5038,"mile":5039,"nest":5040,"sto":5041,"alle":5042,"advert":5043,"confir":5044,"opposition":5045,"ava":5046,"ocks":5047,"ighter":5048,"offers":5049,"suppl":5050,"funds":5051,"allows":5052,"broke":5053,"refused":5054,"stein":5055,"Team":5056,"completely":5057,"Latin":5058,"planned":5059,"Personal":5060,"elopment":5061,".)":5062,"Bad":5063,"Detro":5064,"Lin":5065,"Pan":5066,"gian":5067,"iary":5068,"ray":5069,"wan":5070,"adapt":5071,"elim":5072,"abled":5073,"newly":5074,"identified":5075,"1981":5076,"ashion":5077,"communication":5078,"facilities":5079,"audience":5080,"revealed":5081,"Boston":5082,"Detroit":5083,"Der":5084,"Foot":5085,"Hel":5086,"Ly":5087,"Line":5088,"Mos":5089,"Rel":5090,"mom":5091,"spring":5092,"wer":5093,"want":5094,"inary":5095,"oration":5096,"anda":5097,"trib":5098,"verse":5099,"utch":5100,"commonly":5101,"phere":5102,"1982":5103,"1984":5104,"Americ":5105,"Bris":5106,"extensive":5107,"courts":5108,"featuring":5109,"places":5110,"gypt":5111,"Muslim":5112,"recognized":5113,"Revolution":5114,"Castle":5115,"frequently":5116,"Ca":5117,"Egypt":5118,"Fox":5119,"Jr":5120,"Youn":5121,"yard":5122,"youth":5123,"inem":5124,"ider":5125,"ires":5126,"approved":5127,"abb":5128,"formal":5129,"pressure":5130,"Three":5131,"flag":5132,"matter":5133,"Prince":5134,"Roberts":5135,"passing":5136,"languages":5137,"successfully":5138,"existing":5139,"advant":5140,"Governor":5141,"Queen":5142,"morning":5143,"Corporation":5144,"41":5145,"BA":5146,"CIA":5147,"Tim":5148,"dim":5149,"here":5150,"ken":5151,"ois":5152,"uge":5153,"wound":5154,"ining":5155,"inant":5156,"eding":5157,"edition":5158,"asse":5159,"rear":5160,"chrom":5161,"seem":5162,"unte":5163,"cles":5164,"notable":5165,"aug":5166,"pret":5167,"visit":5168,"cerem":5169,"numbers":5170,"Because":5171,"vessel":5172,"pursu":5173,"painting":5174,"knowledge":5175,"expanded":5176,"Bir":5177,"CE":5178,"Da":5179,"Dom":5180,"pul":5181,"inspired":5182,"ange":5183,"arres":5184,"touch":5185,"sec":5186,"beth":5187,"1920":5188,"ables":5189,"abandon":5190,"climate":5191,"excl":5192,"uded":5193,"perman":5194,"ureau":5195,"weight":5196,"register":5197,"1970":5198,"continues":5199,"Centre":5200,"attacks":5201,"profession":5202,"attempts":5203,"write":5204,"asketball":5205,"96":5206,"Even":5207,"Good":5208,"Kansas":5209,"More":5210,"bio":5211,"da":5212,"jack":5213,"nership":5214,"tu":5215,"wal":5216,"thous":5217,"enjoy":5218,"ented":5219,"seek":5220,"unable":5221,"arts":5222,"Head":5223,"boat":5224,"poses":5225,"minister":5226,"frame":5227,"Brig":5228,"1968":5229,"operate":5230,"ception":5231,"distance":5232,"Philip":5233,"squad":5234,"declared":5235,"Muham":5236,"equipment":5237,"Hell":5238,"LA":5239,"Ze":5240,"gor":5241,"sides":5242,"wit":5243,"watch":5244,"seasons":5245,"decor":5246,"progress":5247,"shall":5248,"aked":5249,"kept":5250,"rance":5251,"okes":5252,"parish":5253,"supply":5254,"inside":5255,"1974":5256,"appearances":5257,"fund":5258,"emphas":5259,"Philipp":5260,"teacher":5261,"promoted":5262,"fifth":5263,"enemy":5264,"Muhammad":5265,"Ak":5266,"Ot":5267,"vation":5268,"reports":5269,"ima":5270,"earth":5271,"twent":5272,"workers":5273,"phy":5274,"serving":5275,"showed":5276,"standards":5277,"communities":5278,"Anderson":5279,"combined":5280,"ancient":5281,"Pepin":5282,"46":5283,"47":5284,"Bishop":5285,"Cro":5286,"Dou":5287,"Due":5288,"Top":5289,"cu":5290,"drew":5291,"pion":5292,"arms":5293,"adopted":5294,"igence":5295,"traffic":5296,"abol":5297,"compared":5298,"upper":5299,"cannot":5300,"Prov":5301,"Administr":5302,"ski":5303,"value":5304,"represented":5305,"occupied":5306,"resistance":5307,"Avenue":5308,"Han":5309,"Lie":5310,"RP":5311,"Tre":5312,"Van":5313,"gather":5314,"las":5315,"mos":5316,"pun":5317,"sail":5318,"sword":5319,"vi":5320,"thin":5321,"adel":5322,"beaut":5323,"department":5324,"owner":5325,"ogue":5326,"liber":5327,"1967":5328,"simply":5329,"positions":5330,"green":5331,"Offic":5332,"question":5333,"Senate":5334,"Francisco":5335,"conflict":5336,"',":5337,"FC":5338,"Gir":5339,"Hockey":5340,"Jes":5341,"Phy":5342,"fare":5343,"nel":5344,"rout":5345,"throw":5346,"theast":5347,"peace":5348,"Chap":5349,"creating":5350,"selling":5351,"council":5352,"invas":5353,"solo":5354,"teaching":5355,"recently":5356,"Circass":5357,"Pacific":5358,"tournament":5359,"400":5360,"Bi":5361,"Bre":5362,"Each":5363,"Fre":5364,"Kn":5365,"Mem":5366,"Mort":5367,"categ":5368,"sales":5369,"tered":5370,"mentioned":5371,"overall":5372,"twice":5373,"bled":5374,"bra":5375,"protection":5376,"copper":5377,"promotion":5378,"graduated":5379,"Sky":5380,"Queens":5381,"mbly":5382,"settlement":5383,"Today":5384,"Ah":5385,"Bob":5386,"Hon":5387,"cam":5388,"dial":5389,"fair":5390,"oma":5391,"opposed":5392,"branch":5393,"Ant":5394,"icket":5395,"poly":5396,"sole":5397,"1976":5398,"Security":5399,"hydro":5400,"1953":5401,"1950s":5402,"scoring":5403,"barrel":5404,"custom":5405,"widely":5406,"Donald":5407,"attempted":5408,"Alexander":5409,"machine":5410,"weapons":5411,"Football":5412,"Gil":5413,"Mir":5414,"Net":5415,"Sid":5416,"Way":5417,"fly":5418,"your":5419,"inet":5420,"alone":5421,"ician":5422,"rog":5423,"unique":5424,"agg":5425,"exc":5426,"Station":5427,"stra":5428,"discover":5429,"meant":5430,"ensions":5431,"providing":5432,"sche":5433,"address":5434,"missed":5435,"ika":5436,"Carl":5437,"Polit":5438,"holding":5439,"initial":5440,"combination":5441,"employed":5442,"connection":5443,"materials":5444,"pieces":5445,"environmental":5446,"impact":5447,"Buil":5448,"Swedish":5449,"experiment":5450,"Federal":5451,"Victoria":5452,"blinds":5453,"contemporary":5454,"split":5455,"confirmed":5456,"Further":5457,"Hal":5458,"MI":5459,"Ob":5460,"Upon":5461,"fell":5462,"rig":5463,"think":5464,"ati":5465,"aspect":5466,"roof":5467,"ette":5468,"extra":5469,"akh":5470,"contact":5471,"premi":5472,"symb":5473,"retire":5474,"1977":5475,"Brad":5476,"1966":5477,"Produ":5478,"normal":5479,"headed":5480,"programme":5481,"Web":5482,"needs":5483,"shortly":5484,"economy":5485,"Davis":5486,"industrial":5487,"believe":5488,"subjects":5489,"treatment":5490,"Atlantic":5491,"Profess":5492,"99":5493,"Kit":5494,"Lor":5495,"Rh":5496,"dang":5497,"gard":5498,"ora":5499,"iced":5500,"ivity":5501,"ctors":5502,"estate":5503,"prin":5504,"kee":5505,"preser":5506,"speech":5507,"movie":5508,"operating":5509,"letters":5510,"models":5511,"pedition":5512,"renamed":5513,"USA":5514,"hosted":5515,"housing":5516,"Little":5517,"Sports":5518,"Youth":5519,"daily":5520,"hang":5521,"inher":5522,"online":5523,"advis":5524,"becomes":5525,"ota":5526,"plane":5527,"quite":5528,"Stand":5529,"disput":5530,"visited":5531,"identity":5532,"Lee":5533,"doctor":5534,"1964":5535,"1965":5536,"singer":5537,"households":5538,"Polish":5539,"performances":5540,"trees":5541,"measure":5542,"occasion":5543,"challeng":5544,"Welland":5545,"Scotland":5546,"42":5547,"Econom":5548,"Gard":5549,"Jones":5550,"Prem":5551,"Uk":5552,"Ven":5553,"cow":5554,"gro":5555,"gall":5556,"assu":5557,"replac":5558,"ada":5559,"ote":5560,"oppon":5561,"pray":5562,"Through":5563,"flood":5564,"consists":5565,"receiving":5566,"matches":5567,"designated":5568,"marine":5569,"Philadel":5570,"application":5571,"defined":5572,"prisoners":5573,"expressed":5574,"mixed":5575,"Philadelph":5576,"91":5577,"dark":5578,"pit":5579,"sought":5580,"asc":5581,"amin":5582,"else":5583,"iva":5584,"abilities":5585,"clo":5586,"rank":5587,"enses":5588,"attach":5589,"Asia":5590,"invited":5591,"1962":5592,"aska":5593,"chester":5594,"younger":5595,"connected":5596,"Republ":5597,"dedicated":5598,"committee":5599,"investigation":5600,"ynasty":5601,"Philadelphia":5602,"Oh":5603,"Var":5604,"fal":5605,"ipl":5606,"map":5607,"ograph":5608,"phas":5609,"wart":5610,"enant":5611,"oph":5612,"portray":5613,"strateg":5614,"elling":5615,"ensor":5616,"drum":5617,"commod":5618,"prefer":5619,"border":5620,"ysis":5621,"classes":5622,"sequence":5623,"hands":5624,"incident":5625,"temple":5626,"races":5627,"documentary":5628,"candidate":5629,"Carolina":5630,"Ukrain":5631,"85":5632,"Bern":5633,"Crit":5634,"Four":5635,"Game":5636,"Hong":5637,"Sher":5638,"fear":5639,"uer":5640,"editor":5641,"isions":5642,"iter":5643,"stre":5644,"chosen":5645,"achel":5646,"devices":5647,"util":5648,"abs":5649,"absor":5650,"oppos":5651,"plate":5652,"print":5653,"assess":5654,"18th":5655,"1975":5656,"guest":5657,"greater":5658,"Emp":5659,"reference":5660,"statement":5661,"participated":5662,"Scottish":5663,"billion":5664,"Development":5665,"Career":5666,"Republican":5667,"66":5668,"Hy":5669,"IV":5670,"Naval":5671,"Ol":5672,"Pop":5673,"SC":5674,"crow":5675,"tend":5676,"arg":5677,"terans":5678,"deploy":5679,"bronze":5680,"disease":5681,"End":5682,"1963":5683,"worldwide":5684,"casting":5685,"Like":5686,"temporary":5687,"authority":5688,"electric":5689,"feder":5690,"drawn":5691,"focused":5692,"reviews":5693,"contributed":5694,"Gallery":5695,"nuclear":5696,"Ha":5697,"Home":5698,"Loc":5699,"MP":5700,"Moss":5701,"Nic":5702,"dance":5703,"fresh":5704,"fashion":5705,"ky":5706,"mess":5707,"zo":5708,"things":5709,"urb":5710,"idden":5711,"istics":5712,"grant":5713,"ounds":5714,"computer":5715,"contest":5716,"ictions":5717,"Common":5718,"Form":5719,"goes":5720,"charged":5721,"Colon":5722,"guard":5723,"publication":5724,"returning":5725,"slight":5726,"Andrew":5727,"ucky":5728,"reduce":5729,"quarter":5730,"performing":5731,"website":5732,"advanced":5733,"resources":5734,"97":5735,"Ban":5736,"Hung":5737,"fields":5738,"gained":5739,"mate":5740,"wild":5741,"infl":5742,"instru":5743,"semi":5744,"decre":5745,"clin":5746,"exchange":5747,"ifically":5748,"shor":5749,"parties":5750,"Marine":5751,"counts":5752,"Short":5753,"Conne":5754,"1978":5755,"cert":5756,"Program":5757,"Add":5758,"grounds":5759,"domestic":5760,"basic":5761,"costs":5762,"coloring":5763,"institutions":5764,"tells":5765,"surrounding":5766,"Elizabeth":5767,"Several":5768,"Americans":5769,"Building":5770,"Cze":5771,"Fair":5772,"Kr":5773,"Nam":5774,"Press":5775,"Rog":5776,"hat":5777,"mel":5778,"pict":5779,"yan":5780,"infr":5781,"onic":5782,"amm":5783,"oll":5784,"agues":5785,"otton":5786,"uled":5787,"clim":5788,"compon":5789,"containing":5790,"maxim":5791,"headquarters":5792,"distingu":5793,"Georg":5794,"violence":5795,"thesis":5796,"Human":5797,"\"),":5798,"Dutch":5799,"KC":5800,"Kong":5801,"Land":5802,"Mas":5803,"Sa":5804,"sed":5805,"sac":5806,"islands":5807,"tery":5808,"emiss":5809,"articles":5810,"fee":5811,"pool":5812,"condition":5813,"trying":5814,"camps":5815,"trains":5816,"buried":5817,"causing":5818,"importance":5819,"Empress":5820,"Imperial":5821,"Torres":5822,"launch":5823,"settled":5824,"structures":5825,"avoid":5826,"ultimately":5827,"organizations":5828,"Empire":5829,"BT":5830,"Hou":5831,"Jef":5832,"Ox":5833,"Pak":5834,"ault":5835,"bod":5836,"cann":5837,"fuel":5838,"gives":5839,"wis":5840,"stic":5841,"rob":5842,"het":5843,"lywood":5844,"aya":5845,"tress":5846,"plates":5847,"grav":5848,"mann":5849,"corner":5850,"chose":5851,"What":5852,"subs":5853,"setting":5854,"bands":5855,"extension":5856,"versions":5857,"stead":5858,"carry":5859,"authorities":5860,"copies":5861,"teachers":5862,"encies":5863,"territory":5864,"Family":5865,"Queensland":5866,"95":5867,"Nar":5868,"Tem":5869,"ee":5870,"fur":5871,"hur":5872,"ru":5873,"err":5874,"eness":5875,"attribut":5876,"alu":5877,"leton":5878,"sector":5879,"image":5880,"etc":5881,"proto":5882,"format":5883,"drive":5884,"finding":5885,"centuries":5886,"Conference":5887,"Prime":5888,"1956":5889,"Before":5890,"rene":5891,"simple":5892,"describes":5893,"influenced":5894,"Mississ":5895,"achieved":5896,"junior":5897,"scholar":5898,"scenes":5899,"mounted":5900,"43":5901,"4th":5902,"Komb":5903,"Night":5904,"Tok":5905,"lat":5906,"walk":5907,"recru":5908,"height":5909,"seems":5910,"lyr":5911,"convent":5912,"device":5913,"porters":5914,"herself":5915,"boys":5916,"drama":5917,"merged":5918,"Thus":5919,"doing":5920,"filed":5921,"Beach":5922,"1942":5923,"sixth":5924,"volume":5925,"volunte":5926,"participate":5927,"Christmas":5928,"Jean":5929,"subsequent":5930,"Portug":5931,"minute":5932,"establishment":5933,"penalty":5934,"twenty":5935,"Premier":5936,"Czech":5937,"Mississipp":5938,"Kombat":5939,"88":5940,"Abr":5941,"DA":5942,"Dep":5943,"Ku":5944,"Mount":5945,"Som":5946,"Writ":5947,"fing":5948,"hair":5949,"rare":5950,"table":5951,"really":5952,"residence":5953,"opin":5954,"shar":5955,"brid":5956,"rants":5957,"ansion":5958,"phone":5959,"desc":5960,"code":5961,"Death":5962,"retired":5963,"Bridge":5964,"matic":5965,"Prote":5966,"1940":5967,"didn":5968,"motor":5969,"begins":5970,"Emperor":5971,"effective":5972,"combat":5973,"Major":5974,"clean":5975,"policies":5976,"Labor":5977,"girls":5978,"Ald":5979,"Fac":5980,"Let":5981,"Ron":5982,"Rab":5983,"Ros":5984,"Sl":5985,"Ti":5986,"gain":5987,"ić":5988,"narrow":5989,"tons":5990,"thro":5991,"thetic":5992,"orm":5993,"reform":5994,"entrance":5995,"ado":5996,"adding":5997,"acre":5998,"trail":5999,"cris":6000,"partner":6001,"Alban":6002,"intell":6003,"cool":6004,"Asian":6005,"supporting":6006,"Ministry":6007,"protect":6008,"electronic":6009,"wheel":6010,"stories":6011,"custo":6012,"commissioned":6013,"Entertainment":6014,"victims":6015,"'.":6016,"Bush":6017,"Gi":6018,"Hospital":6019,"Jul":6020,"RC":6021,"Rus":6022,"Time":6023,"UN":6024,"Vol":6025,"WF":6026,"fans":6027,"mort":6028,"narr":6029,"rating":6030,"sle":6031,"taught":6032,"aland":6033,"rey":6034,"cher":6035,"terror":6036,"une":6037,"dete":6038,"strip":6039,"keley":6040,"Albert":6041,"elections":6042,"1941":6043,"powerful":6044,"appropr":6045,"Engine":6046,"wheels":6047,"association":6048,"uku":6049,"Studies":6050,"definition":6051,"judge":6052,"Billboard":6053,"Howard":6054,"filled":6055,"Background":6056,"Braz":6057,"paintings":6058,"Journal":6059,"moment":6060,"64":6061,"Ev":6062,"Master":6063,"Song":6064,"Santa":6065,"card":6066,"ez":6067,"god":6068,"ll":6069,"page":6070,"yle":6071,"thick":6072,"itage":6073,"stating":6074,"stars":6075,"usual":6076,"ulate":6077,"illustr":6078,"compar":6079,"contained":6080,"finishing":6081,"intend":6082,"scul":6083,"uset":6084,"calls":6085,"150":6086,"1960":6087,"extrem":6088,"developing":6089,"Work":6090,"roads":6091,"offices":6092,"1950":6093,"1959":6094,"Junior":6095,"Organ":6096,"Canal":6097,"possibly":6098,"attacked":6099,"presidential":6100,"storm":6101,"Holy":6102,"cription":6103,"Toronto":6104,"conduct":6105,"animals":6106,"architecture":6107,"Business":6108,"determined":6109,"Freder":6110,"Young":6111,"Houston":6112,"crisis":6113,"Gar":6114,"SE":6115,"Santi":6116,"Tenn":6117,"cab":6118,"festival":6119,"pup":6120,"tz":6121,"tunnel":6122,"vac":6123,"winner":6124,"anes":6125,"eno":6126,"enge":6127,"itro":6128,"aded":6129,"iday":6130,"ivals":6131,"improve":6132,"tric":6133,"iana":6134,"Stadium":6135,"awa":6136,"itionally":6137,"contain":6138,"offs":6139,"spons":6140,"substant":6141,"Sea":6142,"177":6143,"charges":6144,"Columb":6145,"getting":6146,"involvement":6147,"painted":6148,"votes":6149,"Berkeley":6150,"easily":6151,"homes":6152,"looking":6153,"joining":6154,"literature":6155,"principal":6156,"argued":6157,"Hasidic":6158,"arrested":6159,"Pakistan":6160,"\").":6161,"67":6162,"Bud":6163,"Gro":6164,"die":6165,"dates":6166,"gus":6167,"laid":6168,"push":6169,"ram":6170,"trust":6171,"neutr":6172,"twel":6173,"owners":6174,"obtained":6175,"veget":6176,"serves":6177,"relatively":6178,"Who":6179,"calling":6180,"ifications":6181,"ologies":6182,"linois":6183,"gets":6184,"1944":6185,"1947":6186,"membership":6187,"clubs":6188,"defensive":6189,"begin":6190,"credited":6191,"Deme":6192,"regarding":6193,"methods":6194,"Tsuna":6195,"distributed":6196,"miral":6197,"scholars":6198,"Illinois":6199,"escape":6200,"Democratic":6201,"universities":6202,"proposal":6203,"advantage":6204,"permanent":6205,"Santiago":6206,"69":6207,"87":6208,"800":6209,"Ball":6210,"CBS":6211,"Horn":6212,"IF":6213,"Lev":6214,"Rain":6215,"Spring":6216,"ais":6217,"dress":6218,"fine":6219,"rum":6220,"sand":6221,"armed":6222,"aling":6223,"alion":6224,"reput":6225,"itt":6226,"uls":6227,"resident":6228,"aints":6229,"shared":6230,"iano":6231,"strike":6232,"awards":6233,"fired":6234,"achuset":6235,"interior":6236,"aired":6237,"Once":6238,"parliament":6239,"1983":6240,"founder":6241,"trained":6242,"possess":6243,"critics":6244,"professor":6245,"deliver":6246,"coastal":6247,"beyond":6248,"Massachuset":6249,"witness":6250,"Phys":6251,"invasion":6252,"Mortal":6253,"Massachusetts":6254,"Die":6255,"Joe":6256,"Lim":6257,"Mov":6258,"Metro":6259,"TA":6260,"dess":6261,"density":6262,"ki":6263,"naval":6264,"ube":6265,"”,":6266,"theme":6267,"itude":6268,"illegal":6269,"elly":6270,"iful":6271,"ogen":6272,"mind":6273,"Shah":6274,"hell":6275,"writers":6276,"1948":6277,"tower":6278,"restaur":6279,"classic":6280,"Poland":6281,"virt":6282,"applications":6283,"historic":6284,"Military":6285,"safety":6286,"alternative":6287,"Contin":6288,"Burn":6289,"IN":6290,"Lith":6291,"Mah":6292,"SS":6293,"cou":6294,"iy":6295,"kh":6296,"mut":6297,"males":6298,"rates":6299,"tes":6300,"tail":6301,"tape":6302,"thur":6303,"independence":6304,"orient":6305,"reasons":6306,"rejected":6307,"adj":6308,"igation":6309,"agn":6310,"comic":6311,"plants":6312,"clos":6313,"Though":6314,"observed":6315,"ternal":6316,"1946":6317,"decades":6318,"covering":6319,"albums":6320,"reading":6321,"slip":6322,"formerly":6323,"brothers":6324,"females":6325,"Craw":6326,"panel":6327,"achieve":6328,"commission":6329,"Upper":6330,"Denmark":6331,"Fatim":6332,"analysis":6333,"repeated":6334,"Bristol":6335,"registered":6336,"Administration":6337,"Brazil":6338,"Columbia":6339,"DC":6340,"Ru":6341,"Rose":6342,"Vis":6343,"Wall":6344,"cinem":6345,"hired":6346,"iar":6347,"mo":6348,"rend":6349,"vast":6350,"inaug":6351,"amber":6352,"conference":6353,"agent":6354,"Infantry":6355,"plot":6356,"actors":6357,"tware":6358,"internal":6359,"evere":6360,"minim":6361,"provin":6362,"paralle":6363,"Environment":6364,"iverse":6365,"Johnson":6366,"1954":6367,"Project":6368,"lington":6369,"equival":6370,"demol":6371,"option":6372,"shooting":6373,"citizens":6374,"municipal":6375,"abandoned":6376,"Zealand":6377,"Demetri":6378,"53":6379,"98":6380,"Branch":6381,"Field":6382,"Games":6383,"Op":6384,"Rud":6385,"bat":6386,"jur":6387,"losing":6388,"sale":6389,"thedr":6390,"replace":6391,"heard":6392,"iger":6393,"why":6394,"ceased":6395,"Information":6396,"shap":6397,"Stan":6398,"Arthur":6399,"spot":6400,"speaking":6401,"someone":6402,"publish":6403,"aham":6404,"founding":6405,"Trump":6406,"specifically":6407,"faculty":6408,"profit":6409,"1939":6410,"Guard":6411,"Design":6412,"interested":6413,"accused":6414,"assistance":6415,"entirely":6416,"measures":6417,"consisted":6418,"considerable":6419,"hotel":6420,"Modern":6421,"succeeded":6422,"Petersburg":6423,"phase":6424,"Bon":6425,"ON":6426,"bishop":6427,"fairs":6428,"franch":6429,"ho":6430,"iest":6431,"iques":6432,"ua":6433,"zy":6434,"ingly":6435,"reign":6436,"ela":6437,"impress":6438,"trip":6439,"aks":6440,"iant":6441,"affect":6442,"rane":6443,"cancer":6444,"province":6445,"glass":6446,"surpr":6447,"1955":6448,"stands":6449,"sky":6450,"check":6451,"controlled":6452,"onym":6453,"purposes":6454,"racing":6455,"existence":6456,"regarded":6457,"waters":6458,"incorporated":6459,"CBD":6460,"Mossade":6461,"Lithuan":6462,"Down":6463,"Face":6464,"Ira":6465,"Kam":6466,"Met":6467,"Ra":6468,"Tar":6469,"Water":6470,"ker":6471,"obl":6472,"ancy":6473,"theatre":6474,"ensure":6475,"reaction":6476,"entially":6477,"idency":6478,"ager":6479,"exer":6480,"ieval":6481,"Stone":6482,"crash":6483,"finds":6484,"colors":6485,"Ass":6486,"Sek":6487,"1958":6488,"carbon":6489,"Manchester":6490,"Police":6491,"refle":6492,"steam":6493,"expansion":6494,"Liber":6495,"researchers":6496,"employment":6497,"properties":6498,"Harbor":6499,"suggests":6500,"recognition":6501,"satis":6502,"distribution":6503,"nominated":6504,"ethnic":6505,"Hotel":6506,"scheduled":6507,"heavily":6508,"philosophy":6509,"extremely":6510,"Mossadeq":6511,"Baker":6512,"Dar":6513,"Fall":6514,"MD":6515,"Nik":6516,"Ul":6517,"aer":6518,"sav":6519,"uce":6520,"iny":6521,"aste":6522,"asks":6523,"iser":6524,"chi":6525,"seg":6526,"adult":6527,"acent":6528,"olas":6529,"apy":6530,"resigned":6531,"perfect":6532,"Then":6533,"colour":6534,"ween":6535,"athlet":6536,"ugby":6537,"nothing":6538,"courses":6539,"governor":6540,"functions":6541,"Origin":6542,"programming":6543,"facility":6544,"banks":6545,"Amster":6546,"equal":6547,"businesses":6548,"protected":6549,"representative":6550,"concerns":6551,"Missour":6552,"Review":6553,"instruments":6554,"planning":6555,"Summer":6556,"collaboration":6557,"briefly":6558,"cticut":6559,"straight":6560,"Connecticut":6561,"Amsterdam":6562,"58":6563,"Agr":6564,"Mul":6565,"Nat":6566,"Tull":6567,"fiction":6568,"gone":6569,"mole":6570,"pse":6571,"rick":6572,"save":6573,"zi":6574,"inde":6575,"enh":6576,"1917":6577,"utenant":6578,"apped":6579,"cloth":6580,"quant":6581,"manner":6582,"worn":6583,"Chair":6584,"evalu":6585,"Affairs":6586,"follows":6587,"cycl":6588,"250":6589,"factory":6590,"educational":6591,"technical":6592,"Stephen":6593,"Airport":6594,"historian":6595,"introduction":6596,"weekly":6597,"ancing":6598,"Morris":6599,"examples":6600,"channels":6601,"Jersey":6602,"eye":6603,"Turk":6604,"battles":6605,"Television":6606,"spiritual":6607,"affected":6608,"slightly":6609,"Iraq":6610,"600":6611,"Ash":6612,"Bow":6613,"Bath":6614,"Hil":6615,"JS":6616,"Lak":6617,"Pous":6618,"SM":6619,"Sto":6620,"Sus":6621,"WA":6622,"basketball":6623,"iro":6624,"pi":6625,"advent":6626,"admitted":6627,"uration":6628,"constant":6629,"comedy":6630,"rome":6631,"ghan":6632,"derived":6633,"crime":6634,"aux":6635,"Ontar":6636,"frag":6637,"maintained":6638,"roughly":6639,"producing":6640,"17th":6641,"capable":6642,"Coll":6643,"Sciences":6644,"1957":6645,"vari":6646,"skills":6647,"politics":6648,"Week":6649,"apping":6650,"networks":6651,"femin":6652,"dipl":6653,"closely":6654,"scientific":6655,"dropped":6656,"negative":6657,"Between":6658,"Oxford":6659,"adjacent":6660,"Missouri":6661,"68":6662,"92":6663,"AM":6664,"Bell":6665,"Cat":6666,"Fant":6667,"Fore":6668,"Hur":6669,"Kat":6670,"Kenn":6671,"Open":6672,"Wat":6673,"Warr":6674,"cers":6675,"dog":6676,"dale":6677,"ibe":6678,"lu":6679,"lane":6680,"mates":6681,"ridge":6682,"vard":6683,"wine":6684,"alge":6685,"items":6686,"icine":6687,"leaves":6688,"seats":6689,"impl":6690,"uties":6691,"ateur":6692,"porter":6693,"actual":6694,"notes":6695,"forming":6696,"partnership":6697,"feed":6698,"ideas":6699,"meters":6700,"evin":6701,"driver":6702,"ampions":6703,"obtain":6704,"Only":6705,"Maria":6706,"mont":6707,"iversary":6708,"1961":6709,"Norway":6710,"cycle":6711,"1952":6712,"Cole":6713,"learn":6714,"everything":6715,"goods":6716,"Students":6717,"voice":6718,"Golden":6719,"converted":6720,"alleged":6721,"hundred":6722,"passenger":6723,"stood":6724,"Commonwealth":6725,"Georgia":6726,"sculpt":6727,"twelve":6728,"Crawford":6729,"Fatimah":6730,"Demetrius":6731,"Poussin":6732,"Ontario":6733,"Bang":6734,"Cer":6735,"Cass":6736,"Hun":6737,"Jon":6738,"Max":6739,"Naz":6740,"Sunn":6741,"bann":6742,"fought":6743,"gam":6744,"mph":6745,"nob":6746,"rat":6747,"rural":6748,"vs":6749,"oft":6750,"retain":6751,"retained":6752,"acing":6753,"cean":6754,"constitut":6755,"trou":6756,"compr":6757,"umes":6758,"acks":6759,"strength":6760,"Nether":6761,"missing":6762,"Count":6763,"classical":6764,"Execut":6765,"burgh":6766,"solid":6767,"divor":6768,"greatest":6769,"Capital":6770,"electr":6771,"typical":6772,"advance":6773,"Israeli":6774,"toll":6775,"purchase":6776,"criticism":6777,"composition":6778,"kilome":6779,"windows":6780,"vehicle":6781,"praised":6782,"chemical":6783,"Sidney":6784,"achelor":6785,"Ath":6786,"Card":6787,"Fle":6788,"Hart":6789,"IRA":6790,"Kaw":6791,"Last":6792,"Ray":6793,"TO":6794,"eah":6795,"egg":6796,"gate":6797,"gender":6798,"math":6799,"ws":6800,"},":6801,"inations":6802,"astru":6803,"elig":6804,"ceived":6805,"prosecut":6806,"bling":6807,"Argent":6808,"preced":6809,"poll":6810,"governments":6811,"Schools":6812,"pedo":6813,"1943":6814,"Admiral":6815,"limit":6816,"delay":6817,"damaged":6818,"failure":6819,"committed":6820,"animal":6821,"administrative":6822,"Brother":6823,"mechanism":6824,"neighbor":6825,"appointment":6826,"Mississippi":6827,"57":6828,"Aud":6829,"Brew":6830,"Ga":6831,"Kevin":6832,"Son":6833,"Sand":6834,"Treat":6835,"ao":6836,"dynasty":6837,"iors":6838,"loyal":6839,"sens":6840,"wave":6841,"enforce":6842,"arrest":6843,"ali":6844,"stances":6845,"accommod":6846,"consum":6847,"conservation":6848,"shi":6849,"price":6850,"boats":6851,"iley":6852,"Arm":6853,"Forces":6854,"highway":6855,"appeal":6856,"views":6857,"belief":6858,"archae":6859,"titles":6860,"broken":6861,"Andy":6862,"popularity":6863,"participants":6864,"concert":6865,"multi":6866,"engineer":6867,"engineering":6868,"Secondary":6869,"Harris":6870,"freedom":6871,"Operation":6872,"Federation":6873,"Transport":6874,"petition":6875,"behavior":6876,"sustain":6877,"pilot":6878,"ceremony":6879,"secure":6880,"bodies":6881,"thedral":6882,"86":6883,"Bureau":6884,"Crown":6885,"Daily":6886,"Ho":6887,"Nap":6888,"Pass":6889,"Rom":6890,"Rena":6891,"Sac":6892,"Wend":6893,"Wind":6894,"mers":6895,"rif":6896,"rub":6897,"tur":6898,"zer":6899,"ón":6900,"onom":6901,"oral":6902,"stadium":6903,"rose":6904,"olved":6905,"elson":6906,"irt":6907,"imag":6908,"imprison":6909,"ows":6910,"depos":6911,"neck":6912,"artillery":6913,"exact":6914,"udes":6915,"Stars":6916,"dram":6917,"crete":6918,"airport":6919,"canal":6920,"locations":6921,"servative":6922,"cury":6923,"themat":6924,"Constant":6925,"singles":6926,"appearing":6927,"brew":6928,"defence":6929,"magne":6930,"Syr":6931,"debuted":6932,"injured":6933,"questions":6934,"horse":6935,"horror":6936,"criticized":6937,"Brook":6938,"photograph":6939,"exhibition":6940,"convergence":6941,"vocal":6942,"contrast":6943,"temperature":6944,"opportunity":6945,"apparently":6946,"mobile":6947,"wounded":6948,"retirement":6949,"assumed":6950,"maximum":6951,"subsid":6952,"intelligence":6953,"%)":6954,"Band":6955,"Celt":6956,"Elect":6957,"Five":6958,"Final":6959,"Kh":6960,"Lam":6961,"NS":6962,"Sel":6963,"Sound":6964,"dating":6965,"hunt":6966,"lies":6967,"mine":6968,"isms":6969,"tos":6970,"icon":6971,"ading":6972,"acid":6973,"eless":6974,"lyn":6975,"Independent":6976,"aven":6977,"strik":6978,"inton":6979,"flo":6980,"raise":6981,"relative":6982,"Forrest":6983,"supposed":6984,"Afghan":6985,"1951":6986,"loan":6987,"returns":6988,"breaking":6989,"politan":6990,"killing":6991,"Steve":6992,"carrying":6993,"friendly":6994,"Front":6995,"ruled":6996,"Burri":6997,"torpedo":6998,"credits":6999,"nationally":7000,"consisting":7001,"Avon":7002,"silver":7003,"Kentucky":7004,"Gulag":7005,"faith":7006,"software":7007,"gorith":7008,"symbol":7009,"KCTV":7010,"Frederick":7011,"reputation":7012,"equivalent":7013,"Netherlands":7014,"ABC":7015,"Every":7016,"Jane":7017,"Light":7018,"Moh":7019,"Nich":7020,"Pot":7021,"Pict":7022,"Pier":7023,"View":7024,"haps":7025,"mons":7026,"ography":7027,"uct":7028,"va":7029,"yo":7030,"thors":7031,"inity":7032,"theor":7033,"theless":7034,"asure":7035,"roles":7036,"ila":7037,"agents":7038,"expedition":7039,"illa":7040,"draft":7041,"oldest":7042,"Shia":7043,"transition":7044,"matters":7045,"azz":7046,"Management":7047,"valu":7048,"hosts":7049,"sufficient":7050,"drawing":7051,"earliest":7052,"Tsar":7053,"objects":7054,"apartment":7055,"chapel":7056,"chairman":7057,"rapidly":7058,"revolution":7059,"tribes":7060,"vessels":7061,"false":7062,"Tennes":7063,"Agric":7064,"astructure":7065,"Athen":7066,"Agency":7067,"Cop":7068,"Cons":7069,"Fer":7070,"bol":7071,"bid":7072,"dated":7073,"iples":7074,"pu":7075,"tt":7076,"tap":7077,"atures":7078,"beer":7079,"irk":7080,"1916":7081,"Inc":7082,"assign":7083,"note":7084,"brick":7085,"otherwise":7086,"merger":7087,"mining":7088,"intent":7089,"weather":7090,"eleven":7091,"Lewis":7092,"supports":7093,"insur":7094,"engaged":7095,"innov":7096,"Section":7097,"consult":7098,"household":7099,"descript":7100,"defend":7101,"Services":7102,"reflect":7103,"McNam":7104,"Highway":7105,"ulls":7106,"painter":7107,"helping":7108,"promote":7109,"discipl":7110,"employees":7111,"concerned":7112,"experienced":7113,"survived":7114,"Sunday":7115,"newspapers":7116,"emerged":7117,"bringing":7118,"Islamic":7119,"fixed":7120,"correct":7121,"cryst":7122,"agricultural":7123,"pione":7124,"Circassian":7125,"opposite":7126,"McNamara":7127,"1000":7128,"51":7129,"AA":7130,"Bou":7131,"Cas":7132,"Ever":7133,"GC":7134,"Hom":7135,"Hindu":7136,"Native":7137,"Rap":7138,"VA":7139,"cad":7140,"caught":7141,"march":7142,"rival":7143,"rape":7144,"sisters":7145,"tree":7146,"ye":7147,"alph":7148,"heim":7149,"entry":7150,"uni":7151,"agh":7152,"1922":7153,"aka":7154,"crimes":7155,"driving":7156,"destru":7157,"column":7158,"medal":7159,"medium":7160,"Real":7161,"understanding":7162,"genre":7163,"Convention":7164,"foundation":7165,"background":7166,"linked":7167,"Prior":7168,"communications":7169,"classified":7170,"techniques":7171,"Within":7172,"generation":7173,"Richmond":7174,"decline":7175,"dynam":7176,"eyes":7177,"Harry":7178,"eshiva":7179,"Olympic":7180,"vehicles":7181,"Motor":7182,"Additionally":7183,"Roger":7184,"emissions":7185,"Jeff":7186,"Kaweah":7187,"Tennessee":7188,"Gree":7189,"Row":7190,"SD":7191,"Tan":7192,"Wright":7193,"aunt":7194,"bin":7195,"cular":7196,"duty":7197,"fold":7198,"gal":7199,"lap":7200,"mart":7201,"mail":7202,"tension":7203,"von":7204,"inth":7205,"encing":7206,"algorith":7207,"repair":7208,"icy":7209,"icial":7210,"stance":7211,"secur":7212,"adap":7213,"accur":7214,"urer":7215,"terior":7216,"unknown":7217,"1930":7218,"prohib":7219,"illo":7220,"quot":7221,"oster":7222,"display":7223,"Anth":7224,"indicated":7225,"scar":7226,"charter":7227,"singing":7228,"designs":7229,"justice":7230,"personnel":7231,"Author":7232,"grees":7233,"solic":7234,"steel":7235,"explained":7236,"investment":7237,"reaching":7238,"Cape":7239,"villages":7240,"occurs":7241,"benefit":7242,"Commander":7243,"Broadway":7244,"Technology":7245,"thousands":7246,"Network":7247,"Abraham":7248,"76":7249,"Dill":7250,"FM":7251,"Fate":7252,"Lt":7253,"Lower":7254,"MK":7255,"Mack":7256,"Yu":7257,"ahead":7258,"dict":7259,"fab":7260,"ito":7261,"lad":7262,"nick":7263,"wau":7264,"án":7265,"inhabit":7266,"itu":7267,"icians":7268,"lets":7269,"hearing":7270,"sembly":7271,"accompan":7272,"consu":7273,"users":7274,"otic":7275,"plus":7276,"earning":7277,"ipality":7278,"strate":7279,"oking":7280,"attor":7281,"Album":7282,"Assembly":7283,"ahn":7284,"nament":7285,"showing":7286,"Prim":7287,"successor":7288,"Space":7289,"Plan":7290,"educated":7291,"compete":7292,"competitions":7293,"affairs":7294,"trait":7295,"acquis":7296,"documents":7297,"memory":7298,"Hugh":7299,"happy":7300,"criminal":7301,"installed":7302,"recommend":7303,"recommended":7304,"wedding":7305,"supplies":7306,"Kitana":7307,"Ukraine":7308,"opinion":7309,"Executive":7310,"89":7311,"Ama":7312,"CI":7313,"Dor":7314,"Ep":7315,"GP":7316,"Haz":7317,"Lar":7318,"Must":7319,"Madd":7320,"Slov":7321,"Vin":7322,"batter":7323,"census":7324,"len":7325,"puck":7326,"itted":7327,"ilst":7328,"idel":7329,"improved":7330,"igins":7331,"degrees":7332,"proced":7333,"ishment":7334,"Anton":7335,"fled":7336,"medieval":7337,"Whit":7338,"Leon":7339,"filmed":7340,"1949":7341,"markets":7342,"passes":7343,"domain":7344,"solution":7345,"holder":7346,"Mean":7347,"About":7348,"executed":7349,"significantly":7350,"birds":7351,"biggest":7352,"literary":7353,"ordinary":7354,"Satur":7355,"infrastructure":7356,"lyrics":7357,"Sektor":7358,"93":7359,"Cotton":7360,"Fa":7361,"MG":7362,"Mit":7363,"NFL":7364,"Pope":7365,"Saf":7366,"Turn":7367,"VI":7368,"mn":7369,"mud":7370,"none":7371,"sun":7372,"session":7373,"uous":7374,"vin":7375,"inspir":7376,"asts":7377,"rep":7378,"rein":7379,"icide":7380,"iling":7381,"secretary":7382,"user":7383,"1914":7384,"1925":7385,"1921":7386,"approv":7387,"pled":7388,"odge":7389,"aware":7390,"serial":7391,"choice":7392,"Angl":7393,"issance":7394,"regime":7395,"median":7396,"efficient":7397,"Islands":7398,"link":7399,"rolled":7400,"norm":7401,"heads":7402,"talk":7403,"values":7404,"Mead":7405,"Milwau":7406,"width":7407,"Iranian":7408,"completion":7409,"Curr":7410,"safe":7411,"concluded":7412,"suspended":7413,"distinct":7414,"dollar":7415,"exclus":7416,"Memorial":7417,"Milwaukee":7418,"59":7419,"Bat":7420,"Batt":7421,"Doc":7422,"DNA":7423,"Fun":7424,"Farm":7425,"Fund":7426,"Hop":7427,"Mons":7428,"Now":7429,"NBC":7430,"Odo":7431,"Sud":7432,"UC":7433,"nav":7434,"pension":7435,"sn":7436,"remark":7437,"stret":7438,"seas":7439,"convention":7440,"resem":7441,"abo":7442,"Init":7443,"expect":7444,"external":7445,"shops":7446,"meets":7447,"portfol":7448,"survey":7449,"legit":7450,"mayor":7451,"Adam":7452,"collected":7453,"lingu":7454,"factor":7455,"factors":7456,"lasted":7457,"1936":7458,"1930s":7459,"technique":7460,"historians":7461,"Luke":7462,"Legion":7463,"salary":7464,"automat":7465,"steps":7466,"details":7467,"fleet":7468,"throne":7469,"controversy":7470,"controversial":7471,"starred":7472,"Otto":7473,"aspects":7474,"deployed":7475,"700":7476,"BI":7477,"Call":7478,"Fish":7479,"Fame":7480,"NL":7481,"Nob":7482,"Wing":7483,"dock":7484,"hidden":7485,"ool":7486,"uters":7487,"wet":7488,"yellow":7489,"²)":7490,"icate":7491,"stable":7492,"ilation":7493,"chance":7494,"semin":7495,"olid":7496,"consecut":7497,"1929":7498,"ulum":7499,"ressing":7500,"neth":7501,"ifted":7502,"osis":7503,"essential":7504,"strict":7505,"Chann":7506,"osex":7507,"monument":7508,"tenance":7509,"guil":7510,"decade":7511,"humans":7512,"wooden":7513,"industries":7514,"responsibility":7515,"Communist":7516,"Trans":7517,"prepared":7518,"propag":7519,"arrang":7520,"arranged":7521,"Political":7522,"attached":7523,"Deputy":7524,"Protection":7525,"Collins":7526,"Celtic":7527,"accompanied":7528,"5th":7529,"6th":7530,"77":7531,"Gy":7532,"Here":7533,"Hans":7534,"Low":7535,"Live":7536,"Mand":7537,"Ni":7538,"NCA":7539,"Page":7540,"Scr":7541,"Vice":7542,"VWF":7543,"Won":7544,"Whist":7545,"crown":7546,"huge":7547,"iates":7548,"vant":7549,"wich":7550,"zen":7551,"intr":7552,"ala":7553,"recon":7554,"remove":7555,"chen":7556,"accounts":7557,"agree":7558,"1923":7559,"umber":7560,"shape":7561,"authors":7562,"phr":7563,"anything":7564,"regulation":7565,"producers":7566,"identify":7567,"jection":7568,"movements":7569,"supporters":7570,"innings":7571,"Sche":7572,"Prize":7573,"12th":7574,"Beg":7575,"Phill":7576,"renov":7577,"starts":7578,"motion":7579,"differences":7580,"breeding":7581,"learned":7582,"Express":7583,"towns":7584,"deaths":7585,"valley":7586,"sequently":7587,"sequences":7588,"causes":7589,"Internet":7590,"Regional":7591,"Regiment":7592,"Wilson":7593,"commander":7594,"assistant":7595,"institution":7596,"persons":7597,"journey":7598,"itzer":7599,"telling":7600,"Community":7601,"barristers":7602,"Gulf":7603,"Squad":7604,"Moscow":7605,"premiered":7606,"attributed":7607,"Foreign":7608,"Amaz":7609,"Bul":7610,"Base":7611,"Bio":7612,"Cann":7613,"Eis":7614,"MO":7615,"Orange":7616,"Pers":7617,"RS":7618,"Rod":7619,"Rang":7620,"Tony":7621,"catch":7622,"duties":7623,"iative":7624,"rican":7625,"ware":7626,"eries":7627,"isol":7628,"remov":7629,"amateur":7630,"oms":7631,"aced":7632,"ellect":7633,"waste":7634,"agan":7635,"Indu":7636,"comot":7637,"sud":7638,"Chart":7639,"formally":7640,"presents":7641,"context":7642,"driven":7643,"ampton":7644,"coln":7645,"cancell":7646,"regions":7647,"regiment":7648,"studying":7649,"parent":7650,"Confeder":7651,"erald":7652,"borne":7653,"Norman":7654,"carto":7655,"restored":7656,"testing":7657,"technologies":7658,"apply":7659,"judges":7660,"capture":7661,"frequency":7662,"circum":7663,"Vietnamese":7664,"bottom":7665,"citizen":7666,"Sarah":7667,"Lincoln":7668,"Ohio":7669,"conventional":7670,"parallel":7671,"Maddow":7672,"Saturday":7673,"Whistler":7674,"54":7675,"IP":7676,"Las":7677,"Power":7678,"Tig":7679,"bond":7680,"furn":7681,"ii":7682,"jury":7683,"til":7684,"thir":7685,"anced":7686,"analy":7687,"edict":7688,"atr":7689,"repl":7690,"itals":7691,"stages":7692,"heir":7693,"ivan":7694,"agen":7695,"shore":7696,"antenn":7697,"overty":7698,"acknow":7699,"Stage":7700,"timber":7701,"ensed":7702,"merch":7703,"interpret":7704,"rell":7705,"somewhat":7706,"doors":7707,"genetic":7708,"soil":7709,"lined":7710,"severe":7711,"Frances":7712,"decide":7713,"grapher":7714,"Place":7715,"facing":7716,"meetings":7717,"Jethro":7718,"believes":7719,"ruler":7720,"Wild":7721,"situated":7722,"threatened":7723,"Magazine":7724,"wrong":7725,"Olympics":7726,"adaptation":7727,"Cathedral":7728,"Croat":7729,"inhabitants":7730,"acquisition":7731,"52":7732,"Bos":7733,"CF":7734,"EN":7735,"Fel":7736,"Mann":7737,"Ok":7738,"Our":7739,"Six":7740,"Tot":7741,"etry":7742,"grown":7743,"mist":7744,"nations":7745,"swe":7746,"tie":7747,"task":7748,"anks":7749,"encounter":7750,"atus":7751,"alive":7752,"recalled":7753,"roid":7754,"amoun":7755,"ache":7756,"eline":7757,"unch":7758,"agers":7759,"eman":7760,"1910":7761,"erected":7762,"peak":7763,"cler":7764,"exists":7765,"shut":7766,"afford":7767,"notably":7768,"bran":7769,"timore":7770,"poetry":7771,"elev":7772,"understand":7773,"relief":7774,"releg":7775,"effic":7776,"instance":7777,"USF":7778,"slave":7779,"casual":7780,"Plot":7781,"patron":7782,"patients":7783,"amongst":7784,"Liu":7785,"greatly":7786,"interests":7787,"fortun":7788,"doesn":7789,"thodox":7790,"Railroad":7791,"teenth":7792,"Baltimore":7793,"colonial":7794,"reserve":7795,"Clarion":7796,"routes":7797,"scheme":7798,"algebra":7799,"Treaty":7800,"secured":7801,"consecutive":7802,"7th":7803,"82":7804,"Aber":7805,"Dirty":7806,"Ko":7807,"LG":7808,"Luc":7809,"Matt":7810,"Nation":7811,"NHL":7812,"PT":7813,"Publ":7814,"Run":7815,"Tamp":7816,"Wol":7817,"bay":7818,"bast":7819,"bott":7820,"cub":7821,"fest":7822,"hen":7823,"oen":7824,"poverty":7825,"rence":7826,"rush":7827,"send":7828,"vul":7829,"vary":7830,"orgas":7831,"stan":7832,"stress":7833,"lemagne":7834,"chain":7835,"champion":7836,"sect":7837,"acres":7838,"urs":7839,"idad":7840,"igs":7841,"determ":7842,"emot":7843,"ulating":7844,"alloc":7845,"alliance":7846,"grave":7847,"assass":7848,"assists":7849,"Child":7850,"ownership":7851,"timer":7852,"spokes":7853,"anniversary":7854,"flat":7855,"veterans":7856,"visions":7857,"ioch":7858,"16th":7859,"struction":7860,"modified":7861,"Adams":7862,"collections":7863,"Century":7864,"1938":7865,"denied":7866,"involving":7867,"copy":7868,"honour":7869,"Mission":7870,"separated":7871,"Maryland":7872,"Mexican":7873,"qualified":7874,"doub":7875,"massive":7876,"BSC":7877,"stopped":7878,"promise":7879,"guitarist":7880,"baby":7881,"detailed":7882,"journalist":7883,"improvements":7884,"Square":7885,"patterns":7886,"Antioch":7887,"absence":7888,"distinguished":7889,"Continental":7890,"franchise":7891,"Turkish":7892,"approval":7893,"osexual":7894,"sudden":7895,"Bab":7896,"Billy":7897,"Jord":7898,"Nelson":7899,"Rip":7900,"Race":7901,"Rights":7902,"Sull":7903,"Ten":7904,"Tro":7905,"Vic":7906,"Wrest":7907,"Yet":7908,"gn":7909,"lav":7910,"phe":7911,"wins":7912,"wants":7913,"ante":7914,"estr":7915,"asy":7916,"assum":7917,"const":7918,"avel":7919,"odic":7920,"perhaps":7921,"corrupt":7922,"aust":7923,"disabled":7924,"ighton":7925,"Univers":7926,"visible":7927,"160":7928,"borough":7929,"signals":7930,"populations":7931,"writes":7932,"Grant":7933,"organisation":7934,"skin":7935,"evening":7936,"Charlemagne":7937,"involves":7938,"begun":7939,"practical":7940,"practices":7941,"churches":7942,"directors":7943,"itchen":7944,"Simon":7945,"selection":7946,"habitat":7947,"requirements":7948,"chapter":7949,"encouraged":7950,"instrumental":7951,"negotiations":7952,"Freeway":7953,"wrestling":7954,"legislation":7955,"immigrants":7956,"1920s":7957,"Philippines":7958,"Chapel":7959,"garden":7960,"Shortly":7961,"Facebook":7962,"Greece":7963,"fabric":7964,"dollars":7965,"portfolio":7966,"Channel":7967,"Industr":7968,"determine":7969,"Sullivan":7970,"120":7971,"Ay":7972,"Age":7973,"Abu":7974,"Bh":7975,"Bes":7976,"Cle":7977,"Eric":7978,"Hard":7979,"Lah":7980,"Miam":7981,"NBA":7982,"Punk":7983,"Ret":7984,"Route":7985,"Wolf":7986,"ci":7987,"cous":7988,"cited":7989,"cock":7990,"fers":7991,"fishing":7992,"lights":7993,"nur":7994,"papers":7995,"rar":7996,"spr":7997,"tall":7998,"tact":7999}